<unk>	0
<s>	0
</s>	0
.	-2.55439
▁and	-3.22407
,	-3.29292
▁the	-3.29583
▁to	-3.56875
▁a	-3.66464
▁was	-3.86609
▁it	-4.4547
▁"	-4.4874
▁She	-4.572
▁her	-4.59538
▁He	-4.6051
▁They	-4.61897
'	-4.63825
▁said	-4.82289
▁The	-4.82561
▁he	-4.86047
▁in	-4.95816
▁with	-4.98384
▁she	-4.98472
▁Lily	-4.9921
▁his	-5.06162
s	-5.07841
▁day	-5.12181
▁that	-5.13625
▁of	-5.13999
▁you	-5.21556
▁had	-5.23447
▁they	-5.23484
▁so	-5.26292
▁on	-5.28511
▁for	-5.40962
▁very	-5.47654
!	-5.48774
▁time	-5.50921
▁little	-5.52102
▁there	-5.53246
▁mom	-5.54163
▁It	-5.55691
▁happy	-5.55944
▁is	-5.57205
▁not	-5.59948
▁big	-5.60696
▁saw	-5.60775
."	-5.61225
t	-5.62768
▁One	-5.67365
▁I	-5.68079
!"	-5.69231
▁but	-5.70904
▁were	-5.72267
▁play	-5.72598
▁Once	-5.7458
▁are	-5.83923
▁wanted	-5.85943
▁upon	-5.87263
▁girl	-5.87376
▁him	-5.88222
▁	-5.88368
▁them	-5.90074
▁their	-5.90256
▁have	-5.96468
▁be	-5.97357
▁Tom	-5.97538
▁up	-5.97868
▁Ben	-5.9916
▁went	-6.04712
▁go	-6.05825
?"	-6.07755
▁can	-6.08721
▁at	-6.09419
▁But	-6.0962
▁friends	-6.11004
▁all	-6.14766
▁back	-6.2076
▁Timmy	-6.21758
▁smiled	-6.22947
▁named	-6.23108
▁too	-6.23163
▁loved	-6.25572
▁like	-6.26898
▁asked	-6.26955
▁felt	-6.28878
▁fun	-6.29377
▁could	-6.29529
▁looked	-6.29597
▁around	-6.30886
▁out	-6.33705
▁boy	-6.37708
€	-6.39328
▁help	-6.40999
▁did	-6.41789
▁see	-6.4244
▁would	-6.43322
▁make	-6.43542
,"	-6.43708
▁what	-6.43831
▁some	-6.43849
▁says	-6.45891
▁away	-6.46516
▁You	-6.47479
▁ran	-6.48219
▁started	-6.4895
▁want	-6.49451
▁made	-6.50864
▁together	-6.51592
▁something	-6.52009
▁park	-6.52883
▁do	-6.55986
▁from	-6.5655
I	-6.57465
▁sad	-6.5776
▁put	-6.58006
▁new	-6.58881
▁Tim	-6.60645
▁home	-6.61114
▁again	-6.62476
▁bird	-6.62987
▁found	-6.62999
▁then	-6.63717
▁when	-6.66229
▁playing	-6.6693
▁other	-6.67652
▁who	-6.68845
▁things	-6.70481
▁liked	-6.71195
▁we	-6.72928
▁got	-6.74592
▁friend	-6.75422
▁excited	-6.75577
▁decided	-6.76234
▁came	-6.76305
▁Mom	-6.77944
▁scared	-6.78137
▁man	-6.78533
▁one	-6.78719
▁down	-6.80641
▁Sam	-6.82677
▁an	-6.82731
▁dog	-6.83001
▁Anna	-6.83754
▁will	-6.8534
▁find	-6.85381
▁your	-6.85872
▁Max	-6.8654
▁get	-6.86567
▁me	-6.86947
â	-6.87913
▁didn	-6.88283
▁took	-6.88774
▁about	-6.88905
▁always	-6.89
▁mommy	-6.90138
▁toys	-6.90157
▁good	-6.90448
▁outside	-6.91967
▁tree	-6.91977
▁more	-6.92981
▁my	-6.93507
▁as	-6.93552
▁thought	-6.9657
▁take	-6.98526
▁old	-6.99138
▁special	-7.0003
▁knew	-7.0059
▁When	-7.01
▁dad	-7.0187
▁car	-7.02518
▁Her	-7.02847
▁toy	-7.03051
▁how	-7.06138
▁sorry	-7.06603
▁know	-7.07491
▁much	-7.09193
▁house	-7.10192
▁So	-7.10212
▁Jack	-7.11108
▁look	-7.13609
▁into	-7.14057
▁tried	-7.14229
▁inside	-7.14528
▁told	-7.15242
▁this	-7.15536
▁ball	-7.16179
▁gave	-7.16298
▁if	-7.16413
▁heard	-7.16826
▁couldn	-7.17068
m	-7.17097
▁each	-7.17295
▁never	-7.17903
▁water	-7.18147
▁We	-7.18339
▁Mia	-7.20099
▁Suddenly	-7.20177
▁room	-7.20258
▁over	-7.20443
▁played	-7.2064
▁Sara	-7.21095
▁proud	-7.21794
▁hugged	-7.22069
▁Then	-7.22169
▁just	-7.22532
▁no	-7.24703
▁From	-7.25119
▁because	-7.2556
▁many	-7.25991
▁His	-7.26312
▁nice	-7.30012
▁box	-7.30132
▁bear	-7.31635
▁And	-7.32528
▁small	-7.3411
▁learned	-7.34452
▁until	-7.34475
▁better	-7.36012
▁â	-7.37009
▁don	-7.38152
▁best	-7.38544
▁careful	-7.4148
▁eat	-7.41963
▁garden	-7.42863
▁off	-7.4333
▁thanked	-7.43936
▁sky	-7.44205
▁laughed	-7.44365
▁cat	-7.44679
▁say	-7.45107
Yes	-7.45447
▁by	-7.47273
▁come	-7.47386
▁love	-7.47725
▁even	-7.48178
▁beautiful	-7.48889
▁long	-7.49015
▁end	-7.49118
▁animals	-7.50031
▁still	-7.50319
▁lots	-7.50357
▁kind	-7.51622
?	-7.52923
▁both	-7.54017
▁way	-7.54837
▁safe	-7.55347
▁let	-7.55556
▁feel	-7.57032
▁two	-7.57521
▁hard	-7.57789
▁lived	-7.58392
▁As	-7.58824
You	-7.59184
▁walked	-7.59502
▁angry	-7.59741
▁Lucy	-7.60664
▁hurt	-7.61512
▁red	-7.6155
▁family	-7.61734
▁loud	-7.61804
▁sun	-7.61945
▁people	-7.61967
▁flew	-7.62001
▁called	-7.62818
▁try	-7.63084
▁brave	-7.63612
▁every	-7.63734
▁soon	-7.63902
▁share	-7.64154
It	-7.64234
▁bad	-7.6463
▁After	-7.64888
▁kept	-7.65554
▁Mommy	-7.65822
▁or	-7.66607
▁going	-7.67389
▁pretty	-7.67801
▁John	-7.69055
▁noise	-7.6936
▁shiny	-7.69878
▁opened	-7.70601
▁should	-7.71032
▁before	-7.71504
Let	-7.71738
▁run	-7.72333
▁also	-7.72553
▁door	-7.72788
▁ground	-7.73335
▁fast	-7.73461
▁lot	-7.73893
▁hug	-7.74001
▁explore	-7.74078
▁idea	-7.74706
▁now	-7.75082
▁nodded	-7.75282
▁its	-7.75351
No	-7.7547
▁feeling	-7.77045
▁has	-7.7727
▁picked	-7.77369
▁keep	-7.77745
▁next	-7.7794
▁walking	-7.78875
▁while	-7.80011
▁Every	-7.80242
What	-7.80495
▁smile	-7.80721
▁need	-7.80919
▁give	-7.8289
▁being	-7.83022
▁show	-7.83236
▁food	-7.85387
▁eyes	-7.85501
▁looking	-7.85689
▁stopped	-7.86393
▁Spot	-7.88282
▁Sue	-7.88473
That	-7.8868
▁hand	-7.88781
Thank	-7.8923
▁Bob	-7.89377
▁clean	-7.89414
▁flowers	-7.89536
▁great	-7.89568
▁ever	-7.89923
▁hands	-7.90536
-	-7.90766
▁noticed	-7.9114
▁forest	-7.91402
▁slide	-7.9222
▁fish	-7.9242
▁important	-7.92925
▁okay	-7.93543
▁replied	-7.93751
▁showed	-7.94225
▁listen	-7.94242
▁truck	-7.95561
▁after	-7.96435
▁Sarah	-7.96714
▁right	-7.96791
▁watched	-7.97082
▁voice	-7.97771
▁everyone	-7.98036
▁blue	-7.98293
▁stay	-7.98833
▁where	-7.98974
▁been	-7.99125
▁quickly	-7.99793
▁rabbit	-7.99934
We	-8.00099
▁face	-8.00199
▁bed	-8.00548
▁different	-8.00775
▁became	-8.01395
▁Jane	-8.01531
▁goodbye	-8.01532
▁place	-8.01655
▁walk	-8.01784
▁sure	-8.02188
▁high	-8.02207
▁closer	-8.02643
▁work	-8.02962
Look	-8.03785
▁head	-8.03811
re	-8.03886
▁our	-8.045
▁cake	-8.0479
▁fly	-8.05195
▁curious	-8.05289
▁store	-8.05399
▁Lila	-8.0646
▁mean	-8.06705
▁three	-8.06921
▁anymore	-8.07038
▁here	-8.08323
▁first	-8.08622
▁Dad	-8.0934
▁use	-8.09482
▁grabbed	-8.10174
▁doll	-8.10223
▁strong	-8.10407
▁boat	-8.10444
▁only	-8.11239
▁fell	-8.11378
▁us	-8.11607
▁night	-8.12334
▁does	-8.12346
▁wait	-8.12552
▁kitchen	-8.12684
▁warm	-8.13098
▁jumped	-8.13326
▁That	-8.13454
Can	-8.1348
▁Everyone	-8.13693
▁adventure	-8.13962
▁glad	-8.14005
▁helped	-8.14238
▁birds	-8.15418
▁happened	-8.15915
▁cry	-8.16306
▁shouted	-8.16393
▁dress	-8.16935
▁Let	-8.17299
▁story	-8.17988
▁book	-8.18177
▁bunny	-8.18273
▁reached	-8.18397
▁sees	-8.18909
▁Joe	-8.19224
▁realized	-8.19245
▁yummy	-8.19263
▁grass	-8.19785
▁Tommy	-8.19837
▁bright	-8.19971
▁having	-8.20099
▁open	-8.20755
▁am	-8.20961
▁ate	-8.20969
▁rock	-8.2111
▁favorite	-8.21148
▁game	-8.21196
▁bit	-8.21353
▁thing	-8.2175
▁mum	-8.21902
▁Can	-8.22609
▁ready	-8.22903
▁learn	-8.23259
▁watch	-8.23785
▁really	-8.23809
▁through	-8.23912
▁began	-8.24017
▁lady	-8.24224
▁making	-8.24799
▁looks	-8.2484
▁done	-8.25012
▁world	-8.2504
▁himself	-8.25187
▁stop	-8.25424
▁kids	-8.25504
▁coming	-8.25766
▁waved	-8.26205
▁why	-8.26227
▁pond	-8.26256
▁near	-8.26325
▁Do	-8.26666
▁than	-8.26952
▁name	-8.27211
▁tired	-8.27484
▁mouse	-8.27971
Wow	-8.28459
▁flower	-8.28499
▁cars	-8.28583
▁funny	-8.28793
▁worry	-8.29015
▁cried	-8.2922
▁used	-8.29408
▁another	-8.29848
▁top	-8.29893
▁seen	-8.29986
▁under	-8.30323
▁blocks	-8.30443
▁parents	-8.30519
▁doing	-8.31217
▁touch	-8.31624
▁surprise	-8.3186
▁hopped	-8.32043
▁green	-8.3212
▁care	-8.3228
▁Sally	-8.32531
▁think	-8.32605
▁catch	-8.32951
▁soft	-8.32951
▁floor	-8.33584
▁A	-8.33858
▁paper	-8.33873
▁lesson	-8.34024
▁brother	-8.34606
▁behind	-8.34681
▁wished	-8.34937
▁running	-8.35271
▁yellow	-8.35419
▁worked	-8.35497
▁full	-8.35509
".	-8.36322
▁pick	-8.36401
▁years	-8.36705
▁Daisy	-8.3761
▁happily	-8.3762
▁trees	-8.38195
▁-	-8.38198
▁surprised	-8.3832
Don	-8.3869
▁likes	-8.38764
▁lost	-8.3894
▁hole	-8.39169
▁held	-8.39334
▁Benny	-8.39344
▁butterfly	-8.39389
▁carefully	-8.39538
▁remembered	-8.39992
▁ice	-8.40062
TMs	-8.40143
▁tell	-8.40466
▁needed	-8.40551
▁hear	-8.41199
▁cold	-8.41758
▁At	-8.41925
▁cool	-8.4217
Hello	-8.42347
▁left	-8.42516
▁dark	-8.42687
▁picture	-8.42925
▁wrong	-8.42974
▁anything	-8.43117
▁sat	-8.43366
▁enjoyed	-8.43751
▁followed	-8.43844
▁move	-8.43881
▁sound	-8.43918
▁Billy	-8.44113
▁buy	-8.44139
▁Now	-8.44361
▁children	-8.44603
▁Finally	-8.44821
▁hat	-8.45012
▁There	-8.45711
▁friendly	-8.46076
▁finished	-8.46138
▁delicious	-8.46561
▁please	-8.46717
▁close	-8.46971
▁herself	-8.4703
▁table	-8.47957
▁window	-8.4827
▁frog	-8.48699
▁own	-8.49157
▁else	-8.4937
▁Molly	-8.49523
▁Amy	-8.49845
▁arrived	-8.49877
▁rain	-8.50186
▁swing	-8.502
ll	-8.50248
▁wonderful	-8.50255
▁baby	-8.50328
▁colors	-8.50519
▁wind	-8.50818
▁broken	-8.50935
▁stick	-8.51573
▁gone	-8.51777
▁climb	-8.51939
▁read	-8.52443
▁able	-8.52453
▁sweet	-8.53142
▁someone	-8.53267
▁bag	-8.53528
▁filled	-8.53857
▁agreed	-8.5387
▁hill	-8.53917
▁books	-8.54325
▁tall	-8.5496
▁continued	-8.55107
▁This	-8.5585
▁pink	-8.55896
▁leaves	-8.55989
▁yes	-8.56424
▁jump	-8.56434
▁lion	-8.56448
▁understand	-8.56589
▁any	-8.56664
▁enough	-8.57463
▁ask	-8.57755
▁wants	-8.5808
▁morning	-8.5831
▁getting	-8.58845
▁Maybe	-8.5889
▁far	-8.59245
▁cookies	-8.59262
▁finally	-8.59728
▁stayed	-8.59808
▁laugh	-8.59854
▁hair	-8.60207
▁hot	-8.60279
▁fire	-8.60548
▁mess	-8.60643
▁grandma	-8.60663
▁scary	-8.60821
▁sometimes	-8.60829
▁hungry	-8.6105
▁forgot	-8.61111
▁beach	-8.61577
▁turned	-8.62017
▁dinner	-8.62448
▁What	-8.62484
▁few	-8.62594
▁trying	-8.62669
▁mother	-8.628
▁amazing	-8.62907
▁castle	-8.63056
▁set	-8.63152
▁climbed	-8.63488
▁daddy	-8.63519
▁pictures	-8.64631
▁listened	-8.64987
▁white	-8.65117
▁wet	-8.65124
▁smiles	-8.65396
▁squirrel	-8.66018
▁air	-8.66347
▁talk	-8.66552
▁clothes	-8.6674
▁moment	-8.66817
▁Jill	-8.67209
▁others	-8.67261
▁alone	-8.67268
▁fix	-8.6745
▁makes	-8.67606
▁cream	-8.67673
▁puppy	-8.67935
▁light	-8.68623
▁rest	-8.68868
▁brought	-8.69217
▁tail	-8.69263
▁everything	-8.69312
▁asks	-8.69355
▁pulled	-8.69672
▁strange	-8.7033
▁ride	-8.70428
▁duck	-8.70626
▁woods	-8.70715
▁won	-8.71342
▁wasn	-8.72273
▁might	-8.72631
▁thank	-8.72887
Oh	-8.7293
▁leave	-8.73267
▁joy	-8.73354
▁teddy	-8.73705
▁waited	-8.73772
▁amazed	-8.74141
▁hide	-8.74358
▁fox	-8.74945
▁towards	-8.75088
▁Soon	-8.75659
▁owner	-8.76507
▁silly	-8.76779
But	-8.76828
▁sing	-8.77042
▁flying	-8.77184
▁living	-8.77251
▁runs	-8.77295
▁shared	-8.77711
▁draw	-8.7802
▁thinks	-8.78289
This	-8.7868
▁promised	-8.78754
▁pretend	-8.78882
▁perfect	-8.78901
▁job	-8.79072
▁lake	-8.79337
▁moral	-8.79404
▁In	-8.79463
Maybe	-8.79533
▁wear	-8.79632
▁race	-8.79827
▁Mama	-8.7984
▁All	-8.79912
▁Daddy	-8.8038
▁Mary	-8.80586
▁deep	-8.81095
▁sand	-8.81167
▁party	-8.81306
▁money	-8.81808
Okay	-8.81929
▁colorful	-8.82179
▁worried	-8.82632
▁slowly	-8.82694
▁faster	-8.8284
▁dance	-8.82918
▁broke	-8.83178
▁pieces	-8.83178
▁monster	-8.84099
▁bigger	-8.84213
▁grateful	-8.84503
▁candy	-8.8471
▁train	-8.85007
Mom	-8.85159
▁such	-8.85256
▁visit	-8.85476
▁bike	-8.86019
O	-8.86101
▁sit	-8.86699
▁dangerous	-8.86981
▁cut	-8.87269
▁everywhere	-8.87829
▁magical	-8.87871
▁side	-8.87903
▁join	-8.87986
▁helping	-8.88506
▁sister	-8.88827
▁music	-8.88868
▁tower	-8.89022
▁smart	-8.89187
▁across	-8.89347
▁Just	-8.8936
▁farmer	-8.89504
▁most	-8.90078
▁sleep	-8.90428
▁heavy	-8.90624
▁reach	-8.90646
▁dirty	-8.90661
▁words	-8.90866
▁twins	-8.90927
▁dragon	-8.91067
▁dolls	-8.9108
▁bite	-8.91139
▁threw	-8.91147
▁met	-8.91391
▁crying	-8.9144
▁wall	-8.91648
Sure	-8.91949
▁stepped	-8.91955
▁bug	-8.91982
▁same	-8.92088
▁tight	-8.92093
▁river	-8.92097
▁spot	-8.92136
▁Jimmy	-8.92971
▁field	-8.93242
▁believe	-8.93311
TMt	-8.93343
▁princess	-8.93463
▁Grandma	-8.93672
▁song	-8.93729
▁balloon	-8.94
▁remember	-8.94244
▁start	-8.94256
▁closed	-8.9438
Hi	-8.94543
▁turn	-8.94833
▁hoped	-8.94909
▁stuck	-8.95267
▁wouldn	-8.95703
▁quiet	-8.9592
▁bowl	-8.9616
▁course	-8.97109
▁swim	-8.97133
▁Mum	-8.97323
Why	-8.97373
▁must	-8.97473
▁mouth	-8.97478
▁suddenly	-8.97541
▁school	-8.97674
▁brown	-8.97692
▁feels	-8.97915
▁clapped	-8.98282
▁fairy	-8.98326
Mommy	-8.98567
▁eating	-8.98791
▁town	-8.98901
▁Emma	-8.99209
▁black	-8.99858
▁pushed	-8.99869
▁gentle	-8.99985
▁paint	-9.0005
▁welcome	-9.00355
▁doctor	-9.00624
▁drove	-9.00854
▁break	-9.01054
▁animal	-9.01055
▁without	-9.01285
▁today	-9.01295
▁blanket	-9.01614
▁Inside	-9.02341
▁yard	-9.02344
▁higher	-9.02483
▁piece	-9.027
▁swings	-9.02714
▁child	-9.02984
▁Their	-9.03536
▁wings	-9.03985
▁treasure	-9.04019
▁teacher	-9.04128
▁pet	-9.0423
▁explained	-9.04513
▁cheered	-9.04683
▁longer	-9.0494
▁games	-9.0495
▁magic	-9.05135
▁late	-9.05527
▁sang	-9.06106
▁noises	-9.06512
▁build	-9.06534
▁turns	-9.06662
▁shoes	-9.06822
▁well	-9.07139
▁hugs	-9.07159
▁stories	-9.0739
▁singing	-9.07507
▁along	-9.07828
▁lonely	-9.08095
▁sign	-9.08179
▁fence	-9.08642
▁wish	-9.08776
▁dry	-9.09102
▁apple	-9.09536
▁shook	-9.09587
▁upset	-9.09637
d	-9.09675
▁mine	-9.09778
▁adventures	-9.10182
▁Fluffy	-9.10545
▁bee	-9.10665
▁monkey	-9.10772
ed	-9.10903
▁hold	-9.10905
▁jar	-9.10928
▁young	-9.11006
▁pocket	-9.11011
▁naughty	-9.11282
▁moved	-9.1135
▁stars	-9.11483
▁On	-9.11508
▁year	-9.11659
▁fight	-9.11802
▁wise	-9.11827
▁exploring	-9.11829
▁caught	-9.11837
▁lunch	-9.11888
▁forget	-9.11934
▁soup	-9.12085
▁nearby	-9.12129
▁Sammy	-9.1227
▁dropped	-9.12606
▁enjoy	-9.12685
▁sea	-9.12777
▁backyard	-9.13077
▁seemed	-9.13401
▁purple	-9.13444
▁shapes	-9.1363
▁owl	-9.13781
▁swam	-9.13797
▁chair	-9.13831
▁orange	-9.1404
▁rocks	-9.14345
▁star	-9.14384
▁heart	-9.14434
▁taking	-9.1478
▁hit	-9.14808
▁bench	-9.14955
▁street	-9.14967
▁nap	-9.15194
▁though	-9.15718
"	-9.16319
▁woke	-9.16593
▁nose	-9.16631
▁juice	-9.16988
▁busy	-9.17003
Lily	-9.17108
▁real	-9.17333
▁sounds	-9.17542
▁Later	-9.17597
▁tiny	-9.17963
▁kite	-9.18072
▁mad	-9.181
▁holding	-9.18136
▁wondered	-9.18551
▁snow	-9.18663
▁arms	-9.18764
▁sitting	-9.1881
▁pull	-9.18906
▁nest	-9.18918
▁farm	-9.19118
▁daughter	-9.19173
▁branch	-9.19742
▁Mr	-9.20323
▁nothing	-9.20328
▁afraid	-9.20735
▁basket	-9.21012
▁comes	-9.21136
▁secret	-9.21389
▁cute	-9.21614
▁fall	-9.21643
▁fit	-9.21721
Do	-9.21903
▁With	-9.21905
▁bucket	-9.22027
▁gift	-9.22226
▁takes	-9.22378
▁relieved	-9.22461
▁key	-9.22549
▁Thank	-9.2256
▁elephant	-9.22649
▁Come	-9.22776
▁forever	-9.22906
▁promise	-9.23087
▁hello	-9.2318
▁bring	-9.23374
▁touched	-9.23522
▁birthday	-9.23554
▁sick	-9.23627
▁cheese	-9.23837
▁round	-9.24718
▁driver	-9.24894
▁dream	-9.25189
▁huge	-9.25444
▁Jenny	-9.25617
▁sunny	-9.25809
ing	-9.26053
Of	-9.26148
▁onto	-9.2617
▁bread	-9.26225
▁rainbow	-9.26326
▁drink	-9.26544
▁laughing	-9.26646
▁pot	-9.26694
▁bottle	-9.2697
▁exciting	-9.27689
▁cozy	-9.28312
e	-9.2845
▁swimming	-9.28657
▁Emily	-9.28755
▁bush	-9.29228
▁follow	-9.29279
Hey	-9.29388
▁instead	-9.2951
▁life	-9.29603
▁cave	-9.29629
▁milk	-9.29835
▁plan	-9.29846
▁watching	-9.30095
▁lucky	-9.30196
▁pointed	-9.30446
▁accidentally	-9.30483
▁treat	-9.30579
▁journey	-9.31285
▁sharp	-9.31687
▁sunshine	-9.31841
▁grow	-9.32132
▁Jen	-9.32181
▁talked	-9.32294
▁Jim	-9.3236
▁gives	-9.32528
▁later	-9.32618
▁honey	-9.32707
▁smiling	-9.33245
▁woman	-9.3356
▁anyone	-9.33646
▁bought	-9.33762
▁searched	-9.33904
▁ducks	-9.33961
▁hope	-9.34399
▁pile	-9.35173
▁apples	-9.35185
▁healthy	-9.35191
▁rope	-9.35361
▁button	-9.36216
▁crayons	-9.36457
▁interesting	-9.36574
▁wide	-9.36668
▁win	-9.36735
▁plane	-9.37737
▁tasty	-9.37813
▁smelled	-9.38032
▁shining	-9.38467
▁free	-9.3851
▁clouds	-9.38561
▁loves	-9.38709
▁clever	-9.39068
▁front	-9.39099
▁person	-9.39232
▁screamed	-9.39568
œI	-9.39808
▁mud	-9.40154
▁snake	-9.40466
▁trouble	-9.40537
▁snowman	-9.40558
▁coat	-9.40617
▁Jake	-9.40699
▁cup	-9.40826
▁spotted	-9.40921
▁fair	-9.41083
▁storm	-9.41105
▁arm	-9.41398
▁snack	-9.41439
▁spoon	-9.41556
▁road	-9.41598
▁danced	-9.42291
The	-9.42577
▁Mittens	-9.42638
▁patient	-9.42917
▁lovely	-9.43135
▁which	-9.43154
▁shop	-9.4335
▁appeared	-9.43456
▁goes	-9.43523
▁asleep	-9.43561
▁tries	-9.4366
▁horse	-9.43675
▁gently	-9.43705
▁bow	-9.43754
▁answer	-9.44093
▁Lisa	-9.4415
▁Together	-9.44281
▁wearing	-9.44682
▁path	-9.44686
▁corner	-9.44866
▁phone	-9.44871
▁whole	-9.44958
▁fruit	-9.45056
▁forgive	-9.45064
▁confused	-9.45824
▁teeth	-9.46367
▁matter	-9.4651
▁dirt	-9.46801
▁king	-9.47004
▁rolled	-9.47794
▁rude	-9.47929
▁giant	-9.47936
▁places	-9.48078
▁tasted	-9.48438
▁machine	-9.48627
▁spider	-9.48638
Come	-9.48755
▁pretended	-9.48766
▁ocean	-9.48887
▁spent	-9.49362
▁oven	-9.49403
▁cookie	-9.49694
▁wild	-9.50039
▁wave	-9.50424
▁furry	-9.50723
▁feet	-9.50832
▁Peter	-9.51127
▁problem	-9.51213
▁throw	-9.51497
▁zoo	-9.52491
▁helpful	-9.52691
▁smell	-9.52721
▁tomorrow	-9.52736
▁drive	-9.52831
▁faces	-9.52948
▁couch	-9.53029
▁last	-9.5308
▁picnic	-9.53151
▁coin	-9.5352
▁push	-9.53606
▁ladder	-9.53839
▁talking	-9.53906
▁slow	-9.54247
▁building	-9.54331
▁cow	-9.54355
▁eventually	-9.54416
▁happen	-9.54477
▁calm	-9.5491
▁village	-9.54939
▁Sometimes	-9.55042
▁write	-9.5508
▁puddle	-9.55112
Good	-9.55266
▁fighting	-9.55454
▁knee	-9.55471
▁trip	-9.55623
▁hiding	-9.55656
▁fur	-9.55678
▁wore	-9.55679
▁part	-9.55835
▁call	-9.55932
▁Teddy	-9.55944
▁chased	-9.56064
▁grab	-9.56416
▁blew	-9.5662
▁waiting	-9.56855
▁finish	-9.56918
▁bugs	-9.57173
▁cannot	-9.57393
▁pool	-9.57397
▁shy	-9.57548
▁chocolate	-9.57666
▁treats	-9.57821
▁T	-9.57913
▁whenever	-9.57931
▁string	-9.57947
▁Little	-9.58406
▁sack	-9.58534
▁shelf	-9.58575
▁taste	-9.58596
▁mind	-9.58895
▁Mummy	-9.59027
▁maybe	-9.59044
▁songs	-9.59131
▁lay	-9.59268
▁leaf	-9.59497
▁large	-9.59875
▁barked	-9.59961
▁carrot	-9.60283
▁Everywhere	-9.6053
▁smooth	-9.60792
▁selfish	-9.61029
▁fixed	-9.6104
▁letter	-9.61262
▁stone	-9.61376
▁plant	-9.61674
▁wash	-9.61857
▁necklace	-9.61913
▁count	-9.62173
▁robot	-9.62224
▁color	-9.62439
▁cloth	-9.6262
▁hid	-9.62624
▁neighbor	-9.62806
▁spread	-9.62935
▁Please	-9.63084
▁cloud	-9.63109
▁shirt	-9.63153
▁missed	-9.63307
Tom	-9.63363
▁jungle	-9.63381
▁kiss	-9.63667
▁creature	-9.63857
▁landed	-9.64026
▁How	-9.64284
▁Alice	-9.64333
▁meet	-9.64349
ex	-9.6448
▁creative	-9.64725
▁forward	-9.64886
▁Johnny	-9.64938
▁tea	-9.65015
▁bell	-9.6502
▁peaceful	-9.65022
▁jumping	-9.651
▁seat	-9.65308
▁carry	-9.6539
▁line	-9.65414
▁hears	-9.65437
▁land	-9.65529
▁sharing	-9.65627
▁tidy	-9.65688
▁embarrassed	-9.65767
▁teach	-9.66042
▁whistle	-9.66046
▁knocked	-9.66098
▁sticks	-9.66275
My	-9.66349
▁Whil	-9.66471
▁carrots	-9.66663
Please	-9.6668
▁bus	-9.66712
▁plate	-9.66819
▁almost	-9.67061
▁ashamed	-9.67153
▁splash	-9.67172
▁tightly	-9.67392
▁stood	-9.67499
▁legs	-9.67683
▁moon	-9.67881
▁gray	-9.68124
▁Even	-9.6814
▁save	-9.68263
▁grew	-9.68338
▁tells	-9.68601
▁Why	-9.68638
▁Don	-9.68879
▁empty	-9.69411
▁understood	-9.69428
▁kitten	-9.69558
▁nods	-9.69663
▁protect	-9.69779
▁yelled	-9.69968
▁carried	-9.70058
▁meant	-9.7063
▁honest	-9.70672
▁these	-9.71085
▁sheep	-9.71132
▁meadow	-9.71179
▁crab	-9.71333
▁bath	-9.71543
▁disappointed	-9.71754
▁hospital	-9.71801
▁sail	-9.71825
▁hours	-9.71839
▁stand	-9.71867
▁sparkly	-9.7195
▁snacks	-9.72342
▁breath	-9.72472
▁sighed	-9.73119
▁scarf	-9.73237
▁taught	-9.73447
▁Leo	-9.73653
▁hidden	-9.73816
▁band	-9.73923
▁bedroom	-9.73948
▁days	-9.73994
▁bored	-9.7411
▁standing	-9.74127
▁puzzle	-9.74211
▁present	-9.74423
▁cook	-9.74639
▁easy	-9.74679
▁mountain	-9.74842
Stop	-9.74867
▁drew	-9.74961
▁generous	-9.75027
▁shore	-9.75167
▁plants	-9.75278
▁spicy	-9.75344
▁polite	-9.75363
▁ant	-9.75474
▁mysterious	-9.75616
▁hop	-9.75764
▁returned	-9.75901
▁waves	-9.75912
▁minutes	-9.75949
▁messy	-9.76111
▁sour	-9.76395
▁knowing	-9.7645
▁finger	-9.76495
▁worm	-9.76543
▁sleepy	-9.76782
▁thankful	-9.77085
▁closet	-9.77105
▁powerful	-9.77202
▁Mark	-9.77347
▁wolf	-9.77384
▁passed	-9.77415
▁kissed	-9.7742
▁frustrated	-9.77619
▁Susie	-9.77747
▁determined	-9.77796
▁bridge	-9.77805
▁cries	-9.77909
▁sandwich	-9.78113
▁pizza	-9.78115
▁yourself	-9.78216
▁ship	-9.7844
▁block	-9.78538
▁gate	-9.78743
▁fancy	-9.7888
▁group	-9.78974
▁lock	-9.79309
▁chest	-9.79325
▁gathered	-9.7956
▁ring	-9.79602
▁prince	-9.79615
Where	-9.79745
Sorry	-9.79758
▁tears	-9.79912
▁grumpy	-9.79932
▁poor	-9.8025
▁often	-9.80319
▁mummy	-9.8068
▁answered	-9.80881
▁Today	-9.81118
▁scissors	-9.81492
Ben	-9.81525
Are	-9.8154
▁hopping	-9.81646
▁ugly	-9.82251
▁wood	-9.82691
▁tie	-9.82728
▁saved	-9.82848
▁expensive	-9.82852
▁caterpillar	-9.82874
▁shell	-9.82967
▁working	-9.82983
▁wagged	-9.83
▁taken	-9.83048
▁middle	-9.83223
▁leg	-9.83322
▁card	-9.83487
▁excitement	-9.8363
▁deer	-9.83713
▁vase	-9.83788
▁true	-9.83796
▁mix	-9.83917
▁lit	-9.83985
▁boring	-9.84005
▁ok	-9.84233
▁mail	-9.84321
▁spin	-9.84402
▁rocket	-9.84498
▁net	-9.84519
▁pig	-9.85005
▁mistake	-9.85026
▁brush	-9.85143
▁Go	-9.85256
▁roll	-9.85419
▁bone	-9.85431
▁nervous	-9.85465
▁pleased	-9.8565
▁giggled	-9.8572
▁feed	-9.85848
▁seek	-9.85885
▁asking	-9.86019
▁comfortable	-9.86062
▁medicine	-9.86071
▁picks	-9.86146
itty	-9.86424
▁packed	-9.86478
▁glass	-9.86708
▁crown	-9.87009
▁police	-9.87107
▁dancing	-9.8715
▁fruits	-9.87288
▁sugar	-9.87346
▁cage	-9.8735
▁pain	-9.87433
▁especially	-9.87547
▁O	-9.87655
▁Bobby	-9.87724
▁drawing	-9.87767
▁vegetables	-9.87985
▁fake	-9.88112
▁distance	-9.88207
▁sweetie	-9.88774
▁eggs	-9.88839
▁Some	-9.88987
▁lying	-9.89019
▁lose	-9.89456
▁change	-9.89515
▁bake	-9.89588
▁splashed	-9.89879
▁disappeared	-9.89923
▁licked	-9.90125
▁glue	-9.90203
▁roar	-9.90291
▁calling	-9.90616
▁Eventually	-9.90656
▁number	-9.90676
▁smelly	-9.90696
▁moving	-9.90702
▁become	-9.90709
▁feathers	-9.90715
▁match	-9.90934
▁tent	-9.90976
▁nod	-9.90981
▁If	-9.91081
▁bathroom	-9.91194
▁tape	-9.91907
▁Pete	-9.92021
▁walks	-9.92398
▁playground	-9.9243
▁pay	-9.92534
▁body	-9.92539
▁lazy	-9.92548
▁noisy	-9.92575
▁mirror	-9.93211
▁questions	-9.93325
▁Mandy	-9.93327
▁gun	-9.93528
▁drank	-9.93617
▁fluffy	-9.93773
▁skipped	-9.93829
▁famous	-9.93866
Who	-9.93889
▁test	-9.93906
▁ruined	-9.93914
▁respect	-9.93947
▁elderly	-9.93987
▁queen	-9.94121
▁stones	-9.94646
▁father	-9.94856
▁decide	-9.9508
▁covered	-9.9523
▁fill	-9.95303
▁live	-9.95633
▁incredible	-9.95641
▁pillow	-9.95666
▁wrote	-9.95697
▁towel	-9.95808
▁juicy	-9.95819
▁rich	-9.96016
▁weak	-9.96081
▁zoom	-9.96092
▁eager	-9.96145
▁lamp	-9.96155
▁bubbles	-9.96324
▁Ellie	-9.96567
▁coins	-9.9663
▁gets	-9.967
▁flag	-9.96815
▁sailed	-9.97233
▁cleaned	-9.97563
▁End	-9.97794
▁rare	-9.97818
▁joke	-9.97868
Help	-9.98008
▁branches	-9.98263
▁ones	-9.98484
▁balance	-9.98569
▁measure	-9.98608
▁lifted	-9.9861
▁fine	-9.98616
▁wheel	-9.98781
▁clear	-9.98809
▁tiger	-9.98811
▁dig	-9.9885
▁realised	-9.98968
▁offered	-9.98995
▁No	-9.99116
▁map	-9.99138
▁discovered	-9.99458
▁eye	-9.99581
▁word	-9.99721
▁loyal	-9.99776
▁neck	-9.99811
▁chicken	-9.99898
▁barn	-10.0006
▁shows	-10.0007
ose	-10.0008
▁clown	-10.0009
▁adventurous	-10.0028
▁Ella	-10.0032
Now	-10.0046
▁soap	-10.0057
▁colourful	-10.0071
▁circle	-10.0072
▁organized	-10.0074
▁cross	-10.008
▁happening	-10.0081
▁tag	-10.0082
▁unique	-10.0086
▁bottom	-10.0117
▁Mrs	-10.0142
▁board	-10.0156
▁Bobo	-10.0159
▁Fred	-10.016
▁jealous	-10.0164
▁hose	-10.017
▁wand	-10.018
▁butter	-10.0191
▁once	-10.0194
▁difficult	-10.0245
▁louder	-10.0247
▁pie	-10.0254
▁Tweety	-10.0277
▁thin	-10.0279
▁berries	-10.028
▁needs	-10.028
▁lift	-10.0285
▁garage	-10.029
▁chase	-10.0297
▁wonder	-10.0309
▁mighty	-10.0329
▁weird	-10.033
▁knife	-10.0336
▁pointing	-10.0342
▁crawled	-10.0354
▁harder	-10.0354
▁learning	-10.0358
▁Bella	-10.0375
▁unusual	-10.0378
▁dinosaur	-10.0378
▁banana	-10.0384
▁team	-10.0398
▁managed	-10.042
▁shake	-10.0422
▁kindness	-10.043
▁dogs	-10.0438
▁island	-10.0465
▁dizzy	-10.0467
▁balls	-10.0478
▁tough	-10.048
▁figure	-10.0485
▁smoke	-10.0485
▁favourite	-10.0489
▁knight	-10.0494
▁bald	-10.0499
▁spun	-10.0501
▁search	-10.0515
▁saying	-10.0516
▁added	-10.053
▁Grandpa	-10.0536
▁edge	-10.0543
▁giving	-10.0563
▁content	-10.0566
▁balloons	-10.059
▁already	-10.0605
▁whale	-10.0607
▁enjoying	-10.061
▁wrapped	-10.0611
▁belonged	-10.0612
▁kid	-10.0617
▁extra	-10.0622
▁sword	-10.0633
▁ears	-10.0643
▁drum	-10.0652
▁impressed	-10.066
▁boxes	-10.0679
▁turtle	-10.0684
▁foot	-10.0684
▁normal	-10.0691
▁shape	-10.0701
▁Nemo	-10.071
▁thick	-10.0728
▁market	-10.073
▁loudly	-10.0741
▁four	-10.075
▁escape	-10.0753
▁yours	-10.076
▁Blue	-10.0764
▁painting	-10.0767
▁laughs	-10.0768
▁hurts	-10.0775
▁check	-10.0806
▁crayon	-10.0812
▁pen	-10.0816
Here	-10.0825
▁bossy	-10.0838
▁miss	-10.084
▁guitar	-10.0856
▁swan	-10.0868
▁choose	-10.0868
▁against	-10.0871
▁trucks	-10.0881
▁safely	-10.0882
▁circles	-10.0885
▁birdie	-10.0907
▁invited	-10.0911
▁hats	-10.0917
▁dreamed	-10.0925
▁brilliant	-10.0933
▁proudly	-10.0938
▁frightened	-10.0967
▁clap	-10.0967
▁slipped	-10.0972
▁belong	-10.0977
▁clay	-10.0983
▁paw	-10.0989
▁wake	-10.1001
▁movie	-10.1011
▁cheerful	-10.1033
▁grown	-10.1034
▁falls	-10.1044
▁trunk	-10.1045
▁ancient	-10.1048
▁shout	-10.1053
Well	-10.1053
▁valuable	-10.1065
▁breakfast	-10.1072
▁sight	-10.1093
▁city	-10.1109
▁step	-10.1114
▁fridge	-10.112
▁happiness	-10.114
▁skin	-10.1152
▁buttons	-10.1176
▁icy	-10.1193
▁fat	-10.1204
▁space	-10.1207
▁notice	-10.1233
▁nicely	-10.1239
▁log	-10.1247
▁gold	-10.1263
▁nosy	-10.1273
▁brothers	-10.1276
▁foolish	-10.1277
▁collect	-10.128
▁kick	-10.1283
▁wagon	-10.1307
▁stubborn	-10.1313
▁Lola	-10.1321
▁ear	-10.133
▁rough	-10.1331
▁locked	-10.135
▁means	-10.1352
▁useful	-10.1355
▁poured	-10.1355
▁delicate	-10.1367
▁Ducky	-10.1372
▁wiped	-10.1384
▁tools	-10.1396
▁goat	-10.1401
▁My	-10.1407
▁successful	-10.142
▁borrow	-10.1422
▁walls	-10.1429
▁exclaimed	-10.1434
▁grandpa	-10.1434
▁suggested	-10.1435
œLet	-10.1438
▁mixed	-10.1446
▁horn	-10.1452
▁sounded	-10.1479
▁shells	-10.1501
▁office	-10.1502
▁rose	-10.1531
▁egg	-10.1538
▁stove	-10.1544
▁dead	-10.1547
▁dreams	-10.1554
▁fountain	-10.1558
▁jam	-10.1562
▁excitedly	-10.1569
▁print	-10.1595
▁dough	-10.1598
▁trust	-10.1602
▁bushes	-10.1609
▁smaller	-10.1618
▁explored	-10.1631
▁themselves	-10.165
▁son	-10.1668
▁George	-10.1671
▁stumbled	-10.1675
▁showing	-10.1685
▁obedient	-10.1699
▁fierce	-10.1706
▁dependable	-10.1707
▁lights	-10.1707
▁fragile	-10.1735
▁counted	-10.1741
▁above	-10.1754
▁bags	-10.1766
▁rode	-10.1797
▁practice	-10.18
im	-10.1806
▁witch	-10.1816
▁Your	-10.182
▁enormous	-10.1831
▁admired	-10.1838
▁fingers	-10.1859
▁Ann	-10.1871
▁brightly	-10.1873
▁spinning	-10.1876
▁roof	-10.1879
▁clock	-10.1881
▁playful	-10.1898
▁spoiled	-10.191
▁raced	-10.1924
▁kicked	-10.1935
▁parrot	-10.1938
▁Whenever	-10.1944
▁built	-10.1952
▁hero	-10.1952
▁stronger	-10.1964
▁act	-10.1966
▁Mike	-10.1967
▁pass	-10.1977
▁delighted	-10.1988
▁using	-10.1991
▁aunt	-10.201
Be	-10.2021
▁jolly	-10.2024
▁pumpkin	-10.2027
▁reminded	-10.2034
▁Toby	-10.204
▁bitter	-10.2057
▁Dave	-10.2066
▁changed	-10.2072
▁shark	-10.2073
▁shone	-10.2086
▁independent	-10.209
▁solve	-10.2114
▁whispered	-10.2126
Me	-10.2139
▁tummy	-10.2182
▁painted	-10.2182
▁ow	-10.2184
▁scare	-10.2186
▁wrap	-10.2193
▁scream	-10.2194
▁bounce	-10.2199
▁cleaning	-10.2202
▁cone	-10.2211
▁hammer	-10.2221
▁dove	-10.2227
▁handed	-10.2231
▁gasped	-10.2232
▁popcorn	-10.2246
▁original	-10.2257
▁pan	-10.2262
▁allowed	-10.2263
▁joined	-10.2264
▁bees	-10.2268
▁jog	-10.2289
▁spend	-10.229
▁barber	-10.2294
▁thoughtful	-10.2295
▁dolphin	-10.2299
▁reliable	-10.2299
▁pencil	-10.2304
▁power	-10.2304
▁finding	-10.2309
▁cart	-10.2309
▁unknown	-10.2314
œYes	-10.2316
▁metal	-10.2318
▁zip	-10.2349
▁spray	-10.2351
▁chose	-10.2367
▁forth	-10.2372
▁hairy	-10.2377
▁leaving	-10.2378
▁delight	-10.2379
▁wealthy	-10.24
▁terrible	-10.2402
▁yarn	-10.2412
▁knows	-10.2414
▁beak	-10.2431
▁those	-10.2447
▁kinds	-10.2453
▁picking	-10.2455
▁pirate	-10.2476
▁doesn	-10.2486
▁yet	-10.2504
▁guilty	-10.251
▁sauce	-10.2512
▁advice	-10.2513
▁To	-10.252
▁Joey	-10.2523
▁boys	-10.2532
▁toast	-10.2533
▁add	-10.2547
▁houses	-10.2548
▁boats	-10.2549
▁modern	-10.255
▁clumsy	-10.2558
▁holds	-10.2566
▁create	-10.2576
▁view	-10.2576
▁stairs	-10.2577
▁half	-10.2579
▁cover	-10.2581
▁stupid	-10.2582
▁thinking	-10.2599
▁umbrella	-10.2609
▁Andy	-10.2618
▁sleeping	-10.2637
▁telling	-10.2645
▁sink	-10.2657
œWhat	-10.2661
▁camera	-10.2662
▁serious	-10.2669
▁rushed	-10.2683
▁searching	-10.2723
▁stage	-10.2725
▁salad	-10.2758
▁washed	-10.2761
▁spaghetti	-10.2767
▁Polly	-10.2768
▁Bill	-10.2768
▁stranger	-10.2769
▁low	-10.2778
▁angel	-10.2789
▁week	-10.2805
▁hay	-10.281
▁march	-10.2833
▁jacket	-10.2848
▁stream	-10.2867
▁ways	-10.2868
▁missing	-10.2883
▁class	-10.2883
▁rubbed	-10.2904
▁goose	-10.2908
▁shocked	-10.2911
▁patch	-10.2915
▁tied	-10.2919
▁Sophie	-10.292
▁popular	-10.2925
▁hoop	-10.2934
▁Bear	-10.2941
▁carrying	-10.2949
How	-10.2953
▁thirsty	-10.2959
œIt	-10.2965
▁dull	-10.2969
▁lemon	-10.2986
▁seeds	-10.2987
▁driving	-10.2991
▁impressive	-10.2994
▁ending	-10.2999
▁engine	-10.3018
▁graceful	-10.3022
▁regular	-10.3022
▁crazy	-10.304
▁sparkled	-10.304
▁opens	-10.3062
▁tank	-10.3063
▁prize	-10.3072
▁nature	-10.3085
▁Next	-10.3099
▁bracelet	-10.3114
▁truth	-10.3117
▁rug	-10.3145
▁wing	-10.3152
▁dreaming	-10.3158
▁scale	-10.3169
▁meal	-10.3171
▁early	-10.3198
▁library	-10.3199
▁imagined	-10.3215
▁flexible	-10.3217
▁Look	-10.3227
▁wheels	-10.3229
▁sudden	-10.323
▁flashlight	-10.3236
▁ingredients	-10.3245
▁mark	-10.3253
▁peeked	-10.3259
▁friendship	-10.3267
▁nurse	-10.3276
▁diamond	-10.3296
▁numbers	-10.3299
▁flute	-10.3313
▁feather	-10.3315
▁warned	-10.3317
▁spilled	-10.3329
▁reading	-10.3332
▁statue	-10.3362
▁fresh	-10.338
▁tunnel	-10.3386
▁butterflies	-10.3387
▁placed	-10.3388
▁beetle	-10.3393
▁handle	-10.3401
▁sadly	-10.3403
▁thunder	-10.3411
▁ahead	-10.3427
▁helps	-10.3427
▁spoke	-10.3431
▁rat	-10.3432
▁biggest	-10.3438
▁careless	-10.3442
▁bent	-10.3449
▁crocodile	-10.3456
Ow	-10.3458
▁mailbox	-10.3514
▁corn	-10.3515
▁sofa	-10.3518
▁badly	-10.3527
Go	-10.3527
▁humble	-10.3532
▁cupboard	-10.3537
▁note	-10.3539
▁chew	-10.3545
See	-10.3557
▁value	-10.3557
▁cereal	-10.3559
If	-10.3564
▁gum	-10.3564
▁stops	-10.3577
▁penny	-10.3596
▁cheap	-10.3609
▁growing	-10.3613
▁drop	-10.362
▁guard	-10.3622
▁celebrate	-10.3629
▁uncomfortable	-10.364
▁sorts	-10.3643
▁bull	-10.3647
▁persistent	-10.3654
▁desk	-10.3654
▁nut	-10.3658
▁jelly	-10.366
▁harmless	-10.3663
▁crane	-10.3679
▁towers	-10.3686
▁computer	-10.3694
▁counting	-10.3694
▁beauty	-10.3715
▁sunflower	-10.3727
▁cooking	-10.3734
▁older	-10.3738
▁Give	-10.374
▁pale	-10.3765
▁hang	-10.3766
▁mole	-10.3786
▁pretending	-10.3794
▁refused	-10.3802
▁past	-10.3819
▁uncle	-10.3821
▁Alex	-10.3848
▁shoot	-10.385
▁turkey	-10.3857
▁sandwiches	-10.3864
▁lead	-10.3864
▁jumps	-10.3879
They	-10.3882
▁drawer	-10.3895
▁track	-10.3896
▁piano	-10.3901
old	-10.3918
aid	-10.3932
A	-10.3937
▁Paul	-10.3938
▁charming	-10.3942
▁gem	-10.3948
▁hunter	-10.396
▁envelope	-10.3966
▁snuggled	-10.3971
▁ordinary	-10.3978
▁lizard	-10.3986
▁order	-10.3991
▁flour	-10.3996
▁anxious	-10.3999
▁chasing	-10.4
▁gifted	-10.4007
There	-10.4014
▁lively	-10.402
▁sell	-10.4022
▁shut	-10.4041
▁twirled	-10.4042
▁crystal	-10.4064
▁octopus	-10.4065
▁slid	-10.4068
▁rules	-10.4078
▁trash	-10.4085
▁deaf	-10.4091
▁Brownie	-10.4093
▁design	-10.4102
▁parade	-10.4121
He	-10.4122
▁screen	-10.4139
▁soldier	-10.414
▁pigeon	-10.4142
▁slides	-10.4147
▁return	-10.4147
▁intelligent	-10.415
▁thief	-10.4165
▁bandage	-10.4176
▁leash	-10.4183
▁needle	-10.4193
▁study	-10.4194
▁miserable	-10.4205
▁jet	-10.4215
▁station	-10.4222
▁names	-10.4225
▁gloomy	-10.4235
▁trap	-10.4236
▁shaking	-10.4237
Give	-10.4237
▁collar	-10.4242
▁hung	-10.4244
▁helmet	-10.4248
▁package	-10.426
▁zebra	-10.4263
▁pony	-10.4268
▁alert	-10.4284
cream	-10.4297
œThat	-10.4298
▁less	-10.4308
▁Fin	-10.432
▁square	-10.4325
▁raven	-10.4337
▁dug	-10.4341
▁wishes	-10.4341
▁seem	-10.4353
▁anywhere	-10.4392
▁bounced	-10.4395
▁shine	-10.4419
▁Jerry	-10.4424
▁led	-10.4429
▁ignorant	-10.443
▁ghost	-10.4432
▁compassionate	-10.4436
▁Before	-10.4443
▁carpet	-10.4448
▁chubby	-10.4473
▁pack	-10.4474
▁squash	-10.4491
▁letters	-10.4494
▁pants	-10.45
▁Annie	-10.4502
▁chance	-10.4506
Yay	-10.4507
▁blow	-10.4512
▁Tweetie	-10.4524
▁competitive	-10.4527
▁pressed	-10.453
▁creatures	-10.4535
▁Charlie	-10.4535
▁decorate	-10.4538
▁Lee	-10.4544
▁practiced	-10.4553
▁Henry	-10.4555
▁helpless	-10.4568
▁attic	-10.457
▁jug	-10.4575
▁Sandy	-10.4578
▁arrow	-10.4583
▁stretched	-10.4588
▁hurry	-10.4591
▁respectful	-10.4593
▁attractive	-10.4595
▁stickers	-10.4598
▁suit	-10.4599
▁skip	-10.4607
▁may	-10.4629
▁radio	-10.4633
▁bark	-10.4635
▁tool	-10.4635
▁Are	-10.4636
▁anyway	-10.4649
▁tray	-10.4654
▁Here	-10.4656
▁nobody	-10.4662
▁itself	-10.4676
▁courage	-10.4682
▁shouts	-10.4684
▁cube	-10.4689
▁Where	-10.4704
▁somewhere	-10.4709
▁fireman	-10.4715
▁scooter	-10.4721
▁steps	-10.4726
▁starts	-10.4726
▁spring	-10.4732
▁stirred	-10.4734
▁troubled	-10.4751
▁gorilla	-10.4758
▁Grace	-10.4764
▁belt	-10.4765
▁travel	-10.4769
▁fan	-10.4769
▁disgusting	-10.4776
▁candle	-10.4788
▁pasta	-10.4789
▁mask	-10.4792
▁brighter	-10.4793
▁further	-10.4799
▁lollipop	-10.4808
▁adorable	-10.4816
▁filthy	-10.4822
▁fearful	-10.4824
▁restless	-10.4829
▁afternoon	-10.4834
▁jeep	-10.4836
▁cards	-10.4851
▁pipe	-10.4859
▁post	-10.4865
ly	-10.4869
▁fear	-10.4872
▁impatient	-10.4874
▁giggle	-10.4892
▁case	-10.4929
▁restaurant	-10.4933
▁sandbox	-10.4935
▁ten	-10.4939
▁dish	-10.494
▁cocoa	-10.4942
▁sweetheart	-10.4944
▁barking	-10.4944
▁stir	-10.4951
▁crawl	-10.4966
▁nuts	-10.4969
▁broccoli	-10.4976
▁Danny	-10.4989
▁distant	-10.5
▁soar	-10.5006
▁windows	-10.5024
▁envious	-10.5025
▁cricket	-10.503
▁fork	-10.5036
▁lid	-10.5037
up	-10.5039
▁Lilly	-10.5041
▁rub	-10.5049
▁bathtub	-10.5057
▁nowhere	-10.5057
▁sheet	-10.5059
▁Everything	-10.5063
▁guess	-10.5066
▁question	-10.5069
▁pour	-10.5072
▁record	-10.5079
▁Millie	-10.5093
▁shoe	-10.5109
▁sort	-10.5112
▁trumpet	-10.5113
▁pepper	-10.5117
▁crack	-10.5136
▁relax	-10.5138
ate	-10.5141
▁listening	-10.5142
▁ostrich	-10.5145
▁club	-10.5158
▁bicycle	-10.5161
▁cheer	-10.5165
▁cap	-10.5193
▁leopard	-10.5199
▁sweater	-10.5206
▁cooked	-10.5208
▁happier	-10.521
▁comb	-10.5227
▁Would	-10.5236
▁mama	-10.5242
▁message	-10.5252
▁monkeys	-10.5255
▁split	-10.5257
▁quite	-10.5257
▁Will	-10.5262
▁stretch	-10.5266
▁Buddy	-10.5269
▁ants	-10.5272
▁grabs	-10.529
▁admire	-10.5296
▁melon	-10.5314
▁vine	-10.5326
▁five	-10.533
year	-10.5335
▁purse	-10.5358
▁size	-10.5364
▁paws	-10.5366
▁stared	-10.5368
▁harsh	-10.537
▁heal	-10.5398
▁jellyfish	-10.5399
Bye	-10.5399
▁stuff	-10.54
▁moms	-10.5411
▁shadow	-10.5422
▁hook	-10.5431
▁tripped	-10.5434
▁seal	-10.5437
▁behave	-10.5438
▁alligator	-10.5441
▁wander	-10.5452
▁magnet	-10.547
▁wheat	-10.5478
▁bubble	-10.5481
▁enthusiastic	-10.5492
▁violin	-10.5499
▁forgave	-10.5507
▁given	-10.5508
▁salt	-10.551
▁roared	-10.5512
▁rice	-10.5519
▁pulls	-10.5522
▁hippo	-10.5523
▁cows	-10.5526
▁modest	-10.5532
▁organize	-10.5538
▁dessert	-10.5538
▁triangle	-10.5548
▁paid	-10.5551
▁Bunny	-10.5552
▁summer	-10.5561
▁mug	-10.5562
▁helicopter	-10.5564
▁Papa	-10.5565
▁pushing	-10.5567
▁palace	-10.557
Anna	-10.5593
▁pilot	-10.5601
▁rescue	-10.5604
▁Mimi	-10.5608
▁thread	-10.5627
▁rod	-10.5628
▁sent	-10.5635
▁sticker	-10.5636
▁knot	-10.5638
▁math	-10.5639
▁Whiskers	-10.564
▁perform	-10.5643
▁frowned	-10.5646
▁otter	-10.5649
▁yell	-10.565
▁object	-10.5661
▁either	-10.5687
▁microphone	-10.569
▁reward	-10.5693
▁steal	-10.57
▁lightning	-10.5713
▁Maria	-10.5716
▁tooth	-10.5719
▁Baby	-10.572
▁van	-10.5721
▁boots	-10.5727
▁Ted	-10.5728
▁riding	-10.5742
▁cop	-10.5755
▁neat	-10.5762
▁starting	-10.5774
▁knock	-10.5781
▁sailor	-10.5781
▁swinging	-10.5793
▁wallet	-10.5796
▁strawberry	-10.5814
▁pushes	-10.5828
▁bikes	-10.5828
▁museum	-10.5829
▁shopkeeper	-10.5835
▁quick	-10.584
▁shakes	-10.5847
▁chalk	-10.585
▁fold	-10.5862
▁kangaroo	-10.5862
▁Harry	-10.5863
▁energy	-10.5868
▁mule	-10.5875
▁send	-10.5883
▁softly	-10.5903
▁jokes	-10.591
▁spirit	-10.5911
▁panda	-10.5919
▁trains	-10.5922
▁yogurt	-10.5927
œYou	-10.5931
▁penguin	-10.5932
▁shade	-10.5932
▁wire	-10.5941
▁cord	-10.5942
▁tire	-10.595
▁backpack	-10.5955
▁hive	-10.5978
▁drawings	-10.5981
▁costume	-10.5984
▁pebble	-10.5998
▁holes	-10.5999
▁checked	-10.6003
▁beep	-10.6008
▁silver	-10.6022
▁pole	-10.6023
▁alive	-10.6027
▁rolling	-10.6028
TMm	-10.603
▁peace	-10.6035
▁cactus	-10.6039
▁falling	-10.6053
▁barrel	-10.6059
▁zoomed	-10.6066
▁sock	-10.6067
▁stack	-10.607
▁bananas	-10.6071
▁ended	-10.6072
▁taxi	-10.6079
▁colours	-10.6088
▁aeroplane	-10.6088
▁speed	-10.6113
▁evening	-10.6116
▁ambulance	-10.612
▁raft	-10.6124
▁elevator	-10.6127
▁grapes	-10.613
▁visited	-10.6137
▁barks	-10.6139
▁mild	-10.6141
▁James	-10.6153
▁notebook	-10.6161
▁putting	-10.6166
▁lions	-10.6168
▁shield	-10.6168
▁porch	-10.6168
▁clapping	-10.6172
▁laundry	-10.6178
▁dust	-10.6179
▁Maggie	-10.6187
▁smells	-10.6195
▁eraser	-10.6197
▁chain	-10.6231
▁tricks	-10.6237
▁volcano	-10.6238
▁marched	-10.6241
▁rubber	-10.6243
▁Be	-10.6249
▁acorn	-10.625
▁tap	-10.6252
▁seed	-10.6259
▁airport	-10.6265
▁coffee	-10.6271
▁haircut	-10.6273
▁medal	-10.6286
▁papers	-10.6287
▁leaned	-10.6289
▁task	-10.6297
▁tomato	-10.6299
▁belongs	-10.6316
▁reindeer	-10.6341
▁Smith	-10.6345
▁tube	-10.6354
▁climbing	-10.6361
▁apologized	-10.6369
▁glow	-10.6371
▁raining	-10.6374
▁basketball	-10.6376
▁Tweet	-10.6377
▁jewel	-10.6379
▁danger	-10.6384
▁dishes	-10.64
▁bin	-10.6402
▁polish	-10.6402
▁Tony	-10.6402
▁goal	-10.6419
▁flies	-10.6428
▁steak	-10.6429
▁cardboard	-10.6431
▁planet	-10.6433
▁page	-10.6453
▁trophy	-10.6456
▁available	-10.6456
▁yacht	-10.6457
▁support	-10.6458
▁shelter	-10.6465
▁player	-10.6466
▁wool	-10.6468
▁learnt	-10.6475
▁ink	-10.6478
▁unhappy	-10.6478
▁dive	-10.6481
▁imagine	-10.6498
▁comfort	-10.6508
▁drops	-10.6522
▁wife	-10.6535
▁cats	-10.6547
▁judge	-10.6552
▁soil	-10.6554
▁celery	-10.6557
▁switch	-10.6561
▁minute	-10.6563
▁perfectly	-10.658
▁hoping	-10.6588
▁complete	-10.6595
▁twist	-10.6597
▁trick	-10.6603
▁shouldn	-10.6609
▁kitty	-10.6612
▁marry	-10.664
▁comet	-10.666
▁closely	-10.6668
▁hadn	-10.6687
▁mixer	-10.6689
▁pair	-10.6693
▁twig	-10.6703
▁mushroom	-10.6708
▁resist	-10.6709
▁folder	-10.6712
▁repair	-10.672
▁journal	-10.6732
▁mill	-10.6736
▁cups	-10.6759
▁video	-10.6763
▁meat	-10.6778
▁furniture	-10.6782
▁onion	-10.6792
▁stuffed	-10.6801
▁football	-10.6807
▁winter	-10.6819
▁cooler	-10.682
▁counter	-10.6822
▁factory	-10.6838
▁swung	-10.684
▁eagerly	-10.6843
▁Pat	-10.6846
▁fields	-10.6857
▁cauliflower	-10.6858
▁between	-10.686
▁lie	-10.6865
▁soccer	-10.6866
▁breaks	-10.6869
œ	-10.6874
▁baking	-10.6881
▁painter	-10.6884
▁quit	-10.6892
▁human	-10.6897
osie	-10.6899
▁vendor	-10.6901
▁speak	-10.6908
▁shrimp	-10.6928
▁mechanic	-10.6929
▁Instead	-10.6934
▁giraffe	-10.6939
▁thanks	-10.6942
▁throws	-10.695
▁fireplace	-10.6952
▁peek	-10.6958
▁skull	-10.6964
▁hotel	-10.6975
▁pin	-10.6979
▁flame	-10.7002
▁headed	-10.7011
Your	-10.7022
▁golf	-10.7038
▁sneak	-10.7047
▁seeing	-10.7054
▁diary	-10.706
▁Clara	-10.706
▁coal	-10.7062
▁shouting	-10.7076
▁loop	-10.708
▁blowing	-10.7083
▁maze	-10.7085
▁hut	-10.7088
▁motorcycle	-10.7098
▁bloom	-10.711
▁points	-10.7111
▁flea	-10.712
▁pirates	-10.7149
▁created	-10.7154
▁frame	-10.7155
▁vet	-10.7158
▁tuna	-10.717
▁wipe	-10.7175
▁laser	-10.7182
▁swamp	-10.7183
▁Or	-10.7183
▁God	-10.7183
▁waving	-10.7188
▁rag	-10.7193
▁lives	-10.7195
▁treasures	-10.7197
▁poke	-10.7198
▁glove	-10.7208
▁yoga	-10.721
▁explain	-10.7219
▁second	-10.7221
▁oil	-10.7227
▁church	-10.7244
▁temple	-10.7249
▁frogs	-10.7262
▁unlock	-10.7273
▁gather	-10.7285
▁spell	-10.7292
▁point	-10.7296
▁attention	-10.7301
▁meeting	-10.7305
▁pit	-10.7312
▁sunset	-10.7319
▁Tina	-10.7353
▁argue	-10.7361
▁fishing	-10.7371
▁powder	-10.7371
▁forgotten	-10.7381
▁slept	-10.7389
▁parent	-10.7392
▁weather	-10.7404
▁photo	-10.7405
▁film	-10.7416
▁peach	-10.7418
▁sir	-10.742
▁breeze	-10.7424
▁cushion	-10.7435
Tim	-10.7438
▁stamp	-10.7451
ting	-10.7451
▁feelings	-10.7492
▁cabin	-10.7496
▁curtain	-10.7507
▁Bun	-10.7511
▁igloo	-10.7515
▁imagination	-10.7517
▁popped	-10.7519
▁celebrated	-10.7527
▁deliver	-10.754
▁battery	-10.7542
▁petals	-10.755
▁anchor	-10.7564
▁True	-10.7566
▁greedy	-10.7571
▁rhinoceros	-10.7573
▁skirt	-10.758
▁golden	-10.7584
▁fog	-10.759
▁sniffed	-10.7592
▁horses	-10.7599
▁pear	-10.7601
▁axe	-10.7611
▁knob	-10.7612
▁lime	-10.7614
▁ceiling	-10.7617
▁tutor	-10.7618
▁skeleton	-10.7624
▁dear	-10.7651
▁glowing	-10.7654
▁marble	-10.7656
▁bulb	-10.7656
▁potato	-10.7657
▁hockey	-10.7666
▁cherries	-10.7668
▁plastic	-10.767
▁heads	-10.7679
▁shovel	-10.7682
▁Miss	-10.7694
▁strength	-10.77
▁kingdom	-10.771
▁baseball	-10.7716
▁napkin	-10.7718
▁motor	-10.7723
▁bouncing	-10.7725
▁pine	-10.7726
▁dancer	-10.7729
▁hedge	-10.7737
▁pup	-10.774
Max	-10.7747
▁zipper	-10.7756
▁sunglasses	-10.7761
▁staff	-10.7767
▁fisherman	-10.7776
▁peanut	-10.779
▁eaten	-10.7798
▁bears	-10.78
▁toilet	-10.7801
▁slippery	-10.7801
▁cable	-10.7808
▁mistakes	-10.7816
▁calls	-10.7818
▁fought	-10.7821
▁theater	-10.7822
▁armchair	-10.7823
▁hanging	-10.7824
▁mop	-10.7829
▁lotion	-10.7836
ve	-10.7854
▁memories	-10.7855
▁lend	-10.7876
▁shoulder	-10.7891
▁radish	-10.7891
▁sticky	-10.7896
▁welcomed	-10.7896
▁shower	-10.7902
▁vroom	-10.7907
▁wags	-10.7936
▁flapped	-10.7941
▁gas	-10.7944
▁squirrels	-10.7946
▁avocado	-10.7955
▁agree	-10.7959
▁freezer	-10.7991
▁quietly	-10.8004
▁Dan	-10.8018
▁oyster	-10.8019
▁throwing	-10.8027
▁chickens	-10.8043
▁mystery	-10.8061
Timmy	-10.8077
▁finds	-10.8077
▁success	-10.8096
▁trail	-10.8102
▁faucet	-10.8113
▁magazine	-10.8118
▁investigate	-10.8135
▁lawyer	-10.8138
▁Freddy	-10.8138
▁First	-10.8154
▁microscope	-10.816
▁shrugged	-10.8171
▁reef	-10.8172
▁sailing	-10.8187
▁writing	-10.8189
▁veil	-10.8191
▁dishwasher	-10.8203
▁sprayed	-10.8209
▁burn	-10.8211
▁discover	-10.8216
▁burned	-10.8217
▁creek	-10.822
▁poem	-10.8223
▁accepted	-10.825
▁separate	-10.8252
▁collected	-10.8258
▁crib	-10.8258
▁vest	-10.8259
▁ignored	-10.8268
▁scolded	-10.8276
▁mattress	-10.8283
▁pistol	-10.8286
▁cabinet	-10.8297
▁iron	-10.8301
▁tub	-10.8308
▁offer	-10.8308
▁hall	-10.8314
▁tug	-10.8315
▁alarm	-10.8344
▁entered	-10.8351
▁hopes	-10.8353
▁tear	-10.8367
▁choice	-10.837
▁happens	-10.8378
▁candles	-10.838
▁pray	-10.8389
▁kayak	-10.8399
▁classroom	-10.8409
▁worth	-10.8411
These	-10.8416
▁nail	-10.8427
▁display	-10.8432
▁tucked	-10.8437
▁makeup	-10.8441
▁Milly	-10.8441
▁missile	-10.8443
▁quarrel	-10.8445
▁kisses	-10.8446
▁rake	-10.8447
▁trusted	-10.8461
▁wardrobe	-10.8466
▁cared	-10.8475
▁follows	-10.8498
▁rise	-10.8505
▁blouse	-10.8507
▁bean	-10.8514
▁pattern	-10.8515
▁chimney	-10.8528
▁musician	-10.853
▁easily	-10.8542
▁newspaper	-10.8544
▁since	-10.8552
▁E	-10.8557
▁presents	-10.8558
▁telephone	-10.856
▁veterinarian	-10.856
▁claws	-10.8565
▁chess	-10.8572
▁oak	-10.8572
▁beef	-10.8577
▁ticket	-10.8579
▁blinked	-10.8579
Wait	-10.8596
▁jewelry	-10.8607
▁splashing	-10.8607
▁coats	-10.8616
▁unpack	-10.8618
▁dressed	-10.8622
▁dictionary	-10.863
▁Snowy	-10.864
▁short	-10.866
▁sizes	-10.8665
▁opera	-10.8666
▁keeping	-10.8678
▁crossed	-10.8686
▁caring	-10.8698
▁language	-10.8701
▁castles	-10.8715
▁amazement	-10.8716
▁blankets	-10.8725
▁luck	-10.8725
▁licks	-10.8745
▁However	-10.8756
▁moves	-10.8763
▁country	-10.8765
▁helper	-10.877
▁bookcase	-10.8779
▁matches	-10.8779
▁cane	-10.8786
▁squeezed	-10.8792
▁birdcage	-10.8796
▁trade	-10.8796
▁puddles	-10.8806
▁disappear	-10.8812
▁accept	-10.8825
▁apart	-10.8832
▁mustache	-10.8833
▁spark	-10.8862
▁puzzles	-10.8874
▁pill	-10.8876
▁spear	-10.8876
▁pinch	-10.8879
▁lawn	-10.8896
▁ringing	-10.8896
ach	-10.8897
uby	-10.8912
▁perfume	-10.8913
▁straight	-10.8925
▁serve	-10.8925
▁planes	-10.8934
▁stable	-10.8941
▁chairs	-10.8953
Sam	-10.8956
▁mint	-10.8972
▁crawling	-10.8978
▁melt	-10.8982
▁sneeze	-10.8993
▁subway	-10.9003
▁blueberries	-10.9011
▁ribbon	-10.9014
▁raise	-10.9024
▁gym	-10.9032
▁razor	-10.9033
▁valley	-10.9035
▁poked	-10.9051
▁squeeze	-10.9066
▁blood	-10.9066
▁lab	-10.9069
▁earth	-10.9071
▁doors	-10.9076
▁television	-10.9098
▁weigh	-10.9102
atie	-10.9105
▁growled	-10.9106
▁mosquito	-10.9114
▁mist	-10.9115
▁muffin	-10.9136
▁yucky	-10.9149
▁shampoo	-10.9151
▁file	-10.9153
▁gear	-10.9158
▁exam	-10.9165
▁attach	-10.9169
▁following	-10.9173
▁bookshelf	-10.9176
▁cliff	-10.9186
▁uniform	-10.9207
▁hurting	-10.9215
▁Help	-10.9218
▁grill	-10.9243
▁crash	-10.9255
▁pastry	-10.9257
▁root	-10.926
▁symbol	-10.9266
▁experience	-10.9286
▁invite	-10.9293
▁fuel	-10.9302
▁Luckily	-10.9309
▁berry	-10.9327
▁improve	-10.9338
▁sandcastle	-10.9344
▁worms	-10.935
▁calendar	-10.9354
And	-10.9366
▁warmth	-10.9374
▁wandered	-10.9376
▁fallen	-10.9377
▁tornado	-10.9379
▁immediately	-10.9382
▁People	-10.9398
▁reaches	-10.9402
▁married	-10.9429
▁shrink	-10.9437
▁buried	-10.9447
▁below	-10.9449
▁bury	-10.9461
▁hearts	-10.9473
▁ignore	-10.9476
▁waste	-10.9483
▁novel	-10.9491
Because	-10.9499
▁relaxed	-10.9502
▁alright	-10.9505
▁junk	-10.9522
▁bravely	-10.9541
▁skills	-10.9543
▁begged	-10.9564
▁beamed	-10.9569
▁apron	-10.9586
▁understanding	-10.9619
▁bathe	-10.9634
▁myself	-10.9656
▁pages	-10.9667
▁quiz	-10.9676
▁boot	-10.9679
▁reverse	-10.9681
▁whip	-10.9686
▁refrigerator	-10.9687
TMre	-10.9694
▁safety	-10.9694
▁strawberries	-10.9697
▁ashtray	-10.9703
▁plates	-10.9703
▁spade	-10.9704
▁festival	-10.971
▁Ollie	-10.9718
▁harbor	-10.9733
▁laughter	-10.9733
▁bumped	-10.9747
▁blackboard	-10.9762
▁someday	-10.9765
Did	-10.9782
▁captain	-10.9801
▁vanished	-10.9804
eady	-10.9816
▁load	-10.9833
▁steam	-10.984
▁holiday	-10.9854
œNo	-10.9864
▁ornament	-10.9883
▁jail	-10.9892
▁drain	-10.9894
▁Steve	-10.9902
▁insisted	-10.9916
▁snapped	-10.9935
▁saving	-10.994
▁Poppy	-10.9944
▁oasis	-10.9951
▁Everyday	-10.9951
▁buckle	-10.9951
▁permission	-10.9953
▁scattered	-10.9954
▁breathe	-10.9972
▁prepare	-10.9979
▁remove	-10.9981
▁destroyed	-10.9986
▁received	-10.9986
▁Betsy	-10.9988
ups	-10.9988
▁earlier	-10.9996
▁teaching	-10.9997
▁sparkling	-11.0004
▁Buzz	-11.0015
▁spending	-11.0024
▁screw	-11.0029
▁jewels	-11.0059
▁model	-11.0062
Yuck	-11.0075
▁pride	-11.0079
▁ha	-11.0097
▁known	-11.0106
achel	-11.0108
▁isn	-11.0121
▁tease	-11.0121
▁dried	-11.0122
▁lumber	-11.0141
▁Have	-11.0147
▁yawned	-11.0157
▁cuddled	-11.0158
▁settled	-11.0187
▁enter	-11.02
▁toes	-11.0201
▁lemonade	-11.0203
▁See	-11.0205
▁decorations	-11.0244
▁insect	-11.0255
▁chamber	-11.0258
▁scooped	-11.0261
▁chirping	-11.0263
▁hate	-11.0269
▁surprises	-11.027
▁license	-11.0275
▁automobile	-11.0277
Sara	-11.0284
▁waffle	-11.0291
▁sparkle	-11.0293
▁buzzing	-11.0299
▁daisy	-11.0307
TMll	-11.0308
▁cell	-11.031
▁rot	-11.0312
▁Joy	-11.0312
▁encouraged	-11.0321
▁spots	-11.0333
▁fastest	-11.0335
▁pulling	-11.0337
▁superhero	-11.0362
▁praised	-11.0367
▁bathrobe	-11.0371
▁Abigail	-11.0395
▁socks	-11.0396
▁passport	-11.043
▁shot	-11.0436
▁press	-11.044
▁score	-11.0451
▁moments	-11.0452
▁patiently	-11.0452
▁appreciate	-11.046
▁nation	-11.0469
▁hanger	-11.0475
▁Penny	-11.0487
▁dresses	-11.0487
▁taller	-11.0499
▁beans	-11.0504
▁deeper	-11.0504
▁Brown	-11.0529
▁snap	-11.0532
▁wine	-11.0534
▁dare	-11.0535
▁struggling	-11.054
▁sits	-11.0557
▁label	-11.0564
▁believed	-11.0566
▁destination	-11.0568
▁cheek	-11.057
▁May	-11.0572
▁hits	-11.0581
▁none	-11.06
▁digging	-11.0602
▁cobweb	-11.061
▁washing	-11.0612
▁rail	-11.0627
▁whisper	-11.0634
ver	-11.0643
▁supply	-11.0649
▁surrender	-11.0651
▁prevent	-11.0654
▁sausage	-11.0656
▁rabbits	-11.0662
▁panic	-11.0664
▁brain	-11.0665
▁approached	-11.0684
▁sneezed	-11.0688
▁David	-11.069
▁tongue	-11.0699
▁heat	-11.0704
▁worse	-11.0716
▁chores	-11.072
▁structure	-11.0725
▁twisted	-11.0729
▁poppy	-11.0739
▁thrilled	-11.0747
▁examine	-11.0755
▁vacation	-11.0763
▁replace	-11.0778
▁mitten	-11.0792
▁solved	-11.0796
▁succeed	-11.0797
▁infant	-11.0799
▁cartoon	-11.0812
Welcome	-11.0823
▁setting	-11.0827
▁mall	-11.0831
▁sparkles	-11.0844
▁suppose	-11.0863
▁awe	-11.0871
▁port	-11.0876
Thanks	-11.0879
▁thermometer	-11.0889
▁airplane	-11.0905
▁billboard	-11.0917
▁spoil	-11.092
▁law	-11.0926
▁upstairs	-11.0927
▁provide	-11.0927
▁universe	-11.0956
▁Who	-11.0963
▁warning	-11.0976
▁grinned	-11.0982
▁remind	-11.0983
▁thumb	-11.0988
▁vehicle	-11.1011
▁grey	-11.1021
▁parts	-11.1028
▁ideas	-11.1031
▁floated	-11.1039
▁glowed	-11.104
▁batter	-11.1055
▁sprinkles	-11.1061
▁wizard	-11.1068
▁restore	-11.1073
▁fixing	-11.1084
▁pillows	-11.1086
▁remained	-11.1096
and	-11.1102
oe	-11.1117
Ok	-11.1122
▁Spike	-11.1124
▁marbles	-11.1126
▁cherry	-11.113
▁lily	-11.1136
▁floating	-11.114
▁measured	-11.1152
▁weeks	-11.1181
▁oranges	-11.1187
▁future	-11.1193
▁sunrise	-11.1193
▁collection	-11.1197
▁ranch	-11.1206
▁tide	-11.1209
▁rooms	-11.1233
▁meowed	-11.1236
▁shooting	-11.1237
emember	-11.1237
▁shed	-11.124
▁massage	-11.1244
▁jazz	-11.1247
▁weapon	-11.1264
▁neighborhood	-11.1271
▁climbs	-11.1292
▁Liz	-11.1314
▁urge	-11.1317
▁actually	-11.1329
▁wisdom	-11.1347
▁mailman	-11.135
▁palm	-11.1362
▁accident	-11.1386
▁remain	-11.1396
▁war	-11.1397
▁memory	-11.1408
▁tour	-11.141
nfortunately	-11.1411
▁gifts	-11.1412
▁cartoons	-11.1413
▁paused	-11.144
▁scratch	-11.1452
y	-11.1464
▁surrounded	-11.1488
▁leak	-11.1492
▁discovery	-11.1498
▁unite	-11.1506
▁chirped	-11.1513
▁bricks	-11.1515
▁rush	-11.152
▁stadium	-11.1522
▁difference	-11.1528
▁destroy	-11.1536
▁bites	-11.1545
▁neighbour	-11.156
▁camp	-11.1576
▁Luna	-11.1585
▁university	-11.1588
▁paints	-11.1598
▁Someone	-11.1602
▁brings	-11.1617
▁yield	-11.1624
▁hills	-11.1629
▁observe	-11.163
▁hurricane	-11.1638
▁folded	-11.1649
▁luggage	-11.165
Mmm	-11.1671
▁tracks	-11.1675
▁exercise	-11.1678
▁gust	-11.1691
▁slice	-11.1707
▁grape	-11.1711
▁watches	-11.1723
▁torn	-11.1733
▁chewed	-11.1735
▁curled	-11.1742
▁decision	-11.1753
▁art	-11.1755
▁melted	-11.1775
▁sunlight	-11.1777
▁delay	-11.1779
emy	-11.1783
▁collecting	-11.1786
nâ	-11.1791
▁sip	-11.1795
ray	-11.1798
▁peer	-11.1812
▁itch	-11.1813
▁elephants	-11.1816
▁rhythm	-11.1817
▁teaspoon	-11.1817
▁manage	-11.1818
▁tomatoes	-11.1821
▁x	-11.1856
▁mister	-11.1885
▁watered	-11.189
▁petted	-11.1892
▁possible	-11.1902
▁mineral	-11.1914
▁admiring	-11.1924
▁sliding	-11.1929
▁zipped	-11.1937
▁equipment	-11.195
▁seats	-11.1951
▁potatoes	-11.1953
▁sidewalk	-11.1956
ncle	-11.1956
▁invitation	-11.1972
▁whistling	-11.1973
▁complain	-11.1974
▁ordered	-11.1981
▁jogging	-11.1992
▁marching	-11.2004
▁Nina	-11.2009
▁receive	-11.2019
▁gloves	-11.2034
▁lands	-11.2039
▁Suzy	-11.2041
▁strangers	-11.2041
▁grocery	-11.2047
▁kindly	-11.2052
▁keeper	-11.2053
▁continue	-11.206
▁firework	-11.2074
▁laid	-11.2097
▁operation	-11.2118
▁skipping	-11.2123
▁doggy	-11.2133
▁problems	-11.2134
▁beside	-11.2144
▁patterns	-11.2179
▁stomach	-11.218
▁twigs	-11.219
▁overjoyed	-11.2206
▁Chloe	-11.2213
▁racing	-11.2216
▁shiver	-11.2227
n	-11.2229
▁attached	-11.223
▁brick	-11.2233
▁ash	-11.2238
œThank	-11.2242
▁bother	-11.2243
▁escaped	-11.2252
▁copper	-11.2265
▁soldiers	-11.2282
▁gotten	-11.2296
▁crashed	-11.2307
▁signs	-11.2309
▁burning	-11.231
Ha	-11.2327
▁whistled	-11.2335
▁raised	-11.2344
▁mountains	-11.2348
▁Moral	-11.2349
▁repeat	-11.235
▁colour	-11.2383
▁sold	-11.2386
▁history	-11.2387
▁Cat	-11.2405
▁navy	-11.2407
▁fed	-11.2411
eally	-11.2414
▁scratched	-11.2435
▁Anne	-11.244
▁pigs	-11.2446
▁Julie	-11.2449
▁happiest	-11.2451
▁Jamie	-11.2455
▁Sunny	-11.2465
▁wooden	-11.2475
▁Sharing	-11.2477
▁eagle	-11.2481
▁onwards	-11.2492
▁poison	-11.2521
▁prayed	-11.2524
seek	-11.2528
▁float	-11.2537
▁lips	-11.2544
▁hated	-11.2545
▁officer	-11.2553
▁company	-11.256
▁crunchy	-11.2564
▁disagreed	-11.2568
▁safari	-11.2588
▁Beth	-11.2592
▁bang	-11.2594
▁twirl	-11.263
▁screams	-11.2643
▁measuring	-11.265
▁revealed	-11.2651
▁refreshed	-11.2654
▁planted	-11.2659
▁comfy	-11.2664
▁Thomas	-11.2664
▁turning	-11.267
▁precious	-11.2681
▁peanuts	-11.2682
▁pies	-11.2695
▁bye	-11.2705
▁menu	-11.272
Ouch	-11.2733
▁printer	-11.2734
▁buildings	-11.2734
▁prune	-11.2737
▁prepared	-11.2749
œWe	-11.2775
▁drinks	-11.278
▁recognized	-11.2784
▁Jo	-11.2786
▁clearing	-11.28
Would	-11.2804
▁gain	-11.2806
▁Josh	-11.2811
▁spoons	-11.2824
▁slip	-11.2844
▁bowed	-11.2846
▁easier	-11.2857
▁olive	-11.2859
▁crep	-11.2864
▁sore	-11.288
▁Sunday	-11.2891
▁served	-11.2894
▁surf	-11.2898
▁selling	-11.2909
▁steel	-11.291
▁settle	-11.292
▁earthquake	-11.2945
▁bones	-11.2947
▁fireworks	-11.2953
▁Sadly	-11.2953
▁brand	-11.2955
▁bridges	-11.2972
▁sings	-11.2982
▁acorns	-11.2989
▁drinking	-11.2992
▁dur	-11.3005
▁muddy	-11.3011
▁apologize	-11.3014
▁trapped	-11.3015
▁dinosaurs	-11.3022
▁cuddle	-11.3023
▁price	-11.3024
▁disturb	-11.3048
▁perched	-11.3068
▁succeeded	-11.3088
▁reminder	-11.3097
▁spaceship	-11.31
▁scatter	-11.3102
▁cutting	-11.3103
▁row	-11.3106
▁hurried	-11.3112
▁By	-11.3115
▁anytime	-11.3123
▁flood	-11.3124
▁rested	-11.3141
▁Sure	-11.3141
▁pitch	-11.3146
▁network	-11.3156
▁wonders	-11.316
▁Nutty	-11.317
▁soared	-11.3173
▁cakes	-11.3174
▁tip	-11.3176
▁rained	-11.3195
▁whatever	-11.3196
▁rang	-11.3196
▁everyday	-11.3203
▁oats	-11.3204
▁remembers	-11.3206
▁landscape	-11.3207
▁beat	-11.3224
▁event	-11.326
▁image	-11.3281
▁costumes	-11.3284
▁herb	-11.3289
▁velvet	-11.3299
▁shopping	-11.3306
œCan	-11.3315
▁responsible	-11.3321
▁Frank	-11.3325
▁items	-11.3338
▁disturbed	-11.3345
▁comforted	-11.3349
▁agreement	-11.337
▁weren	-11.3377
▁punish	-11.3379
▁exactly	-11.3381
▁breaking	-11.3383
TM	-11.3391
▁creation	-11.3393
▁visiting	-11.3407
▁practicing	-11.3414
▁request	-11.3421
oom	-11.3439
▁simple	-11.344
▁tastes	-11.3452
▁waist	-11.3461
▁traffic	-11.3486
▁pets	-11.349
▁Chirpy	-11.3494
▁circus	-11.355
h	-11.3559
▁olives	-11.3575
▁tremble	-11.3583
▁soak	-11.3587
▁lecture	-11.3589
▁shadows	-11.3595
▁brushed	-11.3597
▁weight	-11.36
▁beneath	-11.3603
▁Floppy	-11.3604
▁style	-11.3609
▁recognize	-11.361
▁owned	-11.3611
▁bleeding	-11.3627
▁ripped	-11.363
▁secrets	-11.3642
▁news	-11.365
▁Tiny	-11.3661
▁downstairs	-11.3676
▁bringing	-11.368
▁answers	-11.3695
▁ours	-11.37
▁oxygen	-11.3703
▁fascinated	-11.3722
▁Something	-11.3725
▁villagers	-11.3729
▁leather	-11.3745
▁catching	-11.3754
▁Betty	-11.3754
▁suffer	-11.3755
▁unlocked	-11.3763
▁underground	-11.3765
Will	-11.378
▁stripes	-11.3809
▁died	-11.3824
▁guessed	-11.3834
▁knelt	-11.3835
▁Coco	-11.384
▁Bubbles	-11.3853
▁grandmother	-11.3855
▁freeze	-11.3867
▁Lucky	-11.3871
▁wanting	-11.3897
▁Tilly	-11.3906
▁curiosity	-11.391
▁frown	-11.3911
▁Claire	-11.3914
▁Jessie	-11.3922
▁stealing	-11.3924
▁waffles	-11.3936
Spot	-11.3937
▁soaring	-11.3948
Dad	-11.3948
▁mouths	-11.3952
▁gained	-11.3982
œDon	-11.3987
▁nails	-11.4002
▁cape	-11.4024
▁blueberry	-11.4036
▁sadness	-11.4061
▁wondering	-11.4064
▁Big	-11.4065
▁vegetable	-11.4074
▁weep	-11.4076
▁argued	-11.4079
▁Hop	-11.4108
▁appear	-11.4108
▁firemen	-11.4113
▁mice	-11.4116
▁For	-11.4118
▁struggled	-11.4121
▁area	-11.4122
▁mission	-11.4123
▁decorated	-11.4123
▁studied	-11.4137
Those	-11.4158
▁loaded	-11.4171
▁tune	-11.4183
▁Hannah	-11.4185
▁works	-11.4197
▁victory	-11.4197
abbit	-11.4208
▁punished	-11.421
▁increase	-11.4211
▁accidents	-11.4225
▁tickets	-11.4225
▁planned	-11.423
▁nicer	-11.4241
One	-11.4242
▁shivering	-11.4243
▁Pip	-11.4245
▁fetch	-11.4256
▁lemons	-11.4262
▁Lulu	-11.4263
▁jogged	-11.4279
▁stirring	-11.4283
▁wagging	-11.4283
▁winning	-11.4283
▁examined	-11.4288
▁tugged	-11.4307
▁six	-11.4312
▁permit	-11.4335
▁underneath	-11.4336
▁zooming	-11.4336
She	-11.4336
▁slapped	-11.434
▁exit	-11.4343
▁twirling	-11.4345
▁yelling	-11.4346
▁realize	-11.4388
▁outdoors	-11.4389
▁bunnies	-11.4394
▁challenge	-11.4408
▁introduce	-11.4425
▁sisters	-11.443
▁weighed	-11.4433
▁discuss	-11.4437
▁doctors	-11.444
▁waits	-11.4444
▁supplies	-11.4464
▁properly	-11.4464
▁satisfied	-11.4468
▁monsters	-11.4472
▁bump	-11.4479
▁teasing	-11.448
▁instructions	-11.4494
▁zero	-11.4494
▁Like	-11.45
looking	-11.4507
▁mixing	-11.4514
▁lets	-11.4524
▁wreck	-11.4529
▁winner	-11.4557
▁prunes	-11.4568
▁neighbourhood	-11.4573
Yum	-11.4586
▁pinched	-11.4587
▁pancakes	-11.4602
▁herbs	-11.4606
▁piles	-11.4629
▁released	-11.4637
▁frosting	-11.4653
▁ruler	-11.4671
▁printed	-11.4678
▁contain	-11.4691
▁Did	-11.4702
▁pastel	-11.471
▁beds	-11.4712
▁machines	-11.4713
▁Adam	-11.4718
▁gathering	-11.4723
▁sport	-11.4766
▁Susan	-11.4786
▁ruin	-11.4789
▁budge	-11.4807
▁peaches	-11.482
▁struck	-11.4829
Or	-11.4836
▁yawn	-11.4842
▁shoulders	-11.4858
se	-11.4863
œLook	-11.4865
▁sights	-11.4867
▁bunch	-11.4876
▁release	-11.4894
▁giggling	-11.4898
▁fashion	-11.4905
▁pears	-11.4922
Not	-11.4931
▁pedal	-11.4934
▁ourselves	-11.4937
▁brushes	-11.4937
▁baked	-11.4943
▁burrow	-11.4948
▁keys	-11.4961
▁ago	-11.4964
▁lick	-11.4973
▁poking	-11.4976
œHello	-11.4976
▁Stop	-11.4977
▁men	-11.4984
▁studying	-11.4992
▁voices	-11.4992
▁regret	-11.5022
▁stretching	-11.5027
▁competition	-11.5028
▁lines	-11.5029
▁sigh	-11.5042
▁writes	-11.5044
▁unicorn	-11.5055
▁prints	-11.5096
▁strip	-11.5115
▁Carl	-11.5122
▁decides	-11.5143
▁control	-11.5149
▁protected	-11.5155
▁surface	-11.5156
▁spit	-11.5161
▁demanded	-11.5162
▁claps	-11.5169
▁scurried	-11.5189
▁spiders	-11.5189
▁mentioned	-11.5189
▁flap	-11.5212
▁Abby	-11.5216
▁gazed	-11.5221
out	-11.5241
▁guys	-11.527
▁recommend	-11.5273
▁draws	-11.5291
▁muffins	-11.5299
▁marks	-11.53
▁cub	-11.5309
Happy	-11.5332
▁prettiest	-11.5333
▁purred	-11.5333
Mama	-11.5336
▁beard	-11.5341
▁sweeties	-11.5342
▁Linda	-11.5342
▁result	-11.5348
▁soaked	-11.5352
▁pockets	-11.5353
▁boss	-11.5358
▁tickle	-11.536
œThis	-11.5368
▁repeated	-11.5375
Goodbye	-11.5401
▁horns	-11.5405
▁ribbons	-11.5414
▁rides	-11.5417
▁dragged	-11.5419
▁zigzag	-11.543
▁sorting	-11.5431
▁camping	-11.5457
Daddy	-11.5474
▁kicking	-11.5478
▁goodnight	-11.5489
▁silence	-11.5501
▁Suzie	-11.553
œWhy	-11.5537
▁neighbors	-11.5539
▁Santa	-11.554
▁lip	-11.5555
▁bouncy	-11.5562
▁cones	-11.5566
▁twinkling	-11.5576
▁touching	-11.5599
▁Afterwards	-11.5602
▁buckets	-11.561
▁shock	-11.5612
▁stamps	-11.5614
▁parked	-11.562
▁applauded	-11.5628
▁nightmare	-11.5631
▁catches	-11.5642
▁loving	-11.5651
▁mittens	-11.5672
▁muscles	-11.5675
▁discovering	-11.5676
▁chewing	-11.5682
▁policeman	-11.5689
▁Cindy	-11.5689
▁babies	-11.5707
▁acted	-11.5712
▁east	-11.5712
▁west	-11.5714
▁loose	-11.5716
▁tonight	-11.5723
▁strike	-11.5725
▁luxury	-11.5731
▁stole	-11.5735
▁shelves	-11.574
▁guns	-11.5744
▁emergency	-11.5745
ayla	-11.5754
▁steep	-11.5754
▁stitch	-11.5772
▁strings	-11.5776
▁broom	-11.5794
▁ladybug	-11.5797
▁barely	-11.5797
▁vowed	-11.5797
▁curtains	-11.5807
▁Dolly	-11.5807
▁sides	-11.5812
▁scoop	-11.5814
▁Luke	-11.5821
▁completed	-11.5829
thank	-11.5841
▁pearl	-11.5849
▁Both	-11.586
▁frozen	-11.5869
▁chases	-11.5881
▁pebbles	-11.5892
▁sting	-11.5901
▁chips	-11.5906
▁urged	-11.5933
▁stair	-11.5946
▁introduced	-11.5962
▁reluctantly	-11.5984
▁Lizzy	-11.599
▁powers	-11.5996
▁shivered	-11.6
▁obey	-11.6012
▁Jenna	-11.6023
Mia	-11.6024
▁patience	-11.6028
▁rocked	-11.6031
▁Mira	-11.6068
▁pop	-11.6073
▁season	-11.6076
▁Lena	-11.6087
▁rocking	-11.6089
▁include	-11.6097
▁pouring	-11.6099
▁sorted	-11.61
▁importance	-11.6106
▁Pinky	-11.6107
▁highest	-11.6113
▁direction	-11.6118
▁librarian	-11.6121
▁curly	-11.6126
▁safer	-11.6173
▁youth	-11.6192
▁movies	-11.6192
▁fabric	-11.6192
▁roaring	-11.62
▁flat	-11.624
▁Jeff	-11.6245
œOh	-11.6253
▁Tuesday	-11.6257
▁unexpected	-11.6264
▁hugging	-11.6264
▁staring	-11.6275
▁confident	-11.6279
▁rubbing	-11.6279
▁Wednesday	-11.6302
▁lied	-11.6302
▁entire	-11.6304
▁plenty	-11.6304
▁effort	-11.6312
▁sighs	-11.6325
▁drives	-11.6338
▁Momo	-11.6346
▁solution	-11.6347
▁Tara	-11.6365
▁situation	-11.6373
▁screaming	-11.6378
▁balancing	-11.638
▁slimy	-11.6385
▁allow	-11.639
▁contest	-11.6395
▁lean	-11.6401
▁dolphins	-11.6402
▁wedding	-11.6408
▁sausages	-11.6414
▁matched	-11.6416
▁Jacob	-11.643
▁homework	-11.6436
▁cheering	-11.6438
▁figured	-11.6441
▁zookeeper	-11.6444
▁shined	-11.6449
▁bravery	-11.6456
▁Always	-11.647
▁singer	-11.6476
eep	-11.6486
a	-11.6491
▁eight	-11.6507
▁Hoppy	-11.6532
▁passing	-11.6536
▁awesome	-11.6542
▁oat	-11.6543
▁dragons	-11.657
▁dared	-11.658
▁planets	-11.6582
▁Jessica	-11.6594
▁written	-11.6609
use	-11.6613
▁growl	-11.6622
▁pupil	-11.665
▁arguing	-11.6656
▁markers	-11.666
▁Lizzie	-11.6666
▁web	-11.6667
▁goals	-11.6678
▁usual	-11.6692
▁patted	-11.6692
▁heel	-11.6695
▁dusty	-11.6703
▁siren	-11.6713
▁sticking	-11.6723
▁waiter	-11.6766
▁Two	-11.6773
▁packing	-11.6789
▁knowledge	-11.6791
▁paintings	-11.6821
▁rescued	-11.6826
▁ranger	-11.6835
▁bloomed	-11.6847
▁flags	-11.6857
▁reaching	-11.6858
▁growling	-11.6861
▁pajamas	-11.6881
▁regretted	-11.6902
▁marriage	-11.6902
▁caused	-11.6903
▁struggle	-11.6929
▁blooming	-11.6931
▁blink	-11.6987
▁rainbows	-11.699
▁flash	-11.6996
▁truly	-11.7009
▁bank	-11.7011
▁exhausted	-11.7014
▁expected	-11.7026
▁Matt	-11.7026
▁spike	-11.7027
▁resting	-11.7033
▁radishes	-11.7046
▁mane	-11.7064
▁snail	-11.7065
▁trembling	-11.7068
oh	-11.7078
▁traveled	-11.7088
▁towels	-11.7101
▁matching	-11.7106
▁rid	-11.7108
▁workers	-11.7109
▁creating	-11.7117
▁startled	-11.7117
▁worker	-11.7122
▁spraying	-11.7126
▁Good	-11.714
▁arrive	-11.7156
▁recorded	-11.7164
▁kneeled	-11.7189
▁princesses	-11.7193
▁observed	-11.7195
uring	-11.7218
▁inviting	-11.7226
▁glitter	-11.7231
▁motion	-11.7235
▁completely	-11.7237
▁Julia	-11.7269
▁prayer	-11.7279
▁super	-11.7281
▁fault	-11.7291
▁belly	-11.7294
▁storekeeper	-11.7303
▁flavor	-11.7306
Exc	-11.7333
▁spill	-11.7333
▁removed	-11.7338
▁organizing	-11.7342
▁quack	-11.7345
un	-11.7356
▁D	-11.736
▁activities	-11.7369
Mum	-11.7381
▁opening	-11.7384
▁project	-11.7385
▁cast	-11.7385
▁agrees	-11.739
▁Fox	-11.7392
▁quacked	-11.7409
▁Jones	-11.742
▁ventured	-11.742
▁paddled	-11.742
▁wires	-11.7425
▁included	-11.7433
▁pencils	-11.7433
▁harm	-11.7441
▁leader	-11.7447
▁daisies	-11.7448
▁replaced	-11.7455
▁encourage	-11.7462
Yeah	-11.7475
▁melting	-11.7478
▁timer	-11.7491
▁Leave	-11.7496
▁vanish	-11.7502
▁penguins	-11.7521
▁pretends	-11.7526
▁Johnson	-11.7555
▁Larry	-11.756
▁Bye	-11.7572
▁worries	-11.7583
▁scales	-11.7584
▁Follow	-11.7586
it	-11.761
▁honk	-11.7611
▁darkness	-11.7612
▁countryside	-11.7617
▁seesaw	-11.7648
▁hunt	-11.7654
▁wasted	-11.7659
▁squealed	-11.7669
▁interested	-11.7669
hello	-11.7669
▁crumbs	-11.7671
▁homes	-11.7677
▁texture	-11.7681
▁An	-11.7684
▁twinkle	-11.7697
▁lap	-11.7699
▁eats	-11.7707
▁marked	-11.7713
▁fairies	-11.7715
▁tractor	-11.7721
▁flames	-11.7729
▁faraway	-11.7743
▁everybody	-11.7749
▁seagull	-11.7751
▁faced	-11.7754
▁usually	-11.7761
▁united	-11.7763
▁polishing	-11.7798
▁pots	-11.7801
ip	-11.7808
▁dentist	-11.7819
▁misses	-11.7819
▁applaud	-11.7829
▁relief	-11.783
▁becoming	-11.7831
▁slap	-11.7832
▁valued	-11.7847
▁wandering	-11.787
▁dipped	-11.7871
▁snakes	-11.7871
▁lamb	-11.7879
▁teaches	-11.7889
John	-11.789
▁healed	-11.791
▁cautiously	-11.7912
▁bottles	-11.7916
▁keeps	-11.7925
▁opinion	-11.7938
▁bar	-11.7955
▁Slowly	-11.7971
▁bend	-11.7975
▁throat	-11.7986
▁polished	-11.7992
Mummy	-11.802
▁rubs	-11.802
▁crabs	-11.8027
▁winked	-11.8037
▁Happy	-11.8037
▁peeking	-11.8039
▁crowd	-11.804
▁groceries	-11.806
▁ripe	-11.8066
▁helmets	-11.8076
▁cuts	-11.8078
▁particular	-11.8084
▁folding	-11.8087
▁kneel	-11.8092
▁splashes	-11.8096
▁poems	-11.8107
▁cracked	-11.8112
▁seems	-11.8125
▁signed	-11.8125
▁swooped	-11.8132
▁Sorry	-11.8153
▁sweets	-11.8161
Bad	-11.8176
▁knights	-11.8176
Just	-11.8194
▁staying	-11.8216
▁Sophia	-11.8223
▁Put	-11.8232
▁however	-11.8247
▁roots	-11.8248
▁provided	-11.8249
▁baker	-11.8263
▁yesterday	-11.8265
▁reply	-11.8269
▁roads	-11.8269
▁protecting	-11.8285
▁cause	-11.8287
▁crackers	-11.8293
▁pastries	-11.8295
▁gaze	-11.8311
▁balanced	-11.8315
▁directions	-11.8318
▁younger	-11.8327
▁actions	-11.8336
▁twin	-11.8339
▁bat	-11.8344
▁fuzzy	-11.8351
▁fluttered	-11.8357
▁lollipops	-11.8358
▁Doggy	-11.8358
▁beads	-11.8364
▁single	-11.8381
▁Everybody	-11.8388
▁snowballs	-11.8389
▁delivery	-11.8394
▁Many	-11.84
▁forehead	-11.8405
▁blows	-11.8408
▁copy	-11.8418
▁remote	-11.8418
▁den	-11.8419
▁crow	-11.842
▁sense	-11.8424
▁Abbie	-11.8431
▁desert	-11.8441
▁sneaky	-11.8469
you	-11.848
œMommy	-11.8484
▁roses	-11.8495
▁filling	-11.8505
▁Olive	-11.8511
▁chuckled	-11.8518
▁logs	-11.8518
▁rings	-11.8522
▁Princess	-11.8534
▁Being	-11.8536
▁Nick	-11.8543
Then	-11.8543
▁inch	-11.8548
▁kites	-11.8548
▁photos	-11.8569
▁Christmas	-11.858
▁itchy	-11.8581
▁pastels	-11.8584
▁piggy	-11.8586
▁June	-11.8593
▁wow	-11.8601
▁cubes	-11.8604
▁cough	-11.8604
▁Nothing	-11.8605
▁sobbed	-11.8606
▁pedals	-11.8607
▁bumpy	-11.8631
▁wiggled	-11.8657
Fine	-11.8659
ara	-11.8664
▁stare	-11.8671
▁recording	-11.868
▁Buzzy	-11.8682
▁meow	-11.8684
▁Watch	-11.869
Sometimes	-11.8697
▁restored	-11.8715
▁complaining	-11.8721
▁boom	-11.8728
▁coloured	-11.8731
▁nectar	-11.8732
oar	-11.8735
▁determination	-11.8758
▁awake	-11.8771
▁lower	-11.8779
▁somebody	-11.8796
▁Mikey	-11.8849
▁Jazz	-11.8855
▁rolls	-11.8857
▁rockets	-11.8861
▁suitcase	-11.8869
▁Stella	-11.888
▁pleasure	-11.8901
▁Laura	-11.8906
▁tickled	-11.8907
▁stolen	-11.8913
▁pause	-11.8914
▁hissed	-11.8918
▁cashier	-11.8938
▁tallest	-11.894
▁disagree	-11.8942
▁froze	-11.8964
▁insects	-11.8976
▁acting	-11.8976
▁Milo	-11.8978
▁bars	-11.8981
▁Enjoy	-11.8982
▁achieve	-11.8983
▁noon	-11.899
▁videos	-11.8992
▁celebration	-11.9
▁tricky	-11.9004
▁entrance	-11.9009
▁tricked	-11.9014
ob	-11.902
▁Days	-11.9021
▁Jess	-11.9021
▁Maya	-11.9037
▁Out	-11.905
▁darker	-11.9051
Tommy	-11.9074
▁Sparky	-11.9076
▁expect	-11.9082
▁afterwards	-11.9086
▁sew	-11.911
▁Mickey	-11.9116
▁bumps	-11.9141
▁glasses	-11.9142
▁giraffes	-11.9147
▁beyond	-11.9149
▁liquid	-11.9159
▁speaking	-11.9165
▁boo	-11.9184
▁colored	-11.9187
▁talented	-11.919
▁warn	-11.9198
▁Pam	-11.921
▁delivered	-11.9212
▁tangled	-11.9215
▁wink	-11.922
▁hider	-11.9231
▁joking	-11.9235
▁seeker	-11.9236
▁sandcastles	-11.9248
▁candies	-11.9249
▁yourselves	-11.9262
▁rule	-11.9286
▁adding	-11.9294
▁naps	-11.9296
▁Aunt	-11.9304
▁owners	-11.9308
▁wrist	-11.9308
▁trips	-11.9308
▁reveal	-11.9312
Jack	-11.9322
obbie	-11.9323
▁Get	-11.9324
▁calmed	-11.9335
obby	-11.9345
▁skill	-11.9348
▁pat	-11.9354
▁badge	-11.9356
▁deal	-11.936
▁scarves	-11.9364
▁lung	-11.9364
▁smarter	-11.9372
▁cupcakes	-11.9376
▁Gigi	-11.9385
▁miles	-11.9385
▁lighter	-11.939
œCome	-11.94
▁covers	-11.9411
▁guy	-11.9417
boo	-11.9419
▁burst	-11.9422
▁explorers	-11.9431
▁achieved	-11.9447
▁farther	-11.946
▁impossible	-11.9473
When	-11.9486
▁d	-11.95
▁Emmy	-11.9501
▁complained	-11.951
▁peel	-11.9519
▁bakery	-11.9521
▁indeed	-11.9535
▁scaring	-11.9535
▁seven	-11.9537
ay	-11.9548
▁foods	-11.9549
▁magnets	-11.9561
▁beginning	-11.9562
▁learns	-11.9575
▁knees	-11.9583
room	-11.9604
▁uses	-11.9616
uack	-11.9618
▁sled	-11.9619
▁Finn	-11.9638
▁marker	-11.964
▁Pandy	-11.9646
▁recommended	-11.9648
ery	-11.9653
▁third	-11.9653
▁salty	-11.9661
▁consequences	-11.9662
▁improved	-11.967
▁hesitated	-11.9681
▁smiley	-11.9682
▁talent	-11.9688
▁cheeks	-11.9717
▁parties	-11.9723
▁Snuggles	-11.9724
▁gracefully	-11.9732
▁firefighters	-11.9732
▁leading	-11.9756
▁dots	-11.976
▁outfit	-11.9767
▁darling	-11.9774
▁choices	-11.9776
▁cost	-11.9794
▁deserve	-11.9801
▁handful	-11.9803
over	-11.9804
▁siblings	-11.9814
▁wipes	-11.9822
▁mixture	-11.9829
▁weeping	-11.9838
▁kicks	-11.9842
▁flapping	-11.9858
▁threat	-11.986
▁closes	-11.9869
▁knocks	-11.9891
obert	-11.9893
▁accomplishment	-11.9925
▁paddle	-11.9931
▁stroked	-11.9937
▁Water	-11.9946
▁Not	-11.9957
▁buying	-11.9968
▁shirts	-11.9972
œDo	-11.9973
▁stem	-11.9975
▁dollhouse	-11.9987
Shh	-11.9994
▁basement	-11.9994
▁teased	-11.9998
▁horizon	-12.0002
▁swept	-12.0016
▁ruining	-12.0018
▁Binky	-12.0024
nuck	-12.0031
▁neither	-12.0038
▁travelled	-12.0045
▁batteries	-12.006
▁widened	-12.006
▁Gina	-12.0075
▁bowls	-12.0081
▁jackets	-12.0101
▁grand	-12.0102
▁hallway	-12.0122
▁chefs	-12.0125
▁creamy	-12.0132
▁families	-12.014
▁Jacky	-12.0142
▁Chris	-12.0148
▁heading	-12.0152
▁fever	-12.0155
œWow	-12.0178
œHi	-12.0182
▁wrapping	-12.0184
▁paying	-12.0192
▁celebrating	-12.0199
▁Maddie	-12.0199
▁performance	-12.0203
▁scratches	-12.0206
▁Martha	-12.0207
▁losing	-12.0221
▁hearing	-12.0222
▁puppies	-12.0243
▁lettuce	-12.0251
▁masks	-12.026
▁bedtime	-12.0274
▁Granny	-12.0274
▁behaved	-12.0287
▁glee	-12.0295
▁avoid	-12.0296
▁peacefully	-12.0313
▁scrubbed	-12.0318
▁mushrooms	-12.0321
▁stung	-12.0325
▁tigers	-12.0342
▁yells	-12.0348
▁wears	-12.0353
▁treehouse	-12.0356
▁secure	-12.0361
▁grabbing	-12.0363
▁gems	-12.0391
▁among	-12.0393
▁tasks	-12.0399
▁creativity	-12.04
▁fluttering	-12.0401
Next	-12.0402
▁rumble	-12.0403
▁objects	-12.0431
▁arrows	-12.0431
▁drums	-12.0441
▁mention	-12.0451
▁Ow	-12.0456
▁hi	-12.0457
▁cuddly	-12.0468
▁drifted	-12.0476
▁rusty	-12.0484
yan	-12.0488
▁clowns	-12.0494
▁Goodbye	-12.05
▁separated	-12.0503
▁source	-12.0504
uick	-12.0506
▁pouted	-12.0529
▁stomped	-12.0537
▁Janie	-12.0537
▁tiptoed	-12.0545
▁grassy	-12.0571
▁Along	-12.0583
aren	-12.0584
p	-12.0587
▁Mabel	-12.0606
▁Sadie	-12.0606
bye	-12.0607
iki	-12.0613
▁Bee	-12.0622
▁wound	-12.0635
▁Todd	-12.0637
▁pointy	-12.0676
▁repaired	-12.068
▁trampoline	-12.0691
▁rising	-12.0691
▁unpacked	-12.0702
▁imagining	-12.0714
▁Abi	-12.0714
▁sprinkled	-12.0715
▁raindrops	-12.0719
▁seconds	-12.072
▁including	-12.073
▁chef	-12.0745
▁growls	-12.0753
▁swims	-12.0762
▁rewarded	-12.0766
▁Earth	-12.0769
oey	-12.0771
▁backwards	-12.0774
▁damage	-12.0791
▁Jackie	-12.0801
▁granted	-12.0816
ueen	-12.0847
▁materials	-12.0852
▁diving	-12.0855
ntil	-12.0863
Have	-12.0863
▁heavier	-12.0871
▁squares	-12.088
▁tapped	-12.0895
▁pans	-12.0907
▁ache	-12.0915
▁Jay	-12.0926
▁stool	-12.095
▁gross	-12.0958
▁needles	-12.0963
▁Since	-12.0967
▁sailboat	-12.0975
▁blocking	-12.0975
▁chop	-12.0991
Ah	-12.0993
▁demand	-12.1006
▁husband	-12.1014
▁Bird	-12.102
▁pecked	-12.103
er	-12.1034
▁players	-12.1042
▁shrinking	-12.1049
▁snowmen	-12.107
Oops	-12.1094
▁creations	-12.1099
▁hesitant	-12.1118
▁minerals	-12.1121
▁rustling	-12.1135
▁Wendy	-12.1135
▁printing	-12.1141
▁audience	-12.1143
▁fears	-12.1159
▁willing	-12.1172
▁decorating	-12.1192
▁adult	-12.1195
▁ornaments	-12.1197
▁neighbours	-12.12
▁coloring	-12.1203
▁item	-12.1205
▁wiping	-12.1216
▁Nobody	-12.1235
▁center	-12.1241
▁discussed	-12.1243
œMy	-12.1251
alph	-12.1257
▁screwdriver	-12.1276
▁recipe	-12.1277
▁Simon	-12.1281
▁raincoat	-12.1285
▁age	-12.13
▁limes	-12.1312
▁Squeaky	-12.1315
▁slower	-12.1315
▁grin	-12.1316
▁hedgehog	-12.1318
▁silent	-12.1323
Meow	-12.1327
▁designed	-12.1329
▁windy	-12.1356
▁surroundings	-12.1369
▁beloved	-12.1373
▁Marie	-12.1381
Lila	-12.1386
▁slammed	-12.1389
▁cousin	-12.1402
▁spikes	-12.1427
▁slices	-12.1428
▁Lia	-12.1432
▁reads	-12.1466
▁reflection	-12.1469
▁wins	-12.1481
▁vanilla	-12.149
▁wobbled	-12.149
▁chick	-12.1494
▁helpers	-12.151
▁aren	-12.1525
▁Davey	-12.1525
▁couple	-12.1532
▁listens	-12.1534
▁Bluey	-12.1542
▁Our	-12.1567
▁sponge	-12.1579
▁gobbled	-12.1583
To	-12.1587
▁snowball	-12.1597
▁Star	-12.1598
▁afford	-12.1642
▁planning	-12.1651
▁Although	-12.1652
▁weekend	-12.1656
▁mat	-12.1678
▁praying	-12.168
▁prettier	-12.1685
▁presses	-12.1685
go	-12.1688
Woof	-12.1691
▁chirp	-12.1698
▁temperature	-12.1699
▁borrowed	-12.171
▁aside	-12.1718
▁Amelia	-12.1728
▁touches	-12.1729
▁screws	-12.173
▁twice	-12.1736
▁gardener	-12.1741
▁superheroes	-12.1753
▁wishing	-12.1756
▁tissue	-12.176
▁sale	-12.176
▁bodies	-12.1771
▁swans	-12.1772
▁sparks	-12.1772
▁snatche	-12.1774
▁curiously	-12.1788
▁onions	-12.1789
▁forgetting	-12.1792
▁greeted	-12.1806
Great	-12.182
▁click	-12.182
▁Back	-12.1823
▁requested	-12.1825
▁meals	-12.1833
▁hour	-12.1839
▁hitting	-12.1844
▁duckling	-12.1848
▁intrigued	-12.1849
▁Michael	-12.1849
▁feeding	-12.1858
Time	-12.1871
▁forks	-12.1878
Our	-12.1883
▁warnings	-12.1885
▁dreamt	-12.1893
▁rivers	-12.1895
▁Momma	-12.1896
▁artist	-12.19
▁hopeful	-12.191
▁students	-12.1921
▁breathed	-12.1926
▁leaning	-12.1929
o	-12.193
▁mesmerized	-12.1936
▁familiar	-12.1936
▁thrown	-12.1941
▁magician	-12.1944
▁woof	-12.1947
▁dived	-12.195
▁potion	-12.1953
Grandma	-12.197
▁handsome	-12.1971
▁poster	-12.1976
▁sunflowers	-12.1978
Yummy	-12.1978
▁snuggle	-12.1978
▁muscle	-12.1989
▁chosen	-12.2
▁dollars	-12.2003
▁remembering	-12.2004
Today	-12.2005
▁zipping	-12.2016
▁spreading	-12.2019
▁shaped	-12.203
▁Frog	-12.2034
▁changing	-12.2043
▁puppet	-12.2051
▁heroes	-12.2053
Boo	-12.2059
▁hawk	-12.2068
▁promises	-12.2078
▁corners	-12.2078
▁Meg	-12.2087
▁flavors	-12.2089
▁whispers	-12.2104
▁least	-12.2104
nna	-12.2105
▁delivering	-12.2108
▁nine	-12.2116
▁grandparents	-12.2131
▁Friends	-12.2137
▁Birthday	-12.214
▁peppers	-12.2141
▁reason	-12.2157
▁enthusiasm	-12.2167
▁hops	-12.2179
▁onward	-12.2187
▁raccoon	-12.2204
▁guests	-12.2211
▁alien	-12.2213
▁neatly	-12.2214
▁seaweed	-12.223
▁tunnels	-12.2232
▁hides	-12.225
▁robber	-12.2259
▁Fido	-12.2267
▁buzzed	-12.2267
▁triangles	-12.227
▁sailors	-12.229
▁Maddy	-12.2294
▁lungs	-12.2313
▁thud	-12.2321
▁honked	-12.2323
▁starfish	-12.2349
▁Judy	-12.2349
▁flight	-12.235
▁warmer	-12.2352
▁wraps	-12.2385
▁noses	-12.2393
▁merry	-12.2422
▁scamper	-12.243
▁glued	-12.2434
œMom	-12.2439
▁Flopsy	-12.2441
▁stays	-12.2453
▁feast	-12.2457
Whee	-12.2459
▁scraped	-12.2459
▁counts	-12.2465
▁refreshing	-12.2478
▁crashing	-12.2481
▁sports	-12.2482
▁preparing	-12.2487
▁Honey	-12.2489
▁oh	-12.2498
▁streets	-12.2499
▁zebras	-12.25
▁Frosty	-12.2515
--	-12.2536
▁stands	-12.2552
▁bows	-12.2556
▁sneezing	-12.2561
▁steady	-12.2571
▁plain	-12.2574
▁rotten	-12.2599
est	-12.2608
▁pens	-12.262
▁sending	-12.2622
▁suffering	-12.2629
▁toddler	-12.2649
▁joining	-12.2654
▁wobbly	-12.2655
▁daring	-12.2655
▁Owl	-12.2657
▁stern	-12.2665
▁plucked	-12.2665
▁swallowed	-12.2684
▁sniffs	-12.2698
▁spoonful	-12.2702
▁Holly	-12.2703
▁softer	-12.2706
▁sniff	-12.2713
▁rip	-12.2715
▁plans	-12.2715
▁biting	-12.2727
▁dropping	-12.2731
▁die	-12.2735
œWell	-12.2738
▁ham	-12.2756
▁shops	-12.2766
▁increased	-12.2772
▁Thanks	-12.2772
▁Bessie	-12.2789
yes	-12.2797
▁Samantha	-12.2798
▁performed	-12.2804
▁forgets	-12.2805
▁wag	-12.2808
▁dip	-12.2822
▁toaster	-12.2829
▁lifting	-12.2845
▁firefly	-12.2846
▁politely	-12.2849
▁spat	-12.2856
▁Baa	-12.2866
▁Stay	-12.2874
▁swords	-12.288
▁Tuna	-12.2886
▁worn	-12.2904
▁napkins	-12.2907
▁pennies	-12.2913
▁respected	-12.2925
▁prove	-12.2932
œBut	-12.2937
▁Only	-12.294
▁crew	-12.2952
▁quarreling	-12.2956
▁tested	-12.2964
▁trembled	-12.2984
▁wiggle	-12.2986
▁resisted	-12.2987
▁avocados	-12.2998
▁geese	-12.3001
▁lifts	-12.3007
▁panicked	-12.3011
▁Louise	-12.3011
▁focused	-12.3021
▁grows	-12.3022
▁dresser	-12.3025
▁Squirrel	-12.3027
▁skunk	-12.3046
▁joyful	-12.3057
▁Mina	-12.306
œWhere	-12.3082
TMd	-12.3084
▁rushing	-12.3092
no	-12.3093
▁slips	-12.3095
▁Farmer	-12.311
▁freedom	-12.3119
years	-12.3121
▁Take	-12.3122
▁baths	-12.3132
▁Love	-12.3141
uth	-12.315
▁dancers	-12.3152
▁firefighter	-12.3156
▁playtime	-12.3166
▁unsure	-12.3169
▁faded	-12.3179
▁bully	-12.3179
▁leapt	-12.3187
▁twinkled	-12.319
▁compassion	-12.3198
▁polar	-12.3198
▁drawn	-12.32
▁grant	-12.3208
▁stacked	-12.3214
▁strongest	-12.3231
▁scored	-12.3232
▁watering	-12.3234
▁throughout	-12.3234
▁oatmeal	-12.3238
▁appreciation	-12.3258
▁echoed	-12.3268
▁Ali	-12.3269
▁sank	-12.3278
▁waddled	-12.3279
▁garbage	-12.3288
▁nervously	-12.3302
▁Eva	-12.3319
▁probably	-12.3329
▁adults	-12.3335
▁Fiona	-12.3339
aty	-12.3348
▁blinking	-12.3351
▁Megan	-12.3359
▁master	-12.336
Ew	-12.3379
▁Dr	-12.3381
▁flutter	-12.3381
▁mints	-12.3409
▁cobwebs	-12.3409
▁causing	-12.343
▁leads	-12.3431
▁pours	-12.3432
▁frowning	-12.3433
▁Listen	-12.3445
▁Patch	-12.3451
▁firmly	-12.3451
▁tossed	-12.3451
▁Sofia	-12.3451
▁performing	-12.3456
▁Bubba	-12.3461
▁waterfall	-12.3469
▁bravest	-12.3486
▁cosy	-12.3533
▁wept	-12.3533
▁flown	-12.3533
▁chat	-12.3544
▁overcome	-12.3555
▁marshmallows	-12.3573
▁behaving	-12.3585
▁Meanwhile	-12.3595
▁sewing	-12.3596
▁pigeons	-12.3604
▁amount	-12.3616
▁necklaces	-12.3624
▁Yesterday	-12.3637
▁colder	-12.365
▁guide	-12.3665
▁squishy	-12.3668
▁aimed	-12.3668
▁sweetest	-12.367
▁cushions	-12.368
please	-12.3681
▁tails	-12.3684
Like	-12.3692
▁playroom	-12.3696
▁drawers	-12.3699
▁passengers	-12.3702
▁loading	-12.3713
▁humans	-12.3718
▁wakes	-12.3724
▁Halloween	-12.3762
▁behavior	-12.3773
▁tighter	-12.3775
▁months	-12.3781
▁Pippa	-12.3784
▁Elly	-12.3794
ocky	-12.3801
▁spices	-12.3802
▁shown	-12.3804
▁clues	-12.3815
▁twisty	-12.3816
▁passports	-12.3819
▁doorway	-12.3823
▁squeezing	-12.3825
▁Despite	-12.3826
▁yielded	-12.3829
▁Because	-12.3837
▁dances	-12.3843
▁giggles	-12.3845
▁results	-12.3854
▁Fuzzy	-12.3858
▁healing	-12.3874
▁tricycle	-12.3889
▁designs	-12.389
▁instruments	-12.3896
▁encouraging	-12.39
▁postman	-12.39
▁Freddie	-12.39
▁Auntie	-12.3901
œOkay	-12.3929
▁explorer	-12.3929
▁ropes	-12.3942
▁napping	-12.3943
▁matters	-12.3945
▁Spidey	-12.3954
▁Dory	-12.3954
▁nearly	-12.3993
▁Wally	-12.4008
▁Mouse	-12.402
▁begin	-12.4032
▁twisting	-12.4034
Lucy	-12.4055
▁reversed	-12.411
▁noodles	-12.4111
Watch	-12.412
▁health	-12.4127
▁cleaner	-12.4136
▁shady	-12.4138
Follow	-12.4143
▁drivers	-12.4152
Listen	-12.4153
▁fact	-12.4153
▁conflict	-12.4162
▁breathing	-12.4163
▁cottage	-12.4171
▁elf	-12.4171
▁Jonny	-12.4171
▁surrendered	-12.4175
▁buses	-12.4182
▁brushing	-12.4183
ids	-12.4194
▁Still	-12.4204
▁grandchild	-12.4215
▁damaged	-12.4217
▁blocked	-12.4219
▁thorns	-12.422
▁crossing	-12.4225
œNow	-12.4235
▁tying	-12.4237
▁forgiving	-12.4238
▁spins	-12.4272
▁paintbrush	-12.4281
▁action	-12.4287
▁blast	-12.4291
▁wider	-12.4294
▁Curious	-12.4304
▁Mae	-12.4304
▁pumpkins	-12.4312
Mine	-12.432
▁notes	-12.433
▁rainy	-12.4349
▁appreciated	-12.4353
▁several	-12.4359
▁anger	-12.4362
▁soaking	-12.4364
▁slipping	-12.4371
▁base	-12.4382
▁heartbroken	-12.4382
▁coral	-12.4387
▁roars	-12.4392
▁laying	-12.4409
▁mailed	-12.443
▁ties	-12.4434
▁shovels	-12.4443
choo	-12.4443
▁yum	-12.4458
▁finishing	-12.4465
▁connected	-12.4472
▁cotton	-12.4483
▁ignoring	-12.4483
▁repeating	-12.4486
▁bleed	-12.4511
▁suffered	-12.452
Sue	-12.4523
▁puzzled	-12.4523
▁Elsa	-12.4541
▁toward	-12.4541
▁ease	-12.4544
▁angels	-12.4551
▁Well	-12.4554
▁Lou	-12.4578
▁Ally	-12.4583
▁evil	-12.4586
▁stitches	-12.4586
▁streamers	-12.4587
▁bells	-12.4593
▁Jojo	-12.4597
▁accomplished	-12.4609
icky	-12.4614
▁seller	-12.4615
▁cloudy	-12.4624
▁supported	-12.4627
▁Hope	-12.4628
▁Birdy	-12.4644
▁within	-12.4659
▁lending	-12.466
▁frowns	-12.4664
▁definitely	-12.4666
▁whose	-12.4667
▁risks	-12.4673
▁wisely	-12.4674
▁Jan	-12.4681
▁Patty	-12.469
▁ponies	-12.4701
▁oysters	-12.4706
▁footsteps	-12.4713
evin	-12.4724
▁response	-12.4724
▁fleas	-12.4726
▁quieter	-12.4726
▁fits	-12.4727
▁rather	-12.4736
▁Maisy	-12.4736
▁Pretty	-12.4739
▁surfboard	-12.4743
▁licking	-12.475
▁pedaled	-12.475
▁pays	-12.4752
▁luckily	-12.4759
▁swimsuit	-12.4778
▁student	-12.4778
▁nasty	-12.4782
▁chopped	-12.4782
▁Mother	-12.4785
▁punishment	-12.4794
œPlease	-12.4797
▁driveway	-12.4806
espite	-12.4817
▁surfing	-12.482
▁Froggy	-12.483
elly	-12.4832
▁reminding	-12.4856
nder	-12.486
▁weeds	-12.4862
Take	-12.4873
▁disturbing	-12.4879
▁snowflakes	-12.4885
▁Becky	-12.4888
▁Pippin	-12.4888
▁peeled	-12.4902
round	-12.4914
▁grip	-12.4924
▁banged	-12.4927
▁Dog	-12.494
▁simply	-12.4947
▁Ashley	-12.4947
▁squeak	-12.4954
▁pad	-12.4957
▁afar	-12.4965
▁darlings	-12.4968
œOf	-12.4972
▁awoke	-12.4982
▁reassured	-12.4983
▁newfound	-12.4984
▁bracelets	-12.5012
▁symbols	-12.502
▁cuddles	-12.5022
▁robots	-12.5024
ight	-12.5025
uackers	-12.5031
▁Ana	-12.5031
▁officers	-12.5032
▁sharks	-12.5037
▁kittens	-12.5042
▁fishes	-12.5045
▁belts	-12.5047
▁sped	-12.5055
▁believing	-12.5079
▁apologised	-12.5079
▁Janey	-12.5111
▁pins	-12.5122
▁wobble	-12.5124
▁spits	-12.5126
▁tipped	-12.5127
Beep	-12.5135
▁fantastic	-12.5138
▁correctly	-12.5163
▁grandson	-12.5175
▁Fire	-12.5187
▁Excitedly	-12.5188
▁Try	-12.5201
▁Snowman	-12.5213
▁smallest	-12.522
▁flipped	-12.5224
▁talks	-12.5226
▁buzz	-12.5234
▁Amanda	-12.5236
œHey	-12.5241
▁squeaked	-12.5249
▁spies	-12.5261
▁travelling	-12.5261
Surprise	-12.5268
▁Elle	-12.5271
▁windowsill	-12.5297
▁granddaughter	-12.5297
▁Daniel	-12.5298
▁edges	-12.531
▁figures	-12.5315
oger	-12.5318
▁encouragement	-12.5319
▁hairdresser	-12.5333
▁artwork	-12.5334
▁smelling	-12.5337
▁presented	-12.5339
▁suggestion	-12.5346
▁inspired	-12.5347
▁final	-12.5358
▁Frankie	-12.5359
▁Startled	-12.5371
▁pleaded	-12.5384
▁reunited	-12.5384
let	-12.5389
▁gesture	-12.5396
▁donkey	-12.5396
▁bandages	-12.5406
▁Feeling	-12.5421
▁tasting	-12.5424
▁spills	-12.5424
▁decisions	-12.5428
▁Welcome	-12.543
▁stain	-12.5432
▁poppies	-12.5434
▁chilly	-12.5446
▁Ava	-12.5446
▁sniffing	-12.5447
▁vines	-12.5449
▁purr	-12.5457
▁masterpiece	-12.547
but	-12.5471
▁stopping	-12.5472
ero	-12.5482
▁trotted	-12.5483
▁paths	-12.5496
▁admiration	-12.5496
▁yelped	-12.5496
▁exercises	-12.5505
▁battle	-12.5508
▁Jax	-12.5521
▁Time	-12.5523
▁campfire	-12.5532
▁arranged	-12.5534
▁Bongo	-12.5546
▁discussing	-12.5549
▁braver	-12.5553
▁covering	-12.5555
▁Bounce	-12.556
▁images	-12.5569
▁worrying	-12.5573
▁address	-12.5585
▁focus	-12.5595
▁wrinkled	-12.5597
obo	-12.5601
▁ships	-12.5605
▁calmly	-12.5615
▁humming	-12.5622
▁vehicles	-12.5624
▁Pepper	-12.5624
▁delayed	-12.5626
▁planting	-12.5632
▁birdhouse	-12.5635
▁mermaid	-12.5636
▁comforting	-12.5641
▁Splash	-12.565
Alright	-12.5654
▁scarecrow	-12.5673
▁congratulated	-12.5673
▁Speedy	-12.5674
▁coach	-12.5685
▁terrified	-12.5724
▁sunscreen	-12.5724
▁Jason	-12.5725
▁refuse	-12.5725
▁travels	-12.5729
▁cowboy	-12.5739
▁steer	-12.5746
▁concert	-12.5751
▁Fight	-12.5753
▁aware	-12.5757
▁insisting	-12.5764
oomy	-12.5777
▁gears	-12.5781
Bob	-12.5786
▁lies	-12.5788
▁genie	-12.5789
▁nodding	-12.5789
▁Tessa	-12.5789
▁guest	-12.5791
▁Gus	-12.5792
▁packages	-12.5794
▁toolbox	-12.5802
▁Izzy	-12.5802
▁cheers	-12.5802
▁seashells	-12.5804
▁activity	-12.5815
▁whispering	-12.5819
▁firm	-12.5827
▁buddy	-12.5827
▁speeding	-12.5834
▁untie	-12.5839
▁lent	-12.584
▁purpose	-12.5842
▁maker	-12.5872
▁Eddie	-12.588
▁sewed	-12.5882
▁business	-12.5892
▁spooky	-12.5892
▁efforts	-12.5898
r	-12.5902
▁knots	-12.5907
▁sails	-12.5907
vroom	-12.5917
▁Flo	-12.5919
▁fins	-12.5921
▁kings	-12.5949
▁changes	-12.5951
▁suits	-12.5959
▁expert	-12.596
▁unfortunately	-12.5971
▁bitten	-12.5984
▁solving	-12.5986
▁bothering	-12.6014
▁foxes	-12.6025
▁warmly	-12.6035
▁material	-12.6048
▁S	-12.6055
▁gazing	-12.6064
▁tilted	-12.6064
▁nibbled	-12.6078
▁untied	-12.6091
▁displayed	-12.6096
▁Outside	-12.6104
▁annoyed	-12.613
▁clerk	-12.6143
▁mood	-12.6144
▁Hoot	-12.6145
▁burying	-12.6148
Get	-12.6156
▁Fortunately	-12.6157
▁dragonfly	-12.6157
▁stored	-12.6162
▁tables	-12.6169
œSee	-12.6199
▁treated	-12.62
▁tumbled	-12.6211
▁experienced	-12.6217
▁belongings	-12.6218
lthough	-12.6223
▁members	-12.6225
▁magazines	-12.6227
▁testing	-12.6237
▁customers	-12.6239
▁pupils	-12.6251
▁swollen	-12.6265
▁Bow	-12.6268
œSure	-12.6273
▁wounds	-12.632
▁opposite	-12.6333
▁chocolates	-12.6371
▁beaming	-12.6374
▁Saturday	-12.6379
▁sternly	-12.6388
▁straw	-12.6393
▁scent	-12.6395
œThe	-12.6408
▁backpacks	-12.6414
▁examining	-12.6415
▁Helen	-12.6429
▁prayers	-12.6432
▁warrior	-12.6435
▁scurrying	-12.6442
▁crowns	-12.6445
▁type	-12.6448
▁joked	-12.6459
▁Tess	-12.647
▁grandfather	-12.6471
▁tidied	-12.6484
▁scientist	-12.6491
Leave	-12.6497
▁sweaty	-12.6498
▁Seeing	-12.6502
▁characters	-12.6502
▁million	-12.6511
▁Snowball	-12.6512
▁glittering	-12.6514
▁Phil	-12.6539
▁emerged	-12.6539
▁Brian	-12.654
▁Charlotte	-12.6553
▁environment	-12.6567
▁exchange	-12.6569
▁spells	-12.6576
▁tubes	-12.6576
▁tapping	-12.6595
▁Peppa	-12.6596
▁conversation	-12.6603
▁peas	-12.6608
▁shall	-12.6623
▁meowing	-12.6625
▁orders	-12.6645
ee	-12.6664
▁except	-12.6665
▁forgiveness	-12.6665
▁rotting	-12.668
▁hunters	-12.6689
▁survive	-12.6692
▁Bobbie	-12.6694
▁tablet	-12.6698
▁inchworm	-12.67
▁un	-12.6704
▁rescuing	-12.6708
▁lessons	-12.6709
▁declared	-12.6722
▁encountered	-12.6722
▁cleared	-12.6723
▁youngest	-12.6724
▁parted	-12.6732
▁manners	-12.6745
▁permitted	-12.675
▁obeyed	-12.6753
▁films	-12.6768
▁nurses	-12.6775
▁Olivia	-12.6779
▁force	-12.679
▁Poor	-12.68
Goodnight	-12.6807
▁Elsie	-12.6807
▁Nana	-12.6808
▁attacked	-12.6808
▁shimmering	-12.6822
▁Tammy	-12.6822
▁aliens	-12.6834
the	-12.684
▁mischievous	-12.685
▁turtles	-12.6853
▁scratching	-12.6854
Dear	-12.6858
▁drift	-12.6863
▁visitors	-12.6863
▁responded	-12.6865
▁William	-12.6865
▁loops	-12.6869
▁questioned	-12.6874
▁rays	-12.6877
▁failed	-12.6879
▁thanking	-12.6883
lined	-12.6893
▁Excited	-12.6893
▁convinced	-12.6894
▁Hold	-12.6899
▁Sparkle	-12.6904
▁stroke	-12.6917
▁goats	-12.6922
▁discoveries	-12.6922
▁Okay	-12.6926
▁Spring	-12.6939
▁Shelly	-12.6941
▁beeped	-12.6946
▁hoops	-12.6956
▁Green	-12.6967
▁pandas	-12.6967
▁classmates	-12.6973
▁lipstick	-12.6974
▁Nancy	-12.698
▁Taking	-12.6981
▁nibble	-12.6989
▁flaps	-12.6993
▁labels	-12.701
en	-12.7019
▁dressing	-12.7021
▁Eric	-12.7024
▁knocking	-12.7046
▁smashed	-12.7054
Little	-12.7054
▁explains	-12.7066
in	-12.7072
▁guessing	-12.7091
udy	-12.7097
▁aisle	-12.7109
▁anticipation	-12.7112
▁purrs	-12.7126
▁wiggly	-12.7127
▁instantly	-12.7127
▁scrambled	-12.7142
œGood	-12.7146
Always	-12.7158
▁rumbling	-12.7171
▁rely	-12.7172
▁tires	-12.7172
hind	-12.7177
Bang	-12.7188
▁C	-12.72
▁swap	-12.7201
▁fin	-12.7212
▁decoration	-12.7213
▁Crabby	-12.7216
▁Terry	-12.7216
▁swaying	-12.7216
▁honking	-12.7218
▁gratitude	-12.7231
▁loses	-12.7235
▁proper	-12.7245
▁Gabby	-12.7246
what	-12.7247
▁queens	-12.7249
▁brightest	-12.725
▁slowed	-12.7256
▁seashell	-12.7258
▁doorbell	-12.726
Stay	-12.7262
▁elbow	-12.7273
▁goodies	-12.7277
▁diamonds	-12.7285
ther	-12.7291
▁Matilda	-12.7321
▁lowered	-12.7323
▁Sir	-12.7327
▁Lion	-12.7338
▁movements	-12.7339
▁sheets	-12.734
▁dripping	-12.7351
▁Stitch	-12.7351
▁list	-12.7358
ufus	-12.7366
▁laptop	-12.7377
▁argument	-12.7394
▁prickly	-12.7396
▁switched	-12.7405
▁robbers	-12.7409
▁customer	-12.741
▁observing	-12.7411
▁active	-12.7411
▁Finny	-12.7412
▁offering	-12.7418
▁badger	-12.7424
▁taped	-12.7424
▁Jean	-12.7441
▁stumble	-12.7454
▁Lina	-12.7457
▁recorder	-12.7458
▁sill	-12.7472
▁shrunk	-12.7472
▁Sasha	-12.7473
▁wealth	-12.7487
▁nuzzled	-12.7488
▁wasting	-12.7488
▁drowned	-12.7488
œWho	-12.7494
▁flips	-12.7497
▁Flora	-12.7503
▁prevented	-12.7524
▁cocoon	-12.753
▁charge	-12.7531
▁aeroplanes	-12.7541
▁spy	-12.7548
▁astronauts	-12.7572
▁designing	-12.7574
▁twists	-12.7577
▁greet	-12.7578
▁jars	-12.758
▁Foxy	-12.7581
▁bond	-12.7595
▁Gary	-12.7595
œMaybe	-12.7606
▁seagulls	-12.7607
▁beautifully	-12.7618
▁announced	-12.7626
▁stethoscope	-12.7639
▁responsibility	-12.7642
Mr	-12.7645
osa	-12.7653
▁rowed	-12.7662
▁crops	-12.7667
▁Ever	-12.7674
▁zooms	-12.7689
▁swayed	-12.7689
▁stamped	-12.7711
▁germs	-12.7711
▁routine	-12.7718
▁tummies	-12.772
▁Cara	-12.772
▁steering	-12.7721
▁buckled	-12.7726
?!"	-12.7728
ebecca	-12.7735
▁Peggy	-12.7751
▁baskets	-12.7758
▁manager	-12.7767
▁gap	-12.7768
▁dodged	-12.7768
▁smelt	-12.7782
▁earned	-12.7785
▁momma	-12.7788
▁Amber	-12.7799
▁Eliza	-12.7799
▁closing	-12.7814
▁unpacking	-12.782
▁peck	-12.7829
▁visitor	-12.7832
▁signing	-12.7835
▁munched	-12.7846
▁beaver	-12.7847
▁beating	-12.7866
▁healthier	-12.7877
▁syrup	-12.7877
▁bouquet	-12.7879
ain	-12.7885
▁Say	-12.7886
▁cracks	-12.7893
▁matey	-12.7895
▁poses	-12.79
▁knives	-12.7909
▁Dino	-12.791
▁teachers	-12.7922
▁attack	-12.7924
▁sweep	-12.7924
▁Nora	-12.7926
▁expecting	-12.7927
▁Bo	-12.7933
▁Penelope	-12.7941
▁freed	-12.7944
▁tidying	-12.7946
▁Tyler	-12.7958
▁awful	-12.7961
▁killed	-12.7974
▁Paula	-12.7975
▁deed	-12.7975
▁statues	-12.7979
▁novels	-12.7983
▁paddling	-12.7989
▁gasp	-12.799
▁Jilly	-12.8004
▁Liam	-12.8005
iley	-12.8006
▁cupcake	-12.8008
▁cubs	-12.8017
▁pro	-12.8021
▁supplied	-12.8022
▁generosity	-12.8022
▁exploded	-12.8022
▁checkout	-12.8023
▁whoever	-12.8024
five	-12.8043
▁languages	-12.8047
All	-12.8048
▁chatted	-12.8054
▁hike	-12.8055
▁scolds	-12.8055
▁flashed	-12.8057
▁insist	-12.8071
▁clicked	-12.8072
▁winding	-12.8072
Arrr	-12.8073
▁hardest	-12.8079
▁ramp	-12.808
▁rains	-12.8082
▁beehive	-12.8089
▁traded	-12.8094
▁crawls	-12.8097
▁dangers	-12.8112
▁ghosts	-12.8131
▁shines	-12.8132
▁Mona	-12.8135
▁mosquitoes	-12.8135
▁shorts	-12.8147
▁reminds	-12.8154
▁container	-12.8155
▁rats	-12.8166
▁icing	-12.8168
▁dears	-12.8177
▁bathing	-12.8188
▁floats	-12.8203
▁honesty	-12.8206
uickly	-12.8218
▁Mamma	-12.8218
▁applause	-12.8234
▁increasing	-12.8236
▁flashing	-12.8237
ccidents	-12.8242
▁troubles	-12.8247
▁Mo	-12.8247
Someone	-12.8273
▁opinions	-12.8293
▁member	-12.8299
▁telescope	-12.83
▁carries	-12.83
▁Liza	-12.8301
▁snaps	-12.8302
▁burnt	-12.8304
▁snatch	-12.831
▁wade	-12.8311
▁kit	-12.8315
▁chip	-12.8315
▁overhead	-12.8317
▁stretches	-12.8317
▁sadder	-12.8317
▁chipmunk	-12.832
▁bluebird	-12.8337
▁destroying	-12.8338
▁bothered	-12.8343
▁surprising	-12.835
▁hunting	-12.8353
▁scooters	-12.8359
▁suggest	-12.8369
▁Barry	-12.8383
▁Mila	-12.8384
▁shorter	-12.8384
▁inches	-12.8385
▁Trust	-12.8394
▁combed	-12.8394
▁Bad	-12.8395
▁Immediately	-12.84
▁blown	-12.8404
▁plugged	-12.8417
▁providing	-12.8434
we	-12.8436
▁Bang	-12.8449
▁Steven	-12.8459
▁Bonnie	-12.8468
▁Wooly	-12.8468
▁veggies	-12.8472
▁checking	-12.8482
▁Isn	-12.8484
udolph	-12.8484
▁defeated	-12.8485
▁tearing	-12.8491
▁drag	-12.8501
▁Gracie	-12.8502
▁wildflowers	-12.8504
▁weapons	-12.8511
▁glimmering	-12.8518
▁instrument	-12.8524
▁Belle	-12.8535
▁grumbled	-12.8536
▁snug	-12.8552
▁glided	-12.8552
▁self	-12.8552
▁flip	-12.8558
▁wiser	-12.8571
▁petting	-12.8578
▁court	-12.8586
▁sprinkle	-12.8591
ack	-12.8605
▁returning	-12.8614
▁hood	-12.8626
▁seals	-12.8635
▁picnics	-12.864
Boys	-12.865
▁faint	-12.8653
▁hotter	-12.8655
▁collapsed	-12.8655
Too	-12.8659
▁risk	-12.8661
▁confidence	-12.8672
▁beast	-12.8677
▁Bert	-12.8689
▁applauding	-12.8692
▁trusting	-12.8702
▁Another	-12.8707
œOk	-12.8708
▁serving	-12.8724
▁choo	-12.8732
▁dollar	-12.8732
▁Duck	-12.8733
▁fascinating	-12.8741
▁salon	-12.8741
▁born	-12.8741
▁crystals	-12.8763
▁example	-12.8764
œBe	-12.8776
▁bounces	-12.8792
▁attitude	-12.8793
▁conductor	-12.8793
▁experiences	-12.8795
▁scrub	-12.88
▁swimmer	-12.8801
▁bits	-12.8806
▁extraordinary	-12.8811
▁tuck	-12.8816
▁breaths	-12.882
▁Annabelle	-12.8829
▁Oliver	-12.8829
▁strips	-12.8846
▁Lenny	-12.8864
Achoo	-12.8865
▁sprang	-12.8881
▁peeped	-12.8881
▁mommies	-12.8881
▁cheated	-12.8882
▁squished	-12.8899
▁Nate	-12.8899
▁twenty	-12.8916
▁flowing	-12.8917
▁minds	-12.8927
▁Captain	-12.8935
▁whistles	-12.8952
▁sway	-12.8967
▁realizes	-12.897
▁Show	-12.8972
▁singers	-12.8973
▁seas	-12.8992
▁shoo	-12.9003
▁dryer	-12.9008
▁erase	-12.9039
▁Melissa	-12.9041
▁understands	-12.9042
▁upside	-12.9047
▁longest	-12.9051
oo	-12.9058
▁natural	-12.9058
▁Twinkle	-12.9068
▁umbrellas	-12.9074
▁tin	-12.9081
▁plug	-12.9093
▁papa	-12.9094
▁Carla	-12.9112
▁thorn	-12.9122
▁annoying	-12.913
▁Never	-12.9132
▁Sparkles	-12.9137
▁astronaut	-12.914
▁puck	-12.9146
▁conquered	-12.9149
▁tests	-12.9154
▁expression	-12.9157
▁checks	-12.9158
▁compete	-12.9165
▁behaviour	-12.9166
▁passes	-12.9167
▁cheat	-12.9167
▁awhile	-12.917
▁curl	-12.9175
▁cowboys	-12.9182
▁imaginary	-12.9184
one	-12.9201
▁munching	-12.9203
▁bride	-12.9229
▁exploration	-12.9231
▁melody	-12.9239
▁raising	-12.9239
▁clearly	-12.9244
Nice	-12.9247
▁target	-12.925
▁pops	-12.9252
▁meows	-12.9254
▁Midnight	-12.9258
▁Fairy	-12.9259
▁sirens	-12.9274
▁inseparable	-12.9275
▁countries	-12.9275
▁Andrew	-12.9276
▁thicker	-12.9277
▁Willy	-12.9278
▁common	-12.9294
Choo	-12.9302
▁Birdie	-12.9315
▁moat	-12.9323
▁Prince	-12.9323
▁ability	-12.9331
▁stroll	-12.9339
▁convince	-12.9348
▁trigger	-12.9356
Sally	-12.9358
▁sweaters	-12.9362
less	-12.9362
▁enemies	-12.9367
▁cheaper	-12.9368
▁washes	-12.9369
▁deserved	-12.9372
▁tips	-12.9386
shaped	-12.9395
▁types	-12.9395
▁swirl	-12.9396
▁traveling	-12.9397
▁earn	-12.9409
Billy	-12.9413
▁depend	-12.9416
▁chatting	-12.9423
▁robin	-12.9434
▁burns	-12.944
▁quacking	-12.9445
▁cells	-12.9453
▁Tiger	-12.9455
▁discouraged	-12.946
▁April	-12.9461
▁chin	-12.9465
▁forgiven	-12.9471
▁otters	-12.948
▁aboard	-12.9482
▁relaxing	-12.9489
▁Patrick	-12.9498
▁enjoyable	-12.9498
▁flock	-12.9515
▁opportunity	-12.9516
▁Leah	-12.9517
▁glittered	-12.952
Put	-12.9527
▁reappeared	-12.9535
▁swirls	-12.9542
▁dock	-12.9563
▁Yum	-12.9568
▁sometime	-12.9574
▁adds	-12.9575
▁soapy	-12.9577
▁odd	-12.9586
▁bubbly	-12.9591
▁distracted	-12.9592
▁patches	-12.9592
▁embarrass	-12.9609
▁tortoise	-12.961
▁wriggled	-12.9611
▁Chickie	-12.9611
▁messes	-12.9614
▁models	-12.9633
▁puff	-12.964
▁tweet	-12.9642
▁outfits	-12.9644
▁details	-12.9646
▁Martin	-12.9649
▁squeaky	-12.9649
▁sprays	-12.9652
▁coolest	-12.9653
▁Boo	-12.9656
▁beam	-12.968
▁miracle	-12.9681
▁moo	-12.9686
▁cheerfully	-12.9691
▁certain	-12.9705
▁tickling	-12.9705
▁Joan	-12.9724
▁cafe	-12.9725
▁Ginger	-12.9725
▁sincere	-12.9732
▁Sky	-12.9744
▁crowded	-12.9747
▁weighing	-12.9751
▁vibrant	-12.9763
▁moonlight	-12.9763
▁Jasmine	-12.9763
▁Hootie	-12.9763
▁hangers	-12.9768
▁microwave	-12.9782
▁Fifi	-12.9782
▁freezing	-12.9782
▁skies	-12.9801
▁Again	-12.9805
▁unable	-12.9821
▁sipped	-12.984
▁squinted	-12.984
▁Sun	-12.9847
▁mattered	-12.9857
▁Through	-12.986
▁Nice	-12.987
Amy	-12.987
▁meatballs	-12.9882
▁coughed	-12.9882
▁explaining	-12.9888
▁Monkey	-12.9897
▁marking	-12.9907
▁locks	-12.9908
Fluffy	-12.9909
▁excite	-12.9917
▁calmer	-12.992
▁Jody	-12.9938
▁satisfaction	-12.9957
▁sandy	-12.9972
▁grasshopper	-12.9972
▁races	-12.9976
▁hisses	-12.9979
▁surely	-12.9997
▁formed	-12.9998
▁pressing	-13.0003
▁angrily	-13.0016
▁teams	-13.0016
▁spilling	-13.0019
▁soundly	-13.0023
▁Johny	-13.0024
▁local	-13.0032
▁blushed	-13.0036
▁Whoever	-13.004
▁snowy	-13.0046
▁envelopes	-13.0049
▁leap	-13.0054
elvet	-13.0055
Molly	-13.0067
▁burger	-13.0072
▁hummed	-13.0075
▁whined	-13.0076
▁shattered	-13.0095
Hold	-13.011
▁nests	-13.0111
▁compliment	-13.0112
▁blank	-13.0115
▁repairman	-13.0115
avi	-13.0116
▁Gray	-13.0116
▁pills	-13.0118
▁Joanna	-13.0135
▁finishes	-13.0136
▁necks	-13.0148
▁scattering	-13.016
▁blonde	-13.0163
▁answering	-13.0167
▁shrug	-13.0171
▁shrank	-13.0175
▁smoking	-13.0175
▁weighs	-13.0186
▁treasured	-13.0197
Bun	-13.0207
▁chill	-13.0216
▁successfully	-13.022
ying	-13.0222
▁stuffing	-13.0226
▁shallow	-13.0232
▁grace	-13.0235
▁scold	-13.0252
▁newspapers	-13.0255
▁cheating	-13.0256
▁Me	-13.0262
▁height	-13.0264
beep	-13.0288
▁unfamiliar	-13.0296
▁joyfully	-13.0296
▁fires	-13.0298
▁talents	-13.0313
▁stall	-13.0314
▁minded	-13.0315
▁companion	-13.0334
▁clue	-13.0335
▁uniforms	-13.0383
all	-13.0386
Once	-13.0392
▁smartest	-13.04
▁leaking	-13.0403
ia	-13.0415
▁unfair	-13.0418
▁apology	-13.0418
▁prizes	-13.0431
▁forgives	-13.0433
▁welcoming	-13.0438
▁scenery	-13.0438
▁tempted	-13.0438
▁croaked	-13.0439
▁crocodiles	-13.0457
▁Playing	-13.0458
iolet	-13.0459
▁fireflies	-13.0459
▁sandpit	-13.0459
▁sturdy	-13.0459
▁practised	-13.0459
▁noticing	-13.048
▁thieves	-13.048
▁slithered	-13.048
andy	-13.0481
▁yawning	-13.0484
▁whales	-13.0494
▁lookout	-13.0496
▁engines	-13.0498
▁sweeter	-13.0506
▁situations	-13.0508
▁pinching	-13.0508
▁doorstep	-13.0521
▁bomb	-13.0544
œYay	-13.0545
▁tentacles	-13.0547
▁airplanes	-13.0549
▁Choo	-13.0556
▁bulbs	-13.0573
▁gasps	-13.0581
▁Jennie	-13.0584
▁Candy	-13.0587
▁rewarding	-13.0594
▁tugging	-13.0604
▁pounced	-13.0605
▁haircuts	-13.0623
▁positive	-13.0625
▁pantry	-13.0625
▁BunBun	-13.0625
▁groaned	-13.0625
▁Allie	-13.0626
▁glittery	-13.0626
▁icky	-13.0635
▁forts	-13.0642
▁Ms	-13.0656
So	-13.0665
ibbit	-13.0667
▁overwhelmed	-13.0667
▁swallow	-13.0687
▁Cathy	-13.0689
▁runner	-13.0689
▁heaven	-13.0698
▁Thankfully	-13.0709
▁teapot	-13.073
▁Josie	-13.0752
▁sneezes	-13.0769
▁rows	-13.0775
▁demanding	-13.0775
▁becomes	-13.0785
▁fade	-13.0794
▁amused	-13.0796
▁bends	-13.0803
iggy	-13.081
▁hesitation	-13.0815
▁Make	-13.0818
▁snorted	-13.0837
▁chopping	-13.0858
▁burgers	-13.0861
▁Over	-13.087
▁protection	-13.088
▁intently	-13.0923
▁binoculars	-13.0926
▁scares	-13.0933
▁spare	-13.0944
▁enemy	-13.0944
▁underwater	-13.0944
▁certainly	-13.0945
▁Claus	-13.0965
▁stew	-13.0966
▁clutch	-13.0966
▁Avery	-13.0966
▁Mumma	-13.0967
▁bicycles	-13.0985
▁defeat	-13.0987
▁bubbling	-13.0988
▁strolled	-13.0989
▁beetles	-13.0992
▁tunes	-13.0996
Anytime	-13.1003
▁pepperoni	-13.1009
▁goodness	-13.1013
▁sweetly	-13.1015
▁traps	-13.1019
Ahoy	-13.1031
▁auntie	-13.1031
▁Elephant	-13.1037
▁electricity	-13.1053
▁express	-13.1053
▁hopscotch	-13.1053
▁loyalty	-13.1053
ered	-13.1055
▁month	-13.1056
▁rowing	-13.1059
▁landing	-13.106
▁mugs	-13.1061
▁cherish	-13.1068
Sarah	-13.107
▁energetic	-13.1075
▁swimsuits	-13.1082
▁visits	-13.1094
▁Moo	-13.1096
▁cautious	-13.1097
▁playdate	-13.1101
▁Mine	-13.1108
Soon	-13.1113
▁Marley	-13.1119
▁disappointment	-13.1119
▁raking	-13.1119
▁slapping	-13.1119
▁teamwork	-13.1119
▁Tear	-13.1119
▁Gemma	-13.1119
▁scene	-13.1122
▁bruises	-13.1127
▁guarding	-13.1133
▁bundle	-13.1137
▁Carol	-13.1141
▁lump	-13.1144
An	-13.1151
at	-13.1154
▁thump	-13.1164
▁Fish	-13.1167
▁Life	-13.1169
▁chews	-13.1175
▁intelligence	-13.1185
▁Felix	-13.1185
▁transformed	-13.1185
▁whoosh	-13.1185
▁sprout	-13.1187
▁hundreds	-13.1187
▁communicate	-13.1206
▁mysteries	-13.1207
▁watermelon	-13.1211
▁glance	-13.1212
▁rewards	-13.1228
▁ketchup	-13.1229
▁snapping	-13.123
▁marveled	-13.123
▁pipes	-13.123
▁Magic	-13.1244
▁Wilbur	-13.1252
▁napped	-13.1253
▁supporting	-13.1263
▁rips	-13.1264
Open	-13.1268
▁puppets	-13.1274
▁differently	-13.1276
▁injured	-13.1296
led	-13.1308
▁la	-13.1311
▁B	-13.1312
▁Jeremy	-13.1319
▁Oscar	-13.132
▁miller	-13.1322
▁Does	-13.1329
▁jobs	-13.133
▁Toto	-13.1342
▁spoiling	-13.1348
▁pouch	-13.1364
▁riverbank	-13.1364
▁Bruce	-13.1364
▁THE	-13.1364
▁JoJo	-13.1364
▁magnif	-13.1365
▁Ouch	-13.1366
▁recess	-13.1386
▁benches	-13.1388
▁nightmares	-13.1393
Joe	-13.1403
œHow	-13.1406
ita	-13.1412
▁section	-13.1414
▁farmers	-13.142
▁ouch	-13.1426
▁textures	-13.1428
▁Ash	-13.1439
▁judges	-13.1454
usty	-13.1454
▁whimpered	-13.1455
▁digs	-13.1457
▁ankle	-13.1459
Abracadabra	-13.147
▁charm	-13.1475
▁Sunshine	-13.1478
▁heels	-13.1478
▁trusty	-13.1482
▁Jodie	-13.15
▁Pinchy	-13.15
▁spears	-13.1503
▁luckiest	-13.1523
▁Sandra	-13.1523
▁Man	-13.1536
▁toothbrush	-13.1546
▁keyhole	-13.1546
▁mindful	-13.1568
▁choosing	-13.1569
▁temptation	-13.1572
▁frustration	-13.1573
▁styles	-13.1575
▁shyly	-13.1579
▁Tree	-13.158
▁souvenir	-13.1599
▁pokes	-13.1605
▁worst	-13.1615
▁stepping	-13.1615
In	-13.1616
▁Oink	-13.162
▁peacock	-13.1621
▁munch	-13.1631
atty	-13.1635
▁alongside	-13.1639
▁Hopper	-13.1639
▁Beep	-13.1647
▁bowing	-13.1653
▁squeezes	-13.1653
▁cooperate	-13.166
▁canvas	-13.1661
▁bamboo	-13.1661
▁foggy	-13.1661
▁Bess	-13.1666
▁ballerina	-13.1667
▁Wait	-13.1683
▁quilt	-13.1691
▁bushy	-13.1696
▁seasons	-13.1701
▁fishy	-13.1705
▁wiggling	-13.1708
▁pilots	-13.1714
▁whine	-13.1715
▁leans	-13.1715
▁tick	-13.1731
▁pedaling	-13.1736
▁fetched	-13.1737
First	-13.175
Jimmy	-13.175
▁rubbish	-13.1755
▁disappearing	-13.1764
▁lumberjack	-13.1778
▁embarrassing	-13.1779
▁playhouse	-13.1782
▁astonished	-13.1802
▁improving	-13.1802
▁Patches	-13.1803
▁cops	-13.1807
▁melons	-13.1809
▁Lot	-13.1811
▁nicest	-13.1811
Honey	-13.1821
colored	-13.1821
▁reversing	-13.1825
▁Colin	-13.1826
▁levers	-13.1833
▁tickles	-13.1841
▁Stanley	-13.1849
▁Jonathan	-13.1849
▁boiling	-13.185
▁mooed	-13.185
▁invites	-13.1851
▁warmed	-13.1852
▁Day	-13.1858
▁messages	-13.1861
▁birdy	-13.1867
llowing	-13.1868
▁unwrapped	-13.1873
▁craft	-13.188
▁thunderstorm	-13.1881
▁crickets	-13.1881
▁blades	-13.1883
▁cuddling	-13.1896
▁softened	-13.1897
▁revealing	-13.19
▁lifeguard	-13.1904
▁servant	-13.1905
Deal	-13.1916
▁hissing	-13.1921
▁cherished	-13.1921
▁Mel	-13.1928
▁cracker	-13.1931
enny	-13.1936
Which	-13.194
œWelcome	-13.1946
on	-13.1951
▁popping	-13.1968
▁dent	-13.1975
▁writer	-13.1979
▁dashed	-13.1992
▁kneeling	-13.1996
▁jets	-13.2006
Hurry	-13.2012
Some	-13.2012
▁boil	-13.2023
▁admit	-13.204
▁Mighty	-13.2041
▁coughing	-13.2044
▁Lucas	-13.2053
▁realise	-13.2063
▁occasion	-13.2075
▁camel	-13.2082
▁goodbyes	-13.2091
▁shrugs	-13.2091
ory	-13.21
▁skirts	-13.2106
▁rebuild	-13.2136
▁roast	-13.2136
▁lullaby	-13.2137
▁drying	-13.2144
am	-13.215
▁centre	-13.2162
For	-13.2181
▁ding	-13.2181
Danger	-13.2182
▁circled	-13.219
▁Hank	-13.2211
▁Biggie	-13.2211
▁Snow	-13.2215
▁Share	-13.2216
▁Ant	-13.2228
▁hum	-13.2233
▁Nurse	-13.2234
▁Bruno	-13.2236
▁woodcutter	-13.2244
▁nudge	-13.2247
Jill	-13.2256
ick	-13.2259
▁Of	-13.2263
▁dolly	-13.2275
▁Girl	-13.2282
▁wrench	-13.2284
▁hatched	-13.2286
▁caterpillars	-13.2289
▁Maisie	-13.2309
▁Hurry	-13.2313
▁Pink	-13.2314
Benny	-13.2331
▁lush	-13.2334
▁Brad	-13.2334
▁Minnie	-13.2334
▁Freya	-13.2334
▁scoops	-13.2335
œThere	-13.2343
▁cages	-13.2355
▁Ice	-13.2358
▁compared	-13.2359
▁weaker	-13.236
▁Could	-13.2366
▁repeats	-13.237
▁trading	-13.2384
▁moons	-13.2392
▁cousins	-13.2395
▁facing	-13.2409
D	-13.2411
that	-13.2434
▁Tomorrow	-13.2441
▁sooner	-13.2451
▁--	-13.2458
this	-13.2461
▁nearer	-13.2468
▁wheelbarrow	-13.2469
▁repairing	-13.2471
▁computers	-13.248
▁hooves	-13.2484
▁Carefully	-13.2484
▁Chirp	-13.2491
▁loudest	-13.2497
Teddy	-13.2506
▁lava	-13.2509
▁poisonous	-13.2509
▁''	-13.251
▁lunchtime	-13.251
▁ma	-13.2511
▁Math	-13.2516
▁aloud	-13.252
▁facts	-13.2526
▁sensation	-13.2535
▁springtime	-13.2535
▁thumbs	-13.2539
Jane	-13.2557
▁townspeople	-13.256
▁banging	-13.2567
▁speaker	-13.2575
▁foam	-13.2583
▁angrier	-13.2585
▁Smoke	-13.2586
▁achievement	-13.2599
▁soda	-13.2609
▁pecks	-13.2609
▁hollow	-13.261
▁preschool	-13.2611
▁allowance	-13.2611
▁recommendation	-13.2625
▁daily	-13.2637
▁acts	-13.2641
▁warmest	-13.2645
▁blade	-13.2651
▁juiciest	-13.2662
▁zips	-13.2667
▁bumping	-13.2668
▁knit	-13.2673
▁experiment	-13.2676
▁dial	-13.2677
▁seatbelt	-13.2677
▁tale	-13.2678
▁connect	-13.2686
Does	-13.2687
▁untangle	-13.2687
▁Deal	-13.2692
al	-13.2698
▁calming	-13.2699
▁current	-13.2702
œO	-13.2705
▁honks	-13.2711
▁incredibly	-13.2714
▁shinier	-13.2714
▁copied	-13.2714
▁mayor	-13.2714
▁sobbing	-13.2714
▁ingredient	-13.2729
▁magically	-13.2736
▁deeply	-13.2738
▁wolves	-13.274
▁glared	-13.274
▁concerned	-13.274
▁otherwise	-13.274
▁guardian	-13.2754
▁approach	-13.2763
▁Chuck	-13.2765
▁guards	-13.277
▁clip	-13.2782
▁flow	-13.2789
▁continuing	-13.2791
▁process	-13.2791
▁throne	-13.2791
▁persistence	-13.2791
▁larger	-13.2793
▁flooded	-13.2799
▁pose	-13.2807
Never	-13.2815
E	-13.2825
▁cooled	-13.2826
▁boards	-13.2828
▁goggles	-13.2844
▁Buggy	-13.2844
▁hips	-13.2848
▁footprints	-13.285
▁storms	-13.2865
▁gratefully	-13.2867
▁spiky	-13.287
▁dozed	-13.287
œWould	-13.2871
▁peak	-13.2875
▁kissing	-13.2878
▁quarreled	-13.2882
obin	-13.2895
▁quest	-13.2896
▁waking	-13.2896
▁swapped	-13.2896
▁till	-13.2897
▁blamed	-13.2897
▁alley	-13.2919
▁faith	-13.2922
▁silently	-13.2923
▁structures	-13.2941
i	-13.2944
▁accomplish	-13.2948
▁macaroni	-13.2949
▁challenges	-13.295
His	-13.295
Baa	-13.2951
▁Skip	-13.2951
▁motorcycles	-13.2954
▁Things	-13.2956
▁Other	-13.2966
▁claw	-13.2969
▁Ami	-13.2972
▁sleds	-13.2973
▁stains	-13.2975
▁whipped	-13.2975
▁Buster	-13.2975
▁gates	-13.2982
▁strokes	-13.2983
▁attempts	-13.2984
▁aroma	-13.2991
▁racer	-13.2997
▁harmony	-13.3002
▁heavily	-13.3002
▁cooed	-13.3002
▁Jon	-13.3008
▁kangaroos	-13.301
▁character	-13.3019
œThanks	-13.3022
▁Super	-13.3028
▁disaster	-13.3028
▁necessary	-13.3028
▁bellies	-13.3028
▁vinegar	-13.3029
▁Bouncy	-13.3029
▁fooled	-13.3029
▁Angel	-13.303
▁trusts	-13.303
▁rinse	-13.3045
▁possibilities	-13.3055
▁roamed	-13.3056
▁minding	-13.3066
▁coop	-13.3066
▁lever	-13.3072
▁doggie	-13.3073
▁sets	-13.3079
▁Sweet	-13.308
▁shave	-13.308
▁floppy	-13.3082
▁Ned	-13.3082
▁oldest	-13.3108
▁desperate	-13.3108
▁Jennifer	-13.3109
▁Sean	-13.3109
▁Moon	-13.3112
▁instincts	-13.3113
▁globe	-13.3124
▁knobs	-13.3126
▁passenger	-13.3127
▁huddle	-13.3129
▁pounds	-13.313
▁soothing	-13.3135
▁fries	-13.3135
▁wax	-13.3135
▁allergic	-13.3135
▁pleasant	-13.3162
▁flashes	-13.3162
▁Thumper	-13.3162
▁bats	-13.3166
ainbow	-13.3181
Grandpa	-13.3188
▁completing	-13.3189
▁property	-13.3189
œAre	-13.3192
▁tow	-13.3195
▁robe	-13.321
▁builder	-13.3213
f	-13.3214
▁realizing	-13.3216
▁undone	-13.3216
▁Missy	-13.322
▁army	-13.3228
▁Gwen	-13.3244
▁purring	-13.3246
▁brains	-13.3267
▁Wisdom	-13.3279
▁meadows	-13.3282
▁kayaking	-13.3282
▁stacking	-13.3285
▁condition	-13.3289
▁rhino	-13.329
▁Summer	-13.3296
▁mesmerised	-13.3298
▁absolutely	-13.3298
▁theatre	-13.3298
▁Mint	-13.3304
▁stomp	-13.3316
▁Peep	-13.3319
▁bathed	-13.3323
▁snoring	-13.3326
▁Nicky	-13.3327
▁boiled	-13.3327
▁seriously	-13.3332
▁headache	-13.3344
▁compass	-13.3353
▁gummy	-13.3353
▁desperately	-13.3353
▁Doctor	-13.3356
shirt	-13.337
▁wrapper	-13.3373
▁fashionable	-13.3381
▁plopp	-13.3401
▁capture	-13.3407
▁shh	-13.341
▁groups	-13.3411
Only	-13.3423
▁ladybird	-13.3427
▁tantrum	-13.3428
▁movement	-13.343
▁costs	-13.343
yle	-13.3453
Hmm	-13.3453
▁pout	-13.3455
▁Sleep	-13.3455
▁speaks	-13.3458
ped	-13.3463
▁Alan	-13.3464
▁ticking	-13.3465
▁rinsed	-13.3465
▁shoots	-13.3469
Isn	-13.347
▁quacks	-13.347
▁Muffin	-13.3485
▁level	-13.3485
▁bait	-13.3492
▁invitations	-13.3497
▁booth	-13.3513
▁slam	-13.3519
▁Libby	-13.3519
▁piled	-13.3527
▁fond	-13.3529
▁Sit	-13.353
▁stroller	-13.3548
▁ill	-13.355
▁plumber	-13.3576
▁dumb	-13.3576
▁sniffled	-13.3576
▁Doug	-13.3576
▁indoors	-13.3582
▁sacks	-13.3582
œA	-13.3587
▁pump	-13.3593
▁cutest	-13.3594
Try	-13.3604
▁cupboards	-13.3619
▁medals	-13.3628
▁nibbling	-13.3632
▁tempting	-13.3632
▁gulped	-13.3632
▁learner	-13.3637
▁Which	-13.3637
▁Matthew	-13.3661
▁differences	-13.3662
Moo	-13.3666
▁o	-13.3668
▁Woof	-13.3668
▁lizards	-13.3677
▁compromise	-13.3687
▁Jimbo	-13.3689
▁squirted	-13.3689
▁challenged	-13.3697
▁magnificent	-13.3717
▁glistening	-13.3717
▁Bambi	-13.3717
▁scratchy	-13.3719
▁blooms	-13.3722
▁Years	-13.3725
or	-13.3733
▁sneaks	-13.3743
▁carton	-13.3746
ock	-13.3755
▁shoelaces	-13.3763
▁riddle	-13.3769
▁prank	-13.3769
▁drip	-13.3771
▁Peanut	-13.3771
▁savor	-13.3774
▁hovering	-13.3775
▁charged	-13.3777
▁softest	-13.3782
▁floors	-13.3798
▁rack	-13.38
▁security	-13.3803
▁lasted	-13.3825
▁CD	-13.3827
▁biscuit	-13.3827
▁rotted	-13.3832
▁Turn	-13.3832
▁Books	-13.3848
▁occasions	-13.3848
Bless	-13.3851
▁hatch	-13.3859
▁tiring	-13.3861
▁Mousy	-13.3861
▁musicians	-13.3862
▁depths	-13.3864
▁Ha	-13.3884
Fire	-13.3886
▁chili	-13.389
▁confusion	-13.389
▁Billie	-13.389
▁Otherwise	-13.3891
of	-13.3891
▁caution	-13.3918
▁blur	-13.3919
▁uncovered	-13.3919
▁Piggy	-13.3919
▁steered	-13.3921
▁disobeyed	-13.3949
▁Al	-13.3949
▁confidently	-13.395
▁meaning	-13.3955
▁rocky	-13.396
▁widely	-13.3964
cat	-13.3967
▁feathered	-13.3972
▁sculpture	-13.3974
▁clubs	-13.3974
▁Gogo	-13.398
▁Pick	-13.3985
▁hangs	-13.4
▁borrowing	-13.4001
▁groom	-13.4005
▁bolt	-13.4033
▁shooed	-13.4038
▁retrieve	-13.4041
▁keen	-13.4066
▁date	-13.4066
Tweet	-13.4067
she	-13.4072
▁laces	-13.4074
▁smoothly	-13.4078
he	-13.4085
▁Tell	-13.4091
▁hooks	-13.4092
▁hundred	-13.4092
▁introducing	-13.4095
▁restoring	-13.4095
▁wanna	-13.4095
▁peacefulness	-13.4095
▁desks	-13.4096
▁Wolf	-13.4096
▁Brother	-13.4099
▁performers	-13.4108
▁springing	-13.4113
▁deciding	-13.4125
▁Flutter	-13.4125
▁whiskers	-13.4128
▁greatest	-13.4137
▁beeping	-13.4141
▁sinking	-13.4146
▁woken	-13.4148
▁creak	-13.4148
▁progress	-13.4153
▁sleigh	-13.4155
Nothing	-13.4156
▁yummiest	-13.4157
fived	-13.4164
▁ordering	-13.4173
▁kinder	-13.4177
▁Dee	-13.418
▁imaginations	-13.4182
▁department	-13.4184
▁Heidi	-13.4185
▁Faith	-13.4185
▁Father	-13.4186
▁loads	-13.4207
▁sparrow	-13.4211
▁courageous	-13.4214
▁science	-13.4214
▁stinky	-13.4215
▁Copper	-13.4215
▁Willie	-13.4215
▁crafts	-13.4233
▁earrings	-13.4234
▁Bea	-13.424
▁appearance	-13.4242
▁Noah	-13.4245
▁leaped	-13.4246
▁automobiles	-13.4266
▁stings	-13.4273
▁Greta	-13.4275
▁guesses	-13.4275
▁Albert	-13.4275
▁Instantly	-13.4305
▁hovered	-13.4305
▁lunchbox	-13.4305
sing	-13.4305
▁dump	-13.4331
▁lilies	-13.4335
▁snuggling	-13.4335
▁birdseed	-13.4335
▁niece	-13.4335
▁softness	-13.4336
▁Though	-13.4336
Playing	-13.4337
▁obediently	-13.4342
▁rightful	-13.4358
▁rails	-13.4363
▁gorgeous	-13.4365
▁halfway	-13.4366
▁caw	-13.4366
▁flavour	-13.4366
▁ostriches	-13.4366
▁soul	-13.4367
enthusiastically	-13.4382
▁Clare	-13.4396
▁Johnnie	-13.4397
œMummy	-13.4397
▁Carly	-13.4398
▁regularly	-13.4403
▁Old	-13.4414
▁whines	-13.4416
▁sweat	-13.4424
▁hamster	-13.4425
▁galloped	-13.4427
▁Greg	-13.4427
▁comets	-13.4434
▁praise	-13.4455
▁halves	-13.4457
▁babysitter	-13.4457
▁Stan	-13.4463
▁ages	-13.4471
▁dusted	-13.4475
▁Mick	-13.4494
Ooh	-13.4497
▁baa	-13.4503
▁enclosure	-13.4515
▁pace	-13.4519
▁peels	-13.4519
▁scrunched	-13.455
▁Ostrich	-13.455
▁hunger	-13.4578
▁route	-13.458
▁cinema	-13.4581
▁dripped	-13.4581
▁crushed	-13.4581
▁pecking	-13.4583
▁proved	-13.4585
▁pizzas	-13.4605
▁platform	-13.4612
▁shaky	-13.4612
▁Carrie	-13.4612
▁mushy	-13.4612
▁rider	-13.4619
▁rods	-13.4619
aven	-13.4625
▁thrill	-13.4641
▁horrible	-13.4643
▁scrubbing	-13.4643
▁carefree	-13.4645
▁Sh	-13.4672
▁Caroline	-13.4675
like	-13.4677
▁grandkids	-13.4677
▁gladly	-13.4701
▁gooey	-13.4706
Guess	-13.4709
▁winners	-13.4732
▁unload	-13.4737
▁risky	-13.4738
▁mashed	-13.4738
▁trailer	-13.4739
▁L	-13.4751
œWill	-13.4752
▁state	-13.4769
▁pounding	-13.477
▁petal	-13.4778
▁Spark	-13.4791
▁doves	-13.4793
▁shimmered	-13.4801
▁Olly	-13.4802
▁brakes	-13.4802
▁Friend	-13.4807
œGo	-13.481
▁whe	-13.4818
▁Paws	-13.4827
▁crouche	-13.4827
▁Was	-13.4828
▁narrow	-13.4831
▁calf	-13.4833
▁gradually	-13.4833
▁pollen	-13.4833
▁actors	-13.4837
clock	-13.4848
▁hippos	-13.485
to	-13.4865
▁bud	-13.4869
▁zookeepers	-13.4873
▁organised	-13.4897
▁sweetness	-13.4898
▁nets	-13.4899
▁Boy	-13.4903
▁Ellen	-13.4903
▁mats	-13.4906
▁Want	-13.4908
▁displaying	-13.491
▁freely	-13.4914
▁suggests	-13.492
▁webs	-13.4929
▁invisible	-13.4929
▁rooster	-13.4929
▁Joanne	-13.4929
▁pearls	-13.493
▁untangled	-13.493
▁toppings	-13.4941
▁mustn	-13.4956
▁lightly	-13.4963
▁Panda	-13.4965
▁laws	-13.4972
▁drill	-13.4992
▁venture	-13.4993
▁community	-13.4994
▁taps	-13.4994
▁Audrey	-13.4994
▁exercising	-13.4994
▁Jemma	-13.4994
▁interest	-13.4994
▁brightened	-13.4995
▁folds	-13.5005
▁lighting	-13.5008
▁stirs	-13.5018
▁Joseph	-13.5026
▁unlocking	-13.5041
can	-13.5045
▁tastiest	-13.5059
▁twelve	-13.5059
▁Too	-13.5065
▁builders	-13.5069
▁H	-13.5069
ai	-13.5074
es	-13.5087
ping	-13.509
▁funniest	-13.5091
▁scowled	-13.5092
▁frisbee	-13.5092
▁nightstand	-13.5092
▁Grumpy	-13.5092
▁boarded	-13.5094
▁popsicle	-13.5094
▁Lightning	-13.5096
▁Puddles	-13.5099
▁aprons	-13.5103
▁striking	-13.5124
▁Lydia	-13.5125
▁cloths	-13.5127
Daisy	-13.5129
▁files	-13.5138
▁deserves	-13.5149
▁tongues	-13.515
▁fuss	-13.5155
▁majestic	-13.5157
▁dedication	-13.5157
▁information	-13.5157
▁reality	-13.5157
▁twitched	-13.5157
▁Gerry	-13.5158
▁ribbit	-13.5159
▁dips	-13.5173
▁atmosphere	-13.519
▁carnival	-13.519
▁dustpan	-13.519
▁chains	-13.5191
▁sleeve	-13.5194
▁panting	-13.5196
▁offers	-13.5215
▁campsite	-13.5223
▁Dylan	-13.5224
▁elders	-13.5226
▁disagreement	-13.5227
Jump	-13.5227
▁designer	-13.5228
▁hoses	-13.523
▁online	-13.5232
▁nations	-13.5233
▁Wiggly	-13.5257
▁mound	-13.5259
▁hare	-13.5266
▁listener	-13.5277
▁carousel	-13.529
▁ashes	-13.5292
▁maps	-13.5311
▁disobey	-13.5321
▁furious	-13.5323
▁Alison	-13.5323
▁Taylor	-13.5323
▁Miles	-13.5324
œWait	-13.5326
T	-13.5334
tock	-13.5336
▁mischief	-13.5357
▁blessed	-13.5357
▁scores	-13.5368
ani	-13.5375
▁valleys	-13.5381
▁swirling	-13.5392
▁heights	-13.5394
▁desserts	-13.5406
▁homeless	-13.5415
▁crunch	-13.5418
▁cruel	-13.5424
▁cheetah	-13.5429
▁pancake	-13.543
▁Toys	-13.5446
▁alligators	-13.5452
▁farthest	-13.5458
▁royal	-13.5458
▁addition	-13.5458
▁totally	-13.5458
▁Down	-13.546
▁smoother	-13.5461
▁Nature	-13.5462
why	-13.5464
Cleaning	-13.5469
▁entering	-13.5469
▁rags	-13.5488
▁tingle	-13.5491
▁crispy	-13.5492
▁Bernie	-13.5492
▁managing	-13.5493
▁service	-13.5496
▁code	-13.5497
▁Pearl	-13.5499
▁pads	-13.55
▁contained	-13.5501
▁Off	-13.5526
▁devastated	-13.5526
▁reaction	-13.5531
▁snip	-13.5533
▁spice	-13.5534
▁Alfie	-13.5561
▁stained	-13.5564
▁winks	-13.5571
▁shots	-13.5571
▁damp	-13.5592
▁Duke	-13.5595
▁bounded	-13.5595
▁length	-13.56
▁yuck	-13.5601
▁Paw	-13.5601
Leo	-13.5602
▁Cheese	-13.5607
ne	-13.562
▁competing	-13.5629
▁energized	-13.5629
▁Willow	-13.563
▁Chicky	-13.563
▁Blink	-13.5631
▁woodpecker	-13.5634
Jenny	-13.5636
▁exhibit	-13.5636
▁fiercely	-13.5638
▁mend	-13.564
ng	-13.5653
▁swirled	-13.5666
▁host	-13.567
▁clothing	-13.5676
▁slot	-13.5685
▁considerate	-13.5699
▁Shadow	-13.5702
▁Turtle	-13.5705
▁Yoga	-13.5705
▁anybody	-13.5707
heard	-13.5708
▁respond	-13.5731
▁injuries	-13.5733
▁polka	-13.5733
▁Monster	-13.5742
▁peeks	-13.5758
▁din	-13.5767
▁presence	-13.5768
▁Gail	-13.5769
▁tripping	-13.5769
▁Friendship	-13.5772
▁rumbled	-13.5774
▁freshly	-13.5775
▁enchanted	-13.5803
▁antlers	-13.5808
sorry	-13.581
▁champion	-13.581
▁scrape	-13.5818
▁atop	-13.5831
▁impress	-13.5838
▁solid	-13.5838
▁horror	-13.5839
▁urging	-13.5839
▁squawked	-13.584
▁Chess	-13.5843
▁snowflake	-13.5847
▁glows	-13.586
▁blame	-13.5873
▁chattered	-13.5875
▁floaty	-13.5876
▁ducklings	-13.5879
▁fans	-13.5886
▁stacks	-13.5895
▁dodging	-13.5909
▁dives	-13.5917
▁spoken	-13.5918
▁Orange	-13.5922
▁sneaking	-13.5926
▁ripples	-13.5932
▁hates	-13.5934
▁workshop	-13.5945
▁squirmed	-13.5945
▁Dragon	-13.5949
▁priest	-13.5952
Ice	-13.5955
▁Anytime	-13.5956
▁ho	-13.5966
▁hind	-13.5977
▁Mac	-13.5981
▁knitting	-13.5981
▁Justin	-13.5984
▁wrecked	-13.599
▁solutions	-13.5995
▁batch	-13.6017
▁gliding	-13.6017
▁runny	-13.6017
▁dumped	-13.6018
▁Fishy	-13.6018
œJohn	-13.602
▁skips	-13.6021
▁Puppy	-13.6022
ippy	-13.6036
▁delightful	-13.6052
▁deck	-13.6053
▁unicorns	-13.6056
Enjoy	-13.606
▁explode	-13.6061
▁supplying	-13.6064
▁attaching	-13.6066
▁clips	-13.6067
▁twirls	-13.6088
▁spied	-13.6089
▁Marcy	-13.6089
▁rink	-13.6089
▁frightening	-13.6089
▁Matty	-13.6091
▁shortcut	-13.6099
Working	-13.6108
creams	-13.6119
eading	-13.612
▁Cars	-13.6122
▁lasers	-13.6123
▁strum	-13.6125
▁skinny	-13.6125
▁bill	-13.6128
▁Mole	-13.6128
▁rustle	-13.6133
▁possession	-13.6135
▁backward	-13.6137
▁Hi	-13.6138
▁aback	-13.6144
ich	-13.615
▁fright	-13.6161
▁Elizabeth	-13.6161
▁Susy	-13.6162
uff	-13.6162
▁Think	-13.6165
▁disagreeing	-13.6166
▁avoided	-13.6167
▁wobbles	-13.6167
▁Open	-13.617
▁palms	-13.6175
▁armor	-13.6182
▁reel	-13.6199
▁projects	-13.6204
Make	-13.6207
œMe	-13.6209
▁gorillas	-13.6213
S	-13.6219
▁painful	-13.6234
▁commotion	-13.6234
▁Wise	-13.6237
▁parking	-13.624
▁Play	-13.6243
▁oars	-13.6257
▁squish	-13.6269
▁respecting	-13.6271
▁Flash	-13.6271
▁Confused	-13.6271
▁darted	-13.6272
▁snowing	-13.6275
▁handlebars	-13.628
Everything	-13.628
ad	-13.629
▁tumbling	-13.6308
▁exams	-13.6323
▁values	-13.6325
▁supermarket	-13.6345
▁threatened	-13.6345
▁tightened	-13.6346
œHere	-13.6354
From	-13.6354
C	-13.6358
Whoa	-13.6372
▁poop	-13.638
▁glimmer	-13.638
▁sickness	-13.6383
▁musical	-13.6392
▁habit	-13.6394
▁tales	-13.6398
▁lantern	-13.6402
▁studio	-13.642
▁Ernie	-13.642
▁Isla	-13.642
▁nuggets	-13.6423
▁seeking	-13.6425
▁hideout	-13.6433
▁weights	-13.6435
▁raked	-13.6439
▁bold	-13.6457
▁pudding	-13.6457
▁disgusted	-13.6457
▁discussion	-13.6495
▁lurking	-13.6495
Sleep	-13.6503
▁racers	-13.6508
▁streaming	-13.6521
▁distract	-13.653
▁scaly	-13.6532
▁Flappy	-13.6533
▁gardening	-13.654
▁tutu	-13.6542
▁Squeak	-13.6548
▁zigzags	-13.6554
▁servants	-13.6556
▁hammering	-13.656
▁hurtful	-13.6561
▁stomachs	-13.6562
▁pals	-13.6563
Jen	-13.658
▁squawk	-13.6584
▁Jump	-13.6601
▁Scott	-13.6608
▁potty	-13.6609
Beware	-13.6617
oy	-13.6631
athy	-13.6634
▁More	-13.6642
elsey	-13.6646
▁Wilma	-13.6646
Mittens	-13.6656
Mary	-13.6657
▁jaws	-13.666
▁surrounding	-13.6661
▁resisting	-13.6665
▁autumn	-13.6685
▁pavement	-13.6685
▁Timothy	-13.6685
▁begun	-13.6686
ah	-13.669
▁saddle	-13.6691
▁purchase	-13.6697
▁Hanna	-13.6723
▁ceremony	-13.6723
▁grandchildren	-13.6723
▁Nelly	-13.6724
▁Simba	-13.6724
▁stormy	-13.6739
▁correct	-13.6761
▁pitcher	-13.6763
▁wetter	-13.6763
▁stomping	-13.6763
œBecause	-13.6765
▁Thunder	-13.6769
▁saxophone	-13.6774
▁invention	-13.6777
▁curves	-13.6778
▁Crusty	-13.6801
▁loneliness	-13.6801
▁Goldie	-13.6801
▁Manny	-13.6801
▁device	-13.6814
▁Sundays	-13.682
▁porridge	-13.684
▁studies	-13.684
▁Erin	-13.684
▁Cuddles	-13.6844
▁threads	-13.6844
▁Eating	-13.6844
believe	-13.6851
Lisa	-13.6851
▁helicopters	-13.6854
▁Find	-13.6865
obot	-13.6876
▁harvest	-13.6877
▁Mara	-13.6877
▁Tia	-13.6877
▁embrace	-13.6878
by	-13.6878
▁escaping	-13.6879
▁Hugo	-13.6879
▁Arthur	-13.6879
▁volcanoes	-13.6879
▁beaks	-13.6906
▁showers	-13.6913
▁Stand	-13.6917
▁neighed	-13.6919
▁witches	-13.6919
▁captured	-13.6919
▁puffed	-13.692
▁carve	-13.6922
▁tours	-13.6928
▁tucks	-13.694
look	-13.6947
▁Frustrated	-13.6957
▁arrested	-13.6958
Cat	-13.6958
▁undo	-13.696
▁stretchy	-13.6963
▁handles	-13.6966
Trust	-13.6969
Wake	-13.6969
▁journeys	-13.6975
▁scientists	-13.6977
▁caps	-13.6988
▁unkind	-13.6996
▁jeans	-13.6997
▁peculiar	-13.6997
▁practising	-13.6997
▁Africa	-13.6997
▁Dora	-13.6997
▁unloaded	-13.6998
▁quicker	-13.6998
Shoo	-13.7009
▁grumble	-13.7011
▁mate	-13.7012
an	-13.7017
▁howl	-13.7021
▁reappear	-13.7034
▁Toni	-13.7037
▁carved	-13.7038
guided	-13.704
▁ruled	-13.7043
▁missiles	-13.7048
smelling	-13.7048
▁co	-13.7065
▁Bop	-13.7071
▁launch	-13.7074
igzag	-13.7076
▁refusing	-13.7076
▁scribbled	-13.7077
▁Louie	-13.7077
▁riches	-13.7081
▁spirits	-13.7082
▁fights	-13.7082
▁Beary	-13.7083
▁tanks	-13.7103
▁vests	-13.7106
oxy	-13.7116
▁settling	-13.7116
▁tingling	-13.7116
▁Bethany	-13.7116
▁ruffled	-13.7116
▁scolding	-13.7118
▁bare	-13.7122
▁ray	-13.7124
▁owning	-13.7124
▁tents	-13.7138
▁squirt	-13.7155
▁voyage	-13.7156
▁slightly	-13.7156
▁Skelly	-13.7157
▁Juice	-13.7162
▁signal	-13.7166
▁Margaret	-13.7196
▁abandoned	-13.7197
▁glistened	-13.7197
▁lumpy	-13.7197
▁Mindy	-13.7197
▁Barky	-13.7199
▁misty	-13.72
▁Snap	-13.7202
▁Cow	-13.7219
▁oceans	-13.7224
▁gruff	-13.7237
▁Dawn	-13.7237
▁soggy	-13.7237
▁stiff	-13.7237
▁Janice	-13.7237
▁grinning	-13.7237
▁joyous	-13.7237
▁snarled	-13.7237
▁interrupted	-13.7237
▁Angie	-13.7237
▁Near	-13.7238
œMum	-13.7239
▁winking	-13.7243
Something	-13.725
▁connection	-13.7255
▁jogger	-13.7256
Move	-13.7275
▁grumbling	-13.7278
▁Jumpy	-13.7278
▁mixes	-13.7279
▁Most	-13.728
▁chewy	-13.7284
▁scooping	-13.7286
▁obstacles	-13.729
▁attendant	-13.7296
▁honeycomb	-13.7296
▁appears	-13.7299
▁dries	-13.7319
▁Surprised	-13.7319
▁Jolly	-13.732
▁trunks	-13.7321
▁Purple	-13.7323
▁succeeding	-13.7332
▁fist	-13.7338
▁jumper	-13.7339
Dog	-13.7351
▁compare	-13.7358
▁snipped	-13.736
▁Nia	-13.736
▁Catty	-13.736
▁Debbie	-13.736
▁crosses	-13.7361
▁Layla	-13.7366
More	-13.7373
Sharing	-13.7375
▁Imagine	-13.7376
▁begs	-13.738
▁mold	-13.7381
▁Bubble	-13.7382
▁massages	-13.7386
▁plow	-13.7399
▁trudged	-13.7401
▁Singing	-13.7402
▁Eve	-13.7404
▁disappears	-13.7416
▁fluff	-13.7441
▁godmother	-13.7442
▁Isabella	-13.7442
▁harmful	-13.7442
▁Jelly	-13.7444
▁sculptures	-13.7447
▁grains	-13.745
▁blob	-13.7462
▁Birds	-13.7479
▁creams	-13.7482
▁suspicious	-13.7483
aitlyn	-13.7484
▁Melody	-13.7484
▁unfolded	-13.7484
▁shame	-13.7484
▁Percy	-13.7484
▁snuggles	-13.7486
▁somehow	-13.749
▁Close	-13.7509
Friends	-13.751
▁possessions	-13.7513
▁double	-13.7524
▁reckless	-13.7525
▁buddies	-13.7525
▁contentment	-13.7525
espect	-13.7526
▁sweeping	-13.7528
▁Cookies	-13.7528
▁phones	-13.7531
▁Gia	-13.7535
▁wrappers	-13.7536
Silly	-13.7539
▁pairs	-13.7546
▁hoof	-13.7546
▁wig	-13.7547
▁Boom	-13.7556
▁bobbed	-13.7567
▁lobby	-13.7567
▁supportive	-13.7567
▁payoff	-13.7568
▁journeyed	-13.7575
▁importantly	-13.7578
▁stretcher	-13.7587
▁pineapple	-13.7587
▁skate	-13.7588
▁troll	-13.7588
▁Afterward	-13.7589
▁juggling	-13.7609
▁Alexa	-13.7612
▁Sister	-13.7612
▁proceed	-13.7613
▁Much	-13.7614
▁fully	-13.7625
▁yawns	-13.7626
▁buckles	-13.7629
▁suitcases	-13.7636
▁hammered	-13.7646
▁chirps	-13.7662
Everyone	-13.7665
l	-13.7666
▁braid	-13.7673
▁ogre	-13.7694
▁Nellie	-13.7694
▁equally	-13.7694
▁Chip	-13.7694
▁concentrated	-13.7695
▁mustaches	-13.7704
▁stares	-13.773
▁anyways	-13.7731
▁spaces	-13.7731
▁extreme	-13.7736
▁approval	-13.7736
▁firewood	-13.7736
▁patting	-13.7738
▁richer	-13.7739
Magic	-13.774
▁biscuits	-13.7743
Got	-13.7744
time	-13.7749
Hooray	-13.775
▁subjects	-13.7753
▁Nut	-13.776
▁holidays	-13.7766
upert	-13.7779
▁nursery	-13.7779
▁clucked	-13.778
▁Mister	-13.7788
▁accepting	-13.7795
▁protector	-13.7802
▁moderation	-13.7822
▁Stephanie	-13.7822
▁Otto	-13.7822
▁handy	-13.7822
▁chooses	-13.7823
▁posters	-13.7825
▁beg	-13.7856
▁independence	-13.7865
▁strummed	-13.7865
▁tightrope	-13.7865
▁Hippy	-13.7865
▁scuttled	-13.7866
▁striped	-13.7877
▁wiggles	-13.7882
▁explanation	-13.7886
ched	-13.7887
▁clover	-13.7888
▁recipes	-13.789
▁sells	-13.7892
▁Jules	-13.7908
▁Monica	-13.7909
▁squashes	-13.7909
og	-13.7911
▁Sugar	-13.7913
▁Music	-13.7913
▁thoughtfully	-13.792
Emma	-13.7923
▁performer	-13.7935
▁Nei	-13.7941
▁granny	-13.7952
▁terribly	-13.7952
▁wriggling	-13.7952
▁vast	-13.7952
▁Marcus	-13.7952
▁pedalled	-13.7952
▁Faye	-13.7952
▁Maxine	-13.7954
free	-13.7965
▁instant	-13.7995
▁Gloria	-13.7995
▁Diana	-13.7996
▁creepy	-13.7996
▁Pingu	-13.7996
▁complicated	-13.7996
▁site	-13.8008
▁kindest	-13.8021
▁cigarette	-13.8021
▁sealed	-13.8026
▁guarded	-13.8029
▁honor	-13.8037
▁separating	-13.8039
▁wrinkly	-13.8039
▁Grandad	-13.804
▁rustled	-13.8041
▁stitched	-13.8049
▁Three	-13.8064
▁capes	-13.8067
▁stray	-13.8082
▁thinner	-13.8083
▁Aaron	-13.8084
▁stalks	-13.8091
filled	-13.81
œHelp	-13.8102
▁curve	-13.8108
Hop	-13.8114
▁strict	-13.8128
œMama	-13.813
▁lovingly	-13.813
▁splitting	-13.8134
▁sleeps	-13.8138
Close	-13.8143
hi	-13.8146
▁bleeds	-13.8149
ned	-13.815
▁contents	-13.8163
▁blush	-13.817
▁Lauren	-13.8172
▁lifetime	-13.8173
▁lectures	-13.8187
▁Bees	-13.8187
▁steaming	-13.8188
Should	-13.8189
don	-13.8196
▁roller	-13.8198
▁detective	-13.8199
▁Gradually	-13.8217
▁abilities	-13.8217
▁quarrelling	-13.8217
▁Spanish	-13.8217
▁erasers	-13.8223
▁strikes	-13.8225
▁Bones	-13.8233
▁fail	-13.824
▁raincoats	-13.8242
▁crumb	-13.8244
▁Wake	-13.8248
▁pendant	-13.8262
▁tiara	-13.8262
▁panicking	-13.8262
▁curved	-13.8263
▁swat	-13.8264
▁Yellow	-13.8267
▁speedy	-13.8267
▁M	-13.8268
.'"	-13.8282
▁Eat	-13.8294
œyou	-13.8298
▁fixer	-13.8298
▁Dina	-13.8307
▁waitress	-13.8307
▁dirtier	-13.8307
▁Marty	-13.8307
▁Bree	-13.8307
▁Furry	-13.8307
▁Gertie	-13.8307
▁Ivy	-13.8308
▁Dizzy	-13.8308
▁sly	-13.8311
▁boomed	-13.8314
eyed	-13.8322
▁roam	-13.835
▁wicked	-13.8352
▁cinnamon	-13.8352
▁envy	-13.8352
▁fishermen	-13.8352
▁spelling	-13.8352
▁mailing	-13.8356
▁Anything	-13.8364
▁adventurers	-13.8364
▁motions	-13.8367
▁squeal	-13.8378
▁croak	-13.8378
▁sleeves	-13.8392
▁defend	-13.8395
epeat	-13.8396
aylee	-13.8397
▁confusing	-13.8397
▁sung	-13.8401
Two	-13.8415
▁combing	-13.8422
▁pail	-13.8425
▁perch	-13.8441
▁Nibbles	-13.8444
▁guitars	-13.8446
▁skating	-13.8446
Shrink	-13.846
▁owls	-13.8462
▁curls	-13.8463
▁banks	-13.847
▁bruise	-13.8471
▁carriage	-13.8472
▁reader	-13.8485
▁juggle	-13.8488
▁concentrate	-13.8488
▁Bobbi	-13.8488
▁goo	-13.8489
Blech	-13.8489
▁toothpaste	-13.8489
▁Stacy	-13.8489
▁leaping	-13.8491
▁Petey	-13.85
okay	-13.8507
▁nephew	-13.8515
▁melts	-13.8529
nderneath	-13.8535
▁Jade	-13.8535
▁favor	-13.8535
▁salsa	-13.8535
▁Bailey	-13.8535
▁Crystal	-13.8536
▁bled	-13.8536
▁strolling	-13.8537
▁Moe	-13.8538
▁Stretch	-13.8548
▁kneels	-13.8554
▁mast	-13.8559
▁coconut	-13.8565
▁layer	-13.858
▁Lexi	-13.858
ichard	-13.8581
▁charity	-13.8581
▁quizzes	-13.8581
▁sprung	-13.8581
▁resumed	-13.8581
▁Lacey	-13.8582
▁Oak	-13.8582
▁Spirit	-13.8583
▁Sid	-13.8584
▁droplets	-13.8588
osy	-13.8603
▁partner	-13.8611
▁Benjamin	-13.8628
▁inspected	-13.8629
▁flowed	-13.863
▁Wiggles	-13.865
th	-13.865
▁cutter	-13.866
▁options	-13.8667
▁smash	-13.8672
▁Michelle	-13.8674
▁bobbing	-13.8674
▁guidance	-13.8674
▁pastor	-13.8675
▁fourth	-13.8675
▁spades	-13.8677
▁vitamins	-13.8687
▁targets	-13.8694
▁conversations	-13.8695
▁cracking	-13.87
▁attempt	-13.8705
▁fading	-13.8721
▁Jasper	-13.8721
▁Hour	-13.8721
▁descended	-13.8722
▁timidly	-13.8722
▁warming	-13.8724
▁zig	-13.8724
▁sandals	-13.8727
▁flyer	-13.8728
▁forced	-13.873
▁anxiously	-13.873
▁Should	-13.8762
▁arrest	-13.8767
▁cities	-13.8769
▁surprisingly	-13.877
▁Small	-13.8771
▁setup	-13.8774
▁wrists	-13.8779
▁Nan	-13.8795
▁Fly	-13.8796
▁hurrying	-13.8796
▁staircase	-13.8798
▁Ada	-13.8811
▁litter	-13.8814
▁Paige	-13.8816
▁heaviest	-13.8816
▁nightfall	-13.8816
▁cheesy	-13.8816
▁Mollie	-13.8816
▁tickly	-13.8816
▁Piper	-13.8817
▁loosen	-13.8817
▁cables	-13.882
▁sicker	-13.8822
▁brighten	-13.8823
▁useless	-13.8824
▁construction	-13.8864
▁wondrous	-13.8864
▁crunching	-13.8865
▁praises	-13.8865
▁hardworking	-13.8866
▁walkie	-13.8867
▁None	-13.8868
▁shields	-13.8875
▁surrendering	-13.8879
▁stems	-13.8893
▁obstacle	-13.8897
▁poles	-13.8901
▁stripe	-13.8907
▁reflect	-13.891
▁timid	-13.8911
▁Fran	-13.8911
▁lens	-13.8911
▁orchard	-13.8911
▁stylish	-13.8911
▁replacing	-13.8911
▁snuggly	-13.8911
▁Ask	-13.8915
Aw	-13.8918
▁dodges	-13.8923
œStop	-13.8924
▁Park	-13.8926
stop	-13.8927
▁islands	-13.8929
▁Ma	-13.893
▁chicks	-13.8931
▁Crab	-13.8936
▁requests	-13.894
▁passion	-13.8943
▁boulder	-13.8943
▁events	-13.8947
▁challenging	-13.8959
▁foreshadowed	-13.896
▁perked	-13.896
▁scooted	-13.896
▁Stripey	-13.896
▁overflowing	-13.896
▁flakes	-13.8963
▁accidently	-13.8964
œJack	-13.8965
▁Amen	-13.8968
▁numbered	-13.8969
▁skates	-13.8983
▁fists	-13.8985
▁wobbling	-13.9008
▁tippy	-13.9008
▁contentedly	-13.9008
▁pinches	-13.9008
▁Tippy	-13.9009
▁glimmered	-13.9009
▁fixes	-13.9013
▁bending	-13.9015
▁carts	-13.9017
▁lace	-13.9034
▁pickles	-13.9036
▁lately	-13.9043
▁screech	-13.9055
▁arrange	-13.9055
▁Thanksgiving	-13.9056
▁balcony	-13.9056
▁dragging	-13.9056
▁promising	-13.9056
▁Anya	-13.9057
▁Pingo	-13.9057
▁hopeless	-13.9058
▁sneakers	-13.9061
▁tiptoes	-13.9085
▁barbecue	-13.9089
aring	-13.9095
▁guilt	-13.9105
▁cucumbers	-13.9105
▁emergencies	-13.9105
▁nanny	-13.9105
▁ungrateful	-13.9105
▁Gilly	-13.9106
▁Club	-13.9106
▁Mei	-13.9106
▁adventurer	-13.9109
▁delaying	-13.9119
May	-13.9126
▁magpie	-13.9138
▁pounce	-13.9139
▁lawyers	-13.9161
▁aisles	-13.9165
▁Ding	-13.9175
good	-13.918
is	-13.9188
Whenever	-13.9203
▁begging	-13.9203
▁shuffled	-13.9204
so	-13.9223
Three	-13.9225
▁flippers	-13.9237
▁sleepover	-13.9247
▁thirst	-13.9253
▁appetite	-13.9253
▁fulfilled	-13.9253
▁North	-13.9253
▁slithering	-13.9254
▁Junior	-13.9254
▁Believe	-13.9265
Careful	-13.9274
▁experiments	-13.9274
▁streams	-13.9282
▁Spider	-13.9297
▁training	-13.9299
▁destruction	-13.9303
▁ecstatic	-13.9303
▁stunned	-13.9303
▁stunning	-13.9303
▁rises	-13.9308
▁acrobats	-13.9312
▁props	-13.9326
▁combs	-13.9332
▁limits	-13.9336
▁Jam	-13.9338
▁leopards	-13.9338
▁kill	-13.9352
▁exact	-13.9352
▁Madeline	-13.9353
▁tablecloth	-13.9353
▁excellent	-13.9353
▁recovered	-13.9353
▁Burt	-13.9354
placing	-13.9354
▁Ed	-13.9381
▁dodge	-13.939
▁packet	-13.939
▁Pig	-13.9395
▁glimpse	-13.9402
▁Louis	-13.9402
indness	-13.9403
▁Surprisingly	-13.9403
▁releasing	-13.9403
▁smoky	-13.9403
▁thirty	-13.9403
▁shoreline	-13.9403
▁ducked	-13.9404
▁background	-13.9404
▁earthquakes	-13.9424
just	-13.9425
▁seated	-13.9432
▁suck	-13.9438
▁report	-13.944
▁deeds	-13.9447
▁Abbi	-13.9453
▁captivated	-13.9453
▁infection	-13.9453
▁potential	-13.9453
▁blurry	-13.9453
▁Yet	-13.9454
▁fitting	-13.9476
▁position	-13.9492
▁smoothie	-13.9493
▁Charles	-13.9505
▁awaited	-13.9505
▁silk	-13.9505
▁Jet	-13.9507
Bird	-13.9515
▁ironing	-13.9525
Ten	-13.9525
▁friendships	-13.954
▁chatter	-13.9541
œJust	-13.9545
▁chugged	-13.9555
▁Ethan	-13.9556
▁Cherry	-13.9557
▁mended	-13.9557
▁securely	-13.9557
▁Dancing	-13.9561
▁Jenn	-13.9561
▁Dinner	-13.9571
Mark	-13.9578
▁collage	-13.9594
▁loser	-13.9599
▁bead	-13.9601
▁neigh	-13.9601
▁bullies	-13.9607
▁fanciest	-13.9607
▁antennae	-13.9607
▁Seth	-13.9607
▁switches	-13.9607
▁cursed	-13.9607
▁classes	-13.9608
▁parrots	-13.9618
▁gaining	-13.962
Phew	-13.9629
u	-13.9637
▁bills	-13.9644
▁liar	-13.9647
hearted	-13.9651
▁Bugs	-13.9654
▁squatted	-13.9658
▁admitted	-13.9658
▁Pup	-13.9659
▁sweating	-13.966
▁creaked	-13.966
▁ladybugs	-13.9663
▁lunged	-13.9666
▁behold	-13.9669
▁zippers	-13.967
▁rarely	-13.9673
▁farewell	-13.9698
▁West	-13.9708
▁Winnie	-13.971
▁whirled	-13.971
▁Emmie	-13.9711
▁bangs	-13.9712
▁Heather	-13.9725
▁Tuesdays	-13.9736
▁bandaged	-13.9751
▁grain	-13.9752
▁sunk	-13.9754
Writing	-13.9762
▁unlike	-13.9762
▁hobby	-13.9762
▁obliged	-13.9762
▁clearer	-13.9765
▁Mars	-13.9768
▁outcome	-13.9768
▁playfully	-13.9781
▁Buttons	-13.9783
Alice	-13.9786
▁heated	-13.9791
▁blinks	-13.9795
▁hammers	-13.9798
▁flavours	-13.981
▁Cake	-13.9812
▁Drop	-13.9813
▁caf	-13.9813
▁Bright	-13.9814
▁murky	-13.9814
▁Peace	-13.9814
▁Marco	-13.9814
▁involved	-13.9816
▁bask	-13.9823
▁trails	-13.9826
▁motors	-13.9834
ace	-13.9837
▁greater	-13.9842
▁hooked	-13.9848
Say	-13.9862
▁innocent	-13.9867
▁Sylvia	-13.9867
▁combined	-13.9867
œDaddy	-13.9869
▁Land	-13.987
▁Pop	-13.9871
▁crouch	-13.9877
▁remaining	-13.9883
Twinkle	-13.9892
▁looped	-13.9896
M	-13.9917
▁copies	-13.992
▁Owen	-13.9921
▁Promise	-13.9923
▁yelps	-13.9925
▁cooks	-13.994
▁repairs	-13.9943
Eat	-13.9944
Cool	-13.9944
coloured	-13.9945
Mmmm	-13.9959
▁stalk	-13.9967
▁fifty	-13.9973
▁broomstick	-13.9973
▁selfishness	-13.9974
▁marveling	-13.9974
!'"	-13.9974
▁Cream	-13.9976
ino	-13.998
▁carelessly	-13.9984
▁Merry	-13.9984
▁cutters	-13.9991
▁feared	-14.0009
▁newly	-14.0011
▁erupt	-14.0013
▁Prune	-14.0018
▁scrunch	-14.0019
▁unwrap	-14.0019
▁Nell	-14.0026
▁principal	-14.0026
▁apartment	-14.0027
▁Carlos	-14.0029
▁tossing	-14.0045
▁driven	-14.0056
▁Butter	-14.0065
▁Trees	-14.0068
▁swoop	-14.0069
▁cluck	-14.0073
▁vacuum	-14.0078
Eww	-14.008
▁disobedient	-14.008
▁fired	-14.008
▁Wink	-14.0081
▁coolness	-14.0082
▁shades	-14.0083
▁Coal	-14.0085
▁Whee	-14.0085
▁howling	-14.0087
▁elbows	-14.0089
▁Animals	-14.01
▁Meow	-14.0104
▁spotless	-14.0105
▁meets	-14.0131
▁accessories	-14.0134
▁trousers	-14.0134
▁Tabby	-14.0135
▁silky	-14.0135
▁eleven	-14.0135
▁glinting	-14.0135
▁clothesline	-14.0135
▁quality	-14.0135
▁ballet	-14.0138
▁White	-14.0138
▁Brave	-14.0139
▁grownups	-14.015
▁yielding	-14.015
▁Pizza	-14.0156
▁conquer	-14.0188
▁wasteful	-14.0189
▁trophies	-14.0189
▁embarrassment	-14.0189
▁Lillie	-14.0189
▁Angela	-14.0189
▁Chewy	-14.019
ound	-14.0201
▁nuzzles	-14.0214
▁arrives	-14.0216
Brrr	-14.0217
▁plus	-14.0239
▁Win	-14.0242
▁Beatrice	-14.0243
▁Grandmother	-14.0243
▁Ginny	-14.0244
▁summertime	-14.0244
▁Spotty	-14.0244
▁tending	-14.0244
▁bruised	-14.0245
▁breadcrumbs	-14.0246
▁howled	-14.0267
With	-14.027
Poor	-14.027
▁snails	-14.0273
da	-14.0278
▁messing	-14.0285
▁marvel	-14.0289
▁Mitch	-14.0298
▁Alicia	-14.0298
▁Barney	-14.0298
▁cleverness	-14.0299
▁Puff	-14.0299
▁grownup	-14.0305
Congratulations	-14.0325
▁blond	-14.0332
▁Cody	-14.0353
▁receiving	-14.0353
▁trimmed	-14.0353
▁messier	-14.0354
▁Jesus	-14.0354
▁embraced	-14.0355
L	-14.0358
come	-14.0386
▁jacks	-14.0395
▁tastier	-14.0409
▁Jed	-14.041
▁nightlight	-14.0411
▁cawed	-14.0411
▁Jose	-14.0411
▁gobble	-14.0411
▁forming	-14.0413
▁Helping	-14.0435
▁choke	-14.0454
▁plank	-14.0459
▁popsicles	-14.0459
▁Intrigued	-14.0465
▁Trevor	-14.0465
▁Nathan	-14.0465
▁suggesting	-14.0468
▁raisins	-14.0474
▁railing	-14.0476
Free	-14.0492
Freeze	-14.0492
wow	-14.0493
ring	-14.0505
▁Tip	-14.0506
▁victorious	-14.0521
▁Tracy	-14.0521
▁replies	-14.0521
▁Nearby	-14.0521
▁rejoiced	-14.0521
▁crooked	-14.0521
▁Alfred	-14.0521
▁Edward	-14.0521
▁whirring	-14.0522
▁erupted	-14.0522
▁Sheila	-14.0525
▁Pickles	-14.054
▁warns	-14.054
▁cock	-14.0551
▁yelp	-14.057
▁haystack	-14.0578
▁Silver	-14.0578
▁Number	-14.0578
▁pluck	-14.0578
▁Samuel	-14.0578
▁fondly	-14.0578
▁afloat	-14.0582
▁risen	-14.0586
œThey	-14.0587
▁Count	-14.0587
▁squeaks	-14.0592
œBye	-14.0592
▁tighten	-14.0599
off	-14.0599
Found	-14.0606
welcome	-14.0606
▁eyeshadow	-14.0626
▁dice	-14.0633
▁affect	-14.0633
▁whining	-14.0634
▁mower	-14.0634
▁chaos	-14.0634
▁crashes	-14.0635
▁Plus	-14.0635
▁gestures	-14.0635
▁hurriedly	-14.0639
▁mastered	-14.064
▁Dove	-14.0647
Grab	-14.0663
N	-14.0671
Ahh	-14.0673
Being	-14.0679
▁elder	-14.0686
▁hint	-14.0687
w	-14.0687
▁Hippo	-14.0688
▁gleaming	-14.0692
▁wilted	-14.0692
▁starry	-14.0692
▁frames	-14.0694
▁chalks	-14.0711
Jim	-14.0721
Catch	-14.0721
▁pistols	-14.0733
▁speck	-14.0744
▁dandelion	-14.0744
▁emptied	-14.0749
▁teddies	-14.0749
▁assured	-14.0749
eggie	-14.0749
▁sniffling	-14.0749
▁School	-14.0755
▁Butterfly	-14.0763
▁preventing	-14.0768
▁forwards	-14.077
saw	-14.0782
iding	-14.0784
arl	-14.0786
▁rattle	-14.0801
▁salads	-14.0806
▁creaking	-14.0809
▁Peek	-14.0809
▁Agnes	-14.081
▁Joel	-14.0811
▁colouring	-14.0823
▁prices	-14.0823
▁dials	-14.0831
▁folders	-14.0832
▁urges	-14.0836
▁scar	-14.0853
▁remov	-14.0853
id	-14.0853
▁glide	-14.0857
▁pointer	-14.086
▁cornfield	-14.086
▁drown	-14.0863
▁Connie	-14.0865
▁raw	-14.0865
▁crackling	-14.0865
▁daddies	-14.0865
▁Gaby	-14.0866
▁pricked	-14.0866
▁handled	-14.0866
▁Caterpillar	-14.0868
▁spine	-14.0875
▁slime	-14.0889
▁bubbled	-14.0905
le	-14.0907
▁dong	-14.0911
▁grounded	-14.0913
▁gulp	-14.0917
▁achieving	-14.0923
▁injury	-14.0923
▁Mason	-14.0924
▁Lady	-14.0927
▁Bell	-14.093
▁whisk	-14.0949
▁sounding	-14.0951
war	-14.0957
ked	-14.0961
▁Him	-14.0973
▁blessing	-14.098
▁actor	-14.098
▁scurry	-14.0981
▁preferred	-14.0982
▁existed	-14.0983
▁Smiling	-14.0983
▁resolved	-14.0983
▁booming	-14.0991
▁locking	-14.0991
▁deepest	-14.0992
▁Donna	-14.0999
▁fairly	-14.1013
▁Goose	-14.1016
▁Silly	-14.1022
ness	-14.1024
▁advantage	-14.1033
▁buds	-14.1038
▁Bloom	-14.1038
▁snorts	-14.104
▁Harriet	-14.1041
▁frantically	-14.1041
▁ladies	-14.1041
▁sucked	-14.1043
▁contented	-14.1043
▁tiredness	-14.1044
▁mac	-14.1068
▁springs	-14.1073
▁f	-14.1073
▁secretly	-14.1079
▁Juliet	-14.1081
▁views	-14.1093
▁regretful	-14.1101
▁headphones	-14.1101
▁impact	-14.1101
▁luxurious	-14.1101
▁rosy	-14.1101
▁unlucky	-14.1101
▁padlock	-14.1101
▁outstretched	-14.1101
▁Harold	-14.1102
▁fastened	-14.1102
▁Socky	-14.1103
▁Mild	-14.1103
▁drifting	-14.1105
▁unzip	-14.1109
Y	-14.1114
▁fool	-14.1118
▁remains	-14.1122
▁cigarettes	-14.1126
▁recordings	-14.115
▁enjoys	-14.1151
▁private	-14.1161
▁Hazel	-14.1161
▁Walter	-14.1161
▁mustard	-14.1161
▁lighthouse	-14.1161
▁Mustache	-14.1161
▁Jackson	-14.1162
▁stubb	-14.1162
▁croaking	-14.1162
▁plump	-14.1164
▁turkeys	-14.1164
▁Whale	-14.1165
▁hoo	-14.1173
▁cords	-14.1174
▁barrels	-14.1197
▁tilts	-14.1198
Tell	-14.1207
▁cloak	-14.1216
▁snore	-14.1217
▁revenge	-14.1221
▁plunge	-14.1221
▁yanked	-14.1221
▁Micky	-14.1222
▁c	-14.125
Climb	-14.1252
Blue	-14.1253
Emily	-14.1253
▁donate	-14.127
talkie	-14.128
▁banner	-14.128
▁Flap	-14.128
▁brake	-14.1281
▁Fanny	-14.1282
▁hungrier	-14.1282
▁Sissy	-14.1283
▁blessings	-14.1285
▁notices	-14.1288
Flying	-14.129
▁Faster	-14.1291
▁kernels	-14.1297
▁Sal	-14.1303
B	-14.1304
▁album	-14.1339
▁Melinda	-14.1343
▁grazing	-14.1343
▁adored	-14.1343
▁Sari	-14.1343
uriosity	-14.1343
▁whizzed	-14.1343
▁Sad	-14.1344
▁impatiently	-14.1353
ane	-14.1358
▁catcher	-14.136
▁thousands	-14.1385
▁beeps	-14.1389
▁Wonder	-14.1402
▁pinecone	-14.1403
▁unwell	-14.1404
▁childhood	-14.1404
▁cranky	-14.1404
▁Piggie	-14.1404
▁alphabet	-14.1404
▁foreshadowing	-14.1404
her	-14.1405
▁homemade	-14.1407
▁March	-14.1423
do	-14.1433
▁Stripes	-14.1441
▁paddles	-14.1445
▁jay	-14.1462
▁Bibi	-14.1466
▁sledding	-14.1466
▁sprinted	-14.1466
▁Whistle	-14.147
▁hiked	-14.147
▁resources	-14.1471
▁Winter	-14.1473
▁interests	-14.1523
▁crust	-14.1526
▁Fuzz	-14.1528
▁cucumber	-14.1528
▁comfortably	-14.1528
▁flamingo	-14.1528
▁Lara	-14.1528
▁mini	-14.153
▁hesitantly	-14.153
▁Steal	-14.1533
ina	-14.1537
g	-14.1538
▁Money	-14.1539
▁Slow	-14.1548
▁Soup	-14.1558
Surrender	-14.1562
Fly	-14.1562
Mimi	-14.1562
Push	-14.1562
handed	-14.1563
▁Flop	-14.1566
▁Salt	-14.1573
who	-14.1585
▁Lynn	-14.159
▁dishonest	-14.159
▁storybook	-14.159
▁glory	-14.159
▁reins	-14.159
▁halo	-14.159
▁Becca	-14.159
nowing	-14.1591
▁beaten	-14.1591
▁huffed	-14.1591
▁slurped	-14.1591
▁bedside	-14.1593
▁Dare	-14.1595
▁miner	-14.1599
▁records	-14.1606
pilot	-14.1625
▁flicker	-14.1651
▁disturbance	-14.1653
▁uniting	-14.1653
▁flipping	-14.1653
▁zone	-14.1653
▁postcard	-14.1654
▁critter	-14.1654
▁chattering	-14.1654
▁squealing	-14.1655
▁oohed	-14.1655
▁runway	-14.1657
▁stalls	-14.1658
▁nook	-14.1659
▁dates	-14.166
▁Milk	-14.166
▁climber	-14.1672
▁pea	-14.1681
Children	-14.1688
▁owe	-14.1702
▁oink	-14.1706
▁stump	-14.1714
▁faithful	-14.1716
▁Phoebe	-14.1717
▁Melanie	-14.1717
▁crumpled	-14.1717
▁streak	-14.1718
▁greeting	-14.1719
ding	-14.1719
▁toughest	-14.1719
▁pouts	-14.1732
▁lamps	-14.1733
Johnny	-14.1752
▁skeletons	-14.1755
▁layed	-14.176
▁struggles	-14.1762
▁Grump	-14.178
▁Sharon	-14.178
▁clambered	-14.178
▁storing	-14.1781
▁Annabel	-14.1781
▁Stephen	-14.1781
▁limped	-14.1781
hand	-14.1782
▁amusement	-14.1783
▁squeaking	-14.1785
▁outdoor	-14.1787
▁fingertips	-14.1788
▁Twist	-14.1799
▁measurements	-14.1805
▁brats	-14.1811
▁fighters	-14.1817
able	-14.1817
▁Flowers	-14.1838
▁adopt	-14.1844
▁unnecessary	-14.1844
▁Mack	-14.1845
▁Biggy	-14.1845
▁snort	-14.1845
▁Georgie	-14.1845
▁described	-14.1845
▁spitting	-14.1847
▁shaker	-14.1848
▁paramedics	-14.1867
if	-14.1875
▁hoot	-14.1881
Her	-14.1882
woo	-14.1887
▁outing	-14.1892
▁bless	-14.1904
▁Eli	-14.1908
▁Isabel	-14.1909
▁cacti	-14.1909
▁imaginative	-14.1909
▁privacy	-14.1909
▁similar	-14.1909
▁unforgettable	-14.1909
▁prey	-14.1909
▁Woolly	-14.1909
▁trumpets	-14.1909
▁talons	-14.1909
▁ouchy	-14.1909
▁thoughtfulness	-14.191
▁Celia	-14.191
▁squawking	-14.191
▁ponytail	-14.1911
▁Cookie	-14.1916
whooshing	-14.1921
▁tend	-14.1924
▁caves	-14.1934
Jake	-14.1946
▁flashlights	-14.1959
▁mostly	-14.1964
▁shaving	-14.1972
▁crumble	-14.1973
▁assistant	-14.1974
▁grumpiness	-14.1974
▁opportunities	-14.1974
▁tangy	-14.1974
▁coiled	-14.1974
▁chugging	-14.1974
▁coast	-14.1974
▁calmness	-14.1975
everse	-14.1975
▁session	-14.1975
▁hopefully	-14.1976
▁Sale	-14.1982
▁Jessy	-14.1982
▁Making	-14.1986
▁Sweetie	-14.1988
▁jealousy	-14.1989
▁disappoint	-14.2037
▁confront	-14.2039
▁uneasy	-14.2039
▁Lana	-14.2039
▁supper	-14.2039
▁liking	-14.2039
▁Boris	-14.204
▁mailboxes	-14.204
▁boost	-14.2042
▁attacking	-14.2043
olly	-14.2043
▁Oxygen	-14.2052
▁flitt	-14.2055
▁notebooks	-14.2055
▁weave	-14.2056
▁Lu	-14.2075
▁screens	-14.2094
▁attract	-14.2103
▁stumbling	-14.2105
haw	-14.2105
▁blended	-14.2106
▁grandparent	-14.2109
▁Learning	-14.211
▁survived	-14.211
▁overnight	-14.2111
▁everytime	-14.2113
▁dearly	-14.2114
▁yay	-14.2119
▁fences	-14.2134
▁Wednesdays	-14.2135
Bear	-14.2143
reverse	-14.2143
On	-14.2146
▁paste	-14.2151
▁jingle	-14.2169
▁whil	-14.217
▁Mika	-14.2171
▁dazzling	-14.2171
▁lolly	-14.2171
▁beanstalk	-14.2171
▁ridden	-14.2171
▁persisted	-14.2171
▁Gizmo	-14.2171
▁Bessy	-14.2172
▁Dara	-14.2172
▁Moley	-14.2172
▁equal	-14.2174
▁goblin	-14.2174
▁sundae	-14.2174
▁bumblebee	-14.2175
▁cents	-14.2175
▁sentence	-14.2175
lung	-14.218
▁Scarlett	-14.2181
▁itches	-14.2183
▁sighing	-14.2185
▁shaken	-14.2193
▁warriors	-14.2206
▁flopp	-14.2208
Snowy	-14.221
▁clam	-14.2228
▁Goodnight	-14.2236
▁Petal	-14.2238
▁tidier	-14.2238
▁unsafe	-14.2238
▁unstuck	-14.2238
▁Tooth	-14.2238
▁attracted	-14.2239
▁Belinda	-14.2239
▁reflecting	-14.2239
toed	-14.224
œhello	-14.224
▁quitting	-14.2245
▁arriving	-14.2256
▁stomps	-14.2256
▁sinks	-14.2257
▁endless	-14.2258
▁surfed	-14.2258
Young	-14.2265
Grow	-14.2275
Drink	-14.2276
bang	-14.2277
▁mitts	-14.2278
Even	-14.2279
▁Doll	-14.2299
▁runners	-14.2302
▁reassuring	-14.2305
▁doorknob	-14.2305
▁forgetful	-14.2306
▁desire	-14.2308
▁marshmallow	-14.231
▁roofs	-14.2318
▁normally	-14.2323
▁thankfully	-14.233
▁Drink	-14.2332
▁Marc	-14.2365
▁Disappointed	-14.2373
▁territory	-14.2373
▁crisp	-14.2376
▁villain	-14.2378
▁surfer	-14.2379
▁compliments	-14.2382
▁Pa	-14.2399
▁jogs	-14.2409
itting	-14.2414
Sir	-14.242
▁Lea	-14.2427
ice	-14.2431
▁endings	-14.2439
▁brag	-14.2441
▁horrified	-14.2441
▁droopy	-14.2441
▁unzipped	-14.2441
▁pedalling	-14.2441
▁farmhouse	-14.2441
▁Cora	-14.2441
▁tumble	-14.2441
▁sharpened	-14.2442
▁permitting	-14.2444
▁rectangle	-14.2446
▁excuse	-14.2449
ari	-14.2449
▁floaties	-14.2456
Lying	-14.2457
▁sips	-14.2478
▁farms	-14.248
▁High	-14.2506
▁rash	-14.2509
▁dizziness	-14.2509
▁rattling	-14.2509
▁scoring	-14.2509
▁Dale	-14.2509
▁pawed	-14.2509
▁fetches	-14.2509
▁screeched	-14.2511
▁announcement	-14.2515
▁speeds	-14.2524
▁rounded	-14.2532
▁rhythms	-14.2543
▁dim	-14.2547
▁includes	-14.2559
▁shrimps	-14.2559
▁surfers	-14.2572
▁Juan	-14.2578
▁Sebastian	-14.2578
▁appointment	-14.2578
▁pruning	-14.2578
▁spatula	-14.2578
▁waddling	-14.2578
▁Wanda	-14.2578
▁sipping	-14.2578
▁Pine	-14.2578
▁Biff	-14.2578
▁tradition	-14.2583
▁hamburger	-14.2585
▁duckie	-14.2586
▁harshly	-14.259
▁sugary	-14.2596
▁Four	-14.2604
▁newest	-14.261
▁snowed	-14.2612
▁sizzle	-14.2647
▁uncover	-14.2647
▁stroking	-14.2647
▁unison	-14.2647
▁Mattie	-14.2648
▁Phillip	-14.2648
▁jiggled	-14.2648
▁stubbornness	-14.2648
▁Casey	-14.2648
▁mooing	-14.2651
▁creep	-14.2653
▁grade	-14.2654
▁heater	-14.2658
▁tiles	-14.2659
▁slippers	-14.266
Bunny	-14.2689
▁scribbles	-14.27
▁Trina	-14.2717
▁capable	-14.2718
▁Caleb	-14.2718
▁Scruffy	-14.2718
▁Black	-14.2722
▁curse	-14.2722
▁coaster	-14.2722
▁collapse	-14.2722
▁drummer	-14.2723
▁Chew	-14.2723
▁detail	-14.2723
new	-14.2725
▁playmate	-14.2726
▁Henny	-14.2728
ipper	-14.2743
▁dart	-14.2743
▁Bean	-14.2748
œWhen	-14.275
Pizza	-14.276
ira	-14.2763
▁sprinkling	-14.2788
▁surgery	-14.2788
▁drape	-14.2788
▁Cassie	-14.2788
▁Lyla	-14.2788
▁Donny	-14.2788
▁thrilling	-14.279
uacky	-14.279
œSometimes	-14.279
▁sharpen	-14.279
▁Dodo	-14.2792
▁tackle	-14.2793
▁Jellyfish	-14.2797
▁traveler	-14.2799
▁tacos	-14.282
▁wildly	-14.2821
Sammy	-14.2831
▁pee	-14.2845
▁register	-14.2857
▁bacon	-14.2859
▁moist	-14.2859
▁luckier	-14.2859
▁fortunate	-14.2859
▁Gently	-14.2861
▁forty	-14.2865
▁flick	-14.2865
▁wriggle	-14.2866
▁Everytime	-14.2866
▁Herb	-14.2869
▁Jesse	-14.287
▁Around	-14.2874
▁Bug	-14.2874
uit	-14.2878
▁bands	-14.2879
▁bun	-14.2881
▁Chocolate	-14.2882
▁pucker	-14.2896
▁roles	-14.2906
▁P	-14.2914
▁demands	-14.2915
Bobo	-14.2916
be	-14.2926
boos	-14.2927
▁pry	-14.2929
▁critters	-14.2929
▁bustling	-14.293
▁dangling	-14.293
▁shiniest	-14.293
▁volume	-14.293
▁bay	-14.293
▁matchbox	-14.293
▁Crane	-14.293
▁puffy	-14.2931
▁Deer	-14.2935
▁piglet	-14.2942
▁Spicy	-14.2948
▁rung	-14.2949
▁figur	-14.2959
ac	-14.2963
▁cultures	-14.2966
True	-14.2974
▁birdies	-14.2991
▁Work	-14.2992
▁SNAP	-14.3003
▁swingset	-14.3004
▁Giant	-14.3006
▁tougher	-14.3006
▁scraps	-14.3015
▁Yummy	-14.3019
▁appearing	-14.3025
▁somersaults	-14.3026
not	-14.3027
▁vows	-14.3037
▁trained	-14.3038
Want	-14.3052
▁protects	-14.3057
▁Fluff	-14.3074
▁clinic	-14.3075
▁internet	-14.3075
▁therapist	-14.3075
▁Lastly	-14.3075
▁trim	-14.3075
▁echoing	-14.3075
▁grasped	-14.3076
▁Otter	-14.3078
Greetings	-14.3079
there	-14.3079
▁potions	-14.3081
▁slither	-14.3082
▁crackle	-14.3082
▁propeller	-14.3083
▁teammates	-14.3085
▁due	-14.3102
ic	-14.3117
ddled	-14.3134
▁coughs	-14.314
▁Diane	-14.3148
▁Nikki	-14.3148
▁Paddy	-14.3148
▁Shirley	-14.3148
▁ointment	-14.3148
▁tinkling	-14.3148
▁death	-14.3148
ictory	-14.3148
▁yummier	-14.3148
▁wildlife	-14.3148
▁Chad	-14.3148
▁punched	-14.3148
▁chuckle	-14.3152
▁simplest	-14.3152
▁eater	-14.3155
▁closest	-14.3157
▁diaper	-14.3158
ow	-14.316
▁sniffles	-14.3161
▁markings	-14.3162
▁losers	-14.3163
▁fruity	-14.3177
▁spoilt	-14.3185
▁meetings	-14.3189
People	-14.3193
▁clu	-14.3196
▁cabinets	-14.3197
Choose	-14.3209
▁flush	-14.3219
▁surge	-14.322
▁guacamole	-14.3221
▁kettle	-14.3221
▁koala	-14.3221
▁Biscuit	-14.3221
▁fifteen	-14.3222
▁Clucky	-14.3222
▁Puffy	-14.3222
▁considered	-14.3222
▁sheepishly	-14.3222
▁Speed	-14.3226
▁weaving	-14.323
▁explosion	-14.3231
▁channel	-14.3232
▁Lions	-14.3238
ocks	-14.324
▁buyer	-14.3254
▁spelled	-14.326
Four	-14.3267
match	-14.3267
immy	-14.3276
▁cranes	-14.3279
▁insists	-14.3284
niversity	-14.3295
▁guiding	-14.3295
▁syringe	-14.3295
▁twinkly	-14.3295
▁protective	-14.3295
▁froggy	-14.3295
▁Lacy	-14.3295
▁bleated	-14.3295
▁Brady	-14.3296
▁trace	-14.3303
▁keyboard	-14.3304
▁waddle	-14.3305
▁Wa	-14.3305
▁option	-14.3307
▁patients	-14.3312
rays	-14.3319
▁Dogs	-14.3321
▁pe	-14.3323
▁forces	-14.3325
▁bins	-14.3327
▁encounter	-14.3369
▁insistent	-14.3369
▁curry	-14.337
▁spectacular	-14.337
▁variety	-14.337
▁gleefully	-14.337
▁replacement	-14.337
▁steadily	-14.337
▁Pole	-14.3371
▁cactuses	-14.3371
▁rent	-14.3371
▁bendy	-14.3373
▁Beef	-14.338
▁dam	-14.338
▁gnome	-14.338
▁Cluck	-14.3382
▁Hav	-14.3385
▁beams	-14.339
▁stations	-14.341
as	-14.341
Pass	-14.3416
Five	-14.3417
▁Car	-14.3417
▁vendors	-14.343
▁refuses	-14.3435
Over	-14.3437
▁recogniz	-14.3443
▁pressure	-14.3444
▁loaf	-14.3445
▁zigzagging	-14.3445
▁tingly	-14.3445
▁lavender	-14.3445
▁grandad	-14.3445
▁loss	-14.3445
▁swished	-14.3446
▁spiral	-14.3446
▁serves	-14.3452
ning	-14.3455
▁seahorse	-14.3456
▁gumball	-14.3457
▁chunk	-14.3458
▁Horse	-14.346
▁gadgets	-14.346
▁feeder	-14.3461
▁fate	-14.3464
ub	-14.3467
▁sliced	-14.3473
▁Li	-14.3477
ooh	-14.3482
freeze	-14.3492
Peter	-14.3492
Caw	-14.3493
▁va	-14.35
▁produce	-14.3503
▁scrapes	-14.3503
ie	-14.3507
▁electric	-14.3521
▁majesty	-14.3521
▁muttered	-14.3521
▁goldfish	-14.3521
▁underwear	-14.3521
▁whirred	-14.3521
▁carpenter	-14.3521
▁suitable	-14.3521
œAlright	-14.3522
▁Laser	-14.3523
▁wetness	-14.3523
pon	-14.353
▁peeling	-14.3531
▁ruby	-14.3531
▁sibling	-14.3535
▁Snake	-14.3544
▁chances	-14.3545
▁greener	-14.3547
P	-14.3551
▁braids	-14.3557
Sweet	-14.3569
▁sunburn	-14.3569
Poppy	-14.3569
ling	-14.3574
▁bullets	-14.3581
▁Archie	-14.3597
▁Felicity	-14.3597
▁hula	-14.3597
▁adjusted	-14.3598
▁juggled	-14.3599
▁Last	-14.3601
▁Skye	-14.3602
Nobody	-14.3605
▁Patience	-14.3609
▁difficulty	-14.3615
where	-14.3639
Cheese	-14.3646
Toby	-14.3646
Buddy	-14.3646
▁judged	-14.3646
▁echo	-14.3672
▁basil	-14.3674
▁blacksmith	-14.3674
▁obedience	-14.3674
▁sideways	-14.3674
▁strutted	-14.3674
▁partied	-14.3674
▁Wool	-14.3677
▁Gorilla	-14.3677
▁Climbing	-14.3681
ap	-14.3683
▁Celery	-14.3685
▁pal	-14.3688
▁repa	-14.3692
▁gardeners	-14.3696
▁Sami	-14.3707
dog	-14.3712
▁bandaid	-14.3717
Miss	-14.3722
Love	-14.3723
Lola	-14.3723
two	-14.3725
▁Far	-14.3744
▁disbelief	-14.3751
▁Joyce	-14.3752
▁longingly	-14.3752
▁wonderland	-14.3752
▁goalie	-14.3752
▁shyness	-14.3752
▁pounded	-14.3753
▁hooted	-14.3753
▁outrun	-14.3753
▁prick	-14.3764
▁firetruck	-14.3764
▁stitching	-14.3766
▁House	-14.3767
long	-14.3767
▁Great	-14.3774
▁Ball	-14.3784
▁mermaids	-14.3822
▁Blake	-14.383
▁compost	-14.383
▁personality	-14.383
▁wavy	-14.383
▁Friday	-14.383
▁whizzing	-14.383
▁wailed	-14.383
▁stressed	-14.383
▁Pauline	-14.383
▁Peach	-14.383
▁recognised	-14.383
▁Evan	-14.3832
▁Loyal	-14.3833
▁sis	-14.3833
▁crafted	-14.3835
▁meanie	-14.3837
▁torch	-14.384
▁pasture	-14.3844
▁spinach	-14.3847
▁sorrow	-14.3849
▁features	-14.385
▁nibbles	-14.3852
▁b	-14.3864
▁plums	-14.3872
▁habits	-14.3883
▁recite	-14.3883
Oil	-14.3887
▁threats	-14.3888
▁Guess	-14.39
Mandy	-14.39
elax	-14.3906
▁shimmer	-14.3906
▁witness	-14.3906
alue	-14.3908
eluctantly	-14.3908
▁Naomi	-14.3908
▁ticklish	-14.3908
▁whinnied	-14.3908
▁Bumble	-14.3908
▁latch	-14.3908
▁snarling	-14.3909
▁Clover	-14.3909
▁pranced	-14.3909
▁bristles	-14.3909
▁China	-14.3909
▁gentleman	-14.391
▁flicked	-14.391
▁someplace	-14.391
▁Officer	-14.391
▁policemen	-14.3911
▁tweeting	-14.3912
▁sprouted	-14.3912
▁clicking	-14.3917
▁copying	-14.3921
▁pound	-14.3923
▁belief	-14.3925
▁bared	-14.3925
▁bullet	-14.3925
▁coconuts	-14.3936
▁teaspoons	-14.3948
zoom	-14.3955
▁Fun	-14.3957
Bravo	-14.3959
▁gloom	-14.3964
▁moles	-14.3979
sky	-14.3985
▁Sabrina	-14.3988
▁gigantic	-14.3988
▁incident	-14.3988
▁melodies	-14.3988
▁Brooke	-14.3988
▁Misty	-14.3988
▁divided	-14.3989
▁arrival	-14.3989
▁crows	-14.3998
œDid	-14.4001
▁Butterflies	-14.4004
▁hairstyle	-14.4005
▁Apple	-14.4012
▁agreeing	-14.4021
œHe	-14.4029
Ella	-14.4039
three	-14.404
meow	-14.404
▁inspect	-14.4048
▁distress	-14.4067
▁Clarissa	-14.4068
▁Cleo	-14.4068
▁Miraculously	-14.4068
▁Pedro	-14.4068
▁valuing	-14.4068
▁zigzagged	-14.4068
▁buzzes	-14.4068
▁paintbrushes	-14.4068
▁pang	-14.4068
▁outsmart	-14.4068
▁whimpering	-14.4068
▁doghouse	-14.4073
▁Aren	-14.4081
▁Best	-14.4093
ok	-14.4098
▁sobs	-14.4098
▁meaner	-14.4104
Stir	-14.412
ouch	-14.4124
▁despair	-14.4148
▁fascination	-14.4148
▁sensible	-14.4148
▁clipboard	-14.4148
▁official	-14.4148
▁remarkable	-14.4148
▁ashore	-14.4148
▁blender	-14.4148
▁stash	-14.4148
▁Macy	-14.4149
▁pumped	-14.4151
▁Pasta	-14.4152
▁nighttime	-14.4154
▁vanishing	-14.4161
▁skateboard	-14.4161
ot	-14.4162
serted	-14.4166
▁brilliantly	-14.4169
▁Flower	-14.4173
▁bathrobes	-14.419
my	-14.4198
Bella	-14.4202
▁weed	-14.4202
▁squashed	-14.4205
ry	-14.4208
▁Lilah	-14.4219
▁mash	-14.422
▁terror	-14.4222
now	-14.4224
▁dismay	-14.4229
▁grasp	-14.4229
▁uncertain	-14.4229
▁pure	-14.4229
▁flagpole	-14.423
▁Lula	-14.423
▁directly	-14.423
▁locket	-14.423
▁grunted	-14.423
▁Bossy	-14.423
▁bid	-14.423
▁Loop	-14.4231
▁Lizard	-14.4232
▁Philip	-14.4233
▁Sprinkles	-14.4234
œYum	-14.4234
▁erased	-14.4235
▁minty	-14.4238
▁Higher	-14.4246
▁pathway	-14.425
▁ABCs	-14.4259
▁mango	-14.4263
▁skulls	-14.4277
Susie	-14.4283
▁slaps	-14.4288
▁unlocks	-14.4291
▁gaps	-14.4308
▁swell	-14.431
▁applied	-14.4312
▁glorious	-14.4312
▁hobbies	-14.4312
▁perseverance	-14.4312
▁barnyard	-14.4312
▁mopping	-14.4312
▁entertained	-14.4312
▁eagerness	-14.4312
▁hideaway	-14.4313
▁pouting	-14.4314
▁shooter	-14.4317
▁dandelions	-14.4318
▁Coffee	-14.4324
▁Pumpkin	-14.4332
▁jack	-14.4332
▁fewer	-14.4333
▁golfer	-14.4334
▁swipe	-14.4335
▁picky	-14.4337
God	-14.4352
pitched	-14.4366
Turn	-14.4366
▁Tad	-14.4381
Lion	-14.4386
▁adjust	-14.4392
Aww	-14.4394
▁Dean	-14.4394
▁arranging	-14.4394
▁handkerchief	-14.4394
Gotcha	-14.4394
▁silliest	-14.4394
▁chalkboard	-14.4394
▁Monday	-14.4395
▁trot	-14.4396
œAh	-14.4397
▁festivals	-14.4398
▁tailor	-14.4399
▁artists	-14.4405
▁spout	-14.4408
▁chug	-14.4409
▁scribble	-14.4414
▁Sheep	-14.4422
▁total	-14.4427
▁maths	-14.4433
▁sunsets	-14.4435
▁wisest	-14.444
▁evenly	-14.4441
covered	-14.445
▁Sharks	-14.4454
Show	-14.4454
▁containers	-14.4462
▁lo	-14.4468
▁hamburgers	-14.4469
rious	-14.4471
▁fortune	-14.4478
▁Genie	-14.4478
Toys	-14.4478
▁Glass	-14.4478
▁beekeeper	-14.4478
▁p	-14.4481
▁Lucie	-14.4484
▁wheeled	-14.4489
▁meanings	-14.4492
▁rhyme	-14.4498
▁Lego	-14.4498
▁areas	-14.45
▁Pirate	-14.4501
▁steaks	-14.4504
▁ooh	-14.4508
▁aims	-14.4508
▁exercised	-14.4509
Every	-14.4533
Ellie	-14.4533
rex	-14.4538
▁Frisky	-14.4562
▁Opal	-14.4562
▁parlor	-14.4562
▁referee	-14.4562
▁Marla	-14.4562
▁visible	-14.4562
▁washcloth	-14.4562
▁diligently	-14.4562
▁speechless	-14.4562
▁Jeffrey	-14.4562
▁Benji	-14.4564
▁obvious	-14.4565
▁beaches	-14.4571
▁casting	-14.4575
▁giants	-14.4578
ebra	-14.4589
▁Dreams	-14.4591
▁needing	-14.4604
▁laps	-14.4632
▁duckies	-14.4639
▁cash	-14.4646
▁windmill	-14.4646
▁Amazingly	-14.4646
▁Stacey	-14.4647
▁dying	-14.4647
▁splattered	-14.4647
▁medium	-14.4647
▁Berry	-14.4647
▁Miller	-14.4647
▁Smokey	-14.4648
▁Smiley	-14.4648
▁mightiest	-14.4648
▁rattled	-14.4648
▁helpfulness	-14.4648
▁cleverest	-14.4654
▁Forest	-14.4656
▁cheery	-14.4658
▁Hot	-14.4663
▁digger	-14.4667
▁youths	-14.4672
treating	-14.4689
Chocolate	-14.4703
▁greed	-14.4732
▁Month	-14.4732
▁Muffy	-14.4732
▁shifted	-14.4732
▁Alyssa	-14.4732
▁boldly	-14.4733
▁Addy	-14.4733
▁Step	-14.4735
▁strap	-14.4737
▁approaching	-14.4739
▁Different	-14.474
▁Gill	-14.4753
▁ladders	-14.4757
▁F	-14.4758
hoo	-14.4764
ASH	-14.4766
Baby	-14.479
▁u	-14.4793
▁spa	-14.4793
▁oar	-14.4797
▁parades	-14.4803
▁wilt	-14.4817
▁Lancelot	-14.4818
▁craziest	-14.4818
▁pyjamas	-14.4818
▁scarier	-14.4818
▁rowboat	-14.4818
▁eerie	-14.4818
▁glossy	-14.4818
▁tagged	-14.4818
▁Freckles	-14.4818
▁unscrewed	-14.4819
▁Miguel	-14.4819
▁Julian	-14.4823
▁errands	-14.4842
▁Chicken	-14.4846
▁Mind	-14.4848
▁leafy	-14.4849
▁croaks	-14.485
▁lad	-14.4856
▁Move	-14.4868
Stupid	-14.4875
minded	-14.4878
▁hasn	-14.4881
▁richest	-14.4901
▁cure	-14.4903
▁Ariel	-14.4905
▁Elisa	-14.4905
▁cockpit	-14.4905
▁galaxies	-14.4905
▁heartbeat	-14.4905
▁policy	-14.4905
▁typing	-14.4905
▁trustworthy	-14.4905
▁Miranda	-14.4905
▁Frightened	-14.4905
▁Marvin	-14.4905
▁shoebox	-14.4905
▁silverware	-14.4905
▁foil	-14.4905
▁mattresses	-14.4906
▁quickest	-14.4907
▁Lazy	-14.4908
▁neater	-14.4908
▁Flip	-14.4909
▁Crazy	-14.4917
▁toasty	-14.4921
▁finest	-14.4926
▁bossed	-14.4926
▁woodland	-14.4929
▁displays	-14.4934
▁Congratulations	-14.495
▁ruins	-14.4957
Shut	-14.4962
▁safest	-14.4963
Slow	-14.4964
Imagine	-14.4964
Soup	-14.4965
man	-14.4983
erry	-14.499
▁persuade	-14.4992
▁moss	-14.4993
▁illness	-14.4993
▁Bozo	-14.4993
▁professor	-14.4993
▁rummage	-14.4993
▁slingshot	-14.4993
▁grizzly	-14.4993
▁Leila	-14.4993
▁Laila	-14.4993
▁snored	-14.4994
▁harvested	-14.4995
▁pigtails	-14.4995
▁posed	-14.4997
▁reeds	-14.5001
▁Wild	-14.5001
▁Broccoli	-14.5004
▁Ty	-14.5012
▁groan	-14.5016
▁prisoner	-14.5018
▁engineer	-14.5021
Boom	-14.5042
Warning	-14.5052
▁showered	-14.5053
▁licenses	-14.5058
red	-14.5077
▁canes	-14.5079
▁react	-14.5079
▁describe	-14.508
▁unharmed	-14.5081
▁cork	-14.5081
▁savannah	-14.5081
▁Hilda	-14.5081
▁lioness	-14.5082
▁limping	-14.5082
œToday	-14.5083
œGreat	-14.5083
▁watchful	-14.5084
▁steamy	-14.5089
▁Listening	-14.509
▁planks	-14.5091
▁citizens	-14.5093
love	-14.5095
▁littlest	-14.5101
▁motorbike	-14.5107
▁poisoned	-14.5109
▁Swan	-14.5112
▁neared	-14.512
▁speakers	-14.5122
▁nailed	-14.5123
▁diet	-14.5124
▁Print	-14.514
▁conflicts	-14.5142
maybe	-14.5142
Ta	-14.5145
▁frighten	-14.517
▁Pierre	-14.5171
▁apologizing	-14.5171
▁massive	-14.5171
▁breathtaking	-14.5171
▁bubblegum	-14.5171
▁weaved	-14.5173
▁measures	-14.5175
▁prouder	-14.5178
▁wagons	-14.5182
▁slurp	-14.5193
▁plea	-14.5196
▁villager	-14.5206
▁Children	-14.5211
▁carpets	-14.5214
night	-14.5216
Enough	-14.5229
me	-14.5233
▁ladle	-14.5236
bird	-14.524
▁coo	-14.5256
▁Moment	-14.5259
▁knead	-14.526
▁Aiden	-14.5261
▁Amelie	-14.5261
▁aquarium	-14.5261
▁bonfire	-14.5261
▁July	-14.5261
▁unplugged	-14.5261
▁drumming	-14.5261
▁English	-14.5261
▁demonstrated	-14.5261
▁Snowflake	-14.5262
▁alas	-14.5262
▁flickered	-14.5262
▁octopuses	-14.5262
▁launched	-14.5263
▁giddy	-14.5264
▁Swimming	-14.5266
▁teases	-14.5269
▁skilled	-14.5275
la	-14.5281
▁flooding	-14.5283
gh	-14.5284
▁flipper	-14.5289
▁thousand	-14.5289
▁carving	-14.5291
▁dares	-14.5295
they	-14.5303
ni	-14.5317
▁slim	-14.5318
▁Y	-14.5318
happy	-14.5322
Polly	-14.5323
Dinner	-14.5324
Sh	-14.5325
▁handfuls	-14.5332
▁cob	-14.5349
▁Stu	-14.535
mon	-14.5351
▁Cole	-14.5351
▁Arnold	-14.5352
▁Ferris	-14.5352
▁Isabelle	-14.5352
▁Jemima	-14.5352
▁Maggy	-14.5352
▁smeared	-14.5352
▁threatening	-14.5352
▁Seal	-14.5353
œOne	-14.5356
▁Shrimp	-14.5358
▁swarm	-14.5361
▁badges	-14.5369
▁photographer	-14.5378
▁Yay	-14.5378
▁hesitate	-14.5378
▁rinses	-14.5383
▁Light	-14.5384
▁War	-14.5387
▁fabrics	-14.5407
▁diver	-14.5408
▁tulips	-14.5409
▁smoothed	-14.5409
▁Parrot	-14.5411
▁crop	-14.5416
yum	-14.5417
Fun	-14.5418
▁sentences	-14.5438
▁Dani	-14.544
ted	-14.544
▁Brandy	-14.5443
▁Derek	-14.5443
▁Lottie	-14.5443
▁grumpier	-14.5443
▁numb	-14.5443
▁revved	-14.5443
▁fearless	-14.5444
▁Buttercup	-14.5444
▁Bingo	-14.5446
▁Somewhere	-14.5447
▁Greeny	-14.5447
Life	-14.5454
▁imitate	-14.5455
▁Dolls	-14.5458
▁emotions	-14.547
▁France	-14.5474
b	-14.5486
▁bales	-14.5495
▁Home	-14.5495
Cheers	-14.5508
Momma	-14.5508
era	-14.5512
▁boundaries	-14.5536
▁cooperative	-14.5536
▁furthest	-14.5536
▁inspiration	-14.5536
▁Barkley	-14.5536
▁twitching	-14.5537
▁Nicole	-14.5537
▁Happiness	-14.5538
▁daydreaming	-14.5538
▁Potato	-14.5539
▁Especially	-14.5539
▁dumps	-14.5541
▁Whatever	-14.5553
▁Po	-14.5553
▁History	-14.556
▁storyteller	-14.5562
▁command	-14.5566
▁passage	-14.5566
œTom	-14.5567
▁princes	-14.5569
▁brim	-14.5587
Park	-14.5601
because	-14.5602
▁collections	-14.5605
ar	-14.5606
▁patched	-14.5613
ball	-14.5614
▁Apples	-14.562
▁involve	-14.5628
▁courtyard	-14.5629
▁eldest	-14.5629
▁transformation	-14.5629
▁speckled	-14.5629
▁Priscilla	-14.5629
▁public	-14.5629
▁Dinah	-14.563
▁Titi	-14.563
▁shoved	-14.563
▁Hard	-14.563
▁cooing	-14.563
▁Trouble	-14.5631
▁Fast	-14.5631
▁seaside	-14.5631
œyes	-14.5631
lapped	-14.5632
▁peaked	-14.5633
œthank	-14.5633
▁poof	-14.5634
▁upcoming	-14.5634
▁Cooking	-14.5637
▁hunted	-14.5647
œSorry	-14.5654
▁tons	-14.5656
▁role	-14.5661
Could	-14.5696
▁painters	-14.5711
▁battles	-14.5721
▁Trudy	-14.5724
▁frilly	-14.5724
▁funnier	-14.5724
▁origami	-14.5724
▁sixty	-14.5724
▁recently	-14.5724
▁Elmo	-14.5724
▁mopped	-14.5724
▁moose	-14.5725
▁crumbled	-14.5725
▁Gun	-14.5726
▁lowest	-14.5727
▁brightness	-14.5728
œGoodbye	-14.5728
side	-14.573
œMax	-14.5733
▁Toot	-14.5742
▁punishing	-14.5747
boom	-14.575
▁swift	-14.5751
▁tournament	-14.5753
▁dribble	-14.5753
▁professional	-14.5754
▁perspective	-14.5755
▁Besides	-14.5755
▁phrase	-14.5755
▁sprinkler	-14.5756
▁Bull	-14.5756
▁Clown	-14.5757
▁earring	-14.5758
▁Carrot	-14.576
▁Shark	-14.5766
▁taxis	-14.5768
Ann	-14.5791
▁razors	-14.5791
came	-14.5795
▁pathways	-14.5796
▁W	-14.5803
▁scenes	-14.5803
▁Nap	-14.581
▁villains	-14.5811
▁posts	-14.5812
▁sons	-14.5817
▁clang	-14.5818
▁doze	-14.5819
occo	-14.5819
▁shaping	-14.5819
▁meaningful	-14.5819
▁Lolly	-14.5819
▁chessboard	-14.5819
▁ferri	-14.5819
▁eachother	-14.582
▁clucking	-14.5821
▁produced	-14.5821
▁prefer	-14.5824
œDad	-14.5824
œThose	-14.5824
▁suggestions	-14.5824
▁wary	-14.5826
▁grasses	-14.5835
▁heavens	-14.5836
▁manner	-14.5841
▁Bud	-14.5853
▁gown	-14.5862
▁Climb	-14.5863
▁plugs	-14.5864
▁wrinkles	-14.587
NO	-14.5877
working	-14.5878
▁huff	-14.5878
▁blossoms	-14.588
Play	-14.5885
Teacher	-14.589
▁grave	-14.591
▁gallop	-14.5913
▁Bunbun	-14.5915
▁French	-14.5915
▁cabbage	-14.5915
▁chief	-14.5915
▁harbour	-14.5915
▁hungrily	-14.5915
▁jigsaw	-14.5915
▁farmyard	-14.5915
Blood	-14.5915
▁armour	-14.5915
▁Foreshadowing	-14.5915
▁Harvey	-14.5916
▁Dotty	-14.5916
▁smoothness	-14.5916
▁Hunter	-14.5917
▁perhaps	-14.5917
▁Judge	-14.5917
▁skated	-14.5918
▁Daughter	-14.5918
▁New	-14.5926
▁Match	-14.5926
▁canary	-14.5929
▁Watching	-14.5931
▁Scissors	-14.5936
▁cameras	-14.5941
▁Throw	-14.5943
▁seatbelts	-14.5957
▁performances	-14.5958
▁Glow	-14.5965
▁Ducks	-14.5978
Big	-14.5984
aya	-14.5992
▁blend	-14.601
▁practise	-14.6011
▁Sonia	-14.6012
▁confetti	-14.6012
▁extinguisher	-14.6012
▁hammock	-14.6012
eith	-14.6012
▁fairytale	-14.6012
▁madder	-14.6012
▁creaky	-14.6013
▁Connor	-14.6014
▁searches	-14.6015
▁Ten	-14.6016
▁roasting	-14.6016
▁Amie	-14.6016
▁Sack	-14.6016
▁Painting	-14.6019
▁cheeky	-14.602
▁temper	-14.6025
▁Pin	-14.603
▁weakly	-14.6041
▁layers	-14.6046
▁Five	-14.6049
▁sparked	-14.6057
mine	-14.6072
▁dents	-14.6075
▁doubt	-14.6076
▁leftover	-14.6078
Sounds	-14.608
Pick	-14.6081
Bobby	-14.6082
▁freeing	-14.6083
pped	-14.6087
▁Story	-14.6089
▁menus	-14.6094
itten	-14.6106
▁fizz	-14.6109
▁dew	-14.611
▁ditch	-14.611
▁Lance	-14.611
▁Nala	-14.611
▁convincing	-14.611
▁spool	-14.611
▁Pippy	-14.611
▁raspberry	-14.611
▁mid	-14.611
▁Navy	-14.6111
▁former	-14.6111
▁rushes	-14.6111
▁swooping	-14.6112
▁Lewis	-14.6113
▁Ink	-14.6113
▁handling	-14.6115
▁Barber	-14.6116
▁zap	-14.6117
▁Cocoa	-14.6119
▁Alligator	-14.613
▁buttery	-14.6135
▁chant	-14.6141
▁blossom	-14.6145
▁Claw	-14.6146
▁raindrop	-14.6147
ico	-14.6148
▁Giraffe	-14.6148
▁rudely	-14.6158
men	-14.6164
▁fished	-14.6165
Wisdom	-14.6181
Tomorrow	-14.6181
Pretty	-14.6181
Throw	-14.6181
Grace	-14.6181
rd	-14.6181
sized	-14.6183
▁transport	-14.6209
▁cafeteria	-14.6209
▁main	-14.6209
▁recycling	-14.6209
▁tragedy	-14.6209
▁waggy	-14.6209
▁recital	-14.6209
▁wealthier	-14.6209
▁Teresa	-14.6209
▁duty	-14.6209
▁mumbled	-14.6209
▁handyman	-14.621
▁dreamland	-14.621
▁Blinky	-14.621
▁Jenkins	-14.6211
▁Purr	-14.6212
▁boatman	-14.6213
▁puffing	-14.6214
Sit	-14.6217
▁whistler	-14.6219
▁rust	-14.622
▁Lunch	-14.6221
ending	-14.6221
Woo	-14.6243
▁roundabout	-14.6243
▁concern	-14.6244
▁whimper	-14.6244
▁ripple	-14.6246
▁tulip	-14.6247
▁effect	-14.6247
▁chore	-14.6247
▁tilt	-14.6248
Wheee	-14.6271
baa	-14.628
Splash	-14.6281
Pay	-14.6293
▁continues	-14.6295
eating	-14.6302
▁snooze	-14.6308
▁Fritz	-14.6309
▁Harper	-14.6309
▁Lord	-14.6309
▁observant	-14.6309
▁fiery	-14.6309
▁Georgia	-14.6309
▁Steph	-14.6309
▁sulked	-14.631
▁Ahead	-14.631
▁scowling	-14.631
▁Jana	-14.631
▁kilos	-14.631
▁Dark	-14.631
▁flickering	-14.6311
▁jingled	-14.6311
▁Said	-14.6312
▁blasted	-14.6319
▁woolly	-14.6324
▁Popcorn	-14.6324
▁helplessly	-14.6329
ers	-14.6347
▁benefit	-14.6347
▁Stars	-14.6351
▁pew	-14.6352
▁breathes	-14.636
▁ached	-14.636
▁accomplishments	-14.6378
▁arc	-14.6379
Exit	-14.6381
Promise	-14.6382
goodbye	-14.6382
▁begins	-14.6386
H	-14.6391
na	-14.6392
▁attend	-14.6408
▁soothe	-14.6409
▁underestimate	-14.6409
▁Marta	-14.641
▁merrily	-14.641
▁tennis	-14.641
▁Tigger	-14.641
▁Natalie	-14.641
▁Sydney	-14.641
▁peddled	-14.6411
▁Della	-14.6411
▁hired	-14.6411
▁politeness	-14.6411
▁pits	-14.6411
▁heeded	-14.6412
▁Driver	-14.6413
▁baaed	-14.6414
▁ripest	-14.6415
▁tucking	-14.6416
▁East	-14.642
▁Yuck	-14.6424
▁chemicals	-14.6426
▁angle	-14.6427
▁Soap	-14.6432
▁limp	-14.6447
▁combination	-14.6449
▁Gas	-14.6479
▁scanne	-14.648
Water	-14.6484
four	-14.6484
Find	-14.6485
Buzz	-14.6495
▁strongly	-14.6502
▁console	-14.6511
air	-14.6511
▁punch	-14.6512
ylie	-14.6512
▁untidy	-14.6512
▁tv	-14.6512
▁fabulous	-14.6512
▁devoured	-14.6512
▁Meena	-14.6513
▁Dennis	-14.6513
▁yeah	-14.6513
▁outsmarted	-14.6514
▁sidelines	-14.6514
Son	-14.6518
▁Mya	-14.6521
▁Wine	-14.6526
▁hummingbird	-14.6547
▁bandana	-14.6549
▁daydream	-14.655
▁spinner	-14.6552
▁cleanest	-14.6553
▁re	-14.6579
▁posted	-14.6582
Yield	-14.6587
Share	-14.6587
Andy	-14.6597
▁ducky	-14.6605
▁porcupine	-14.6615
▁shepherd	-14.6615
▁relaxation	-14.6615
▁system	-14.6615
▁Luisa	-14.6616
▁swordfish	-14.6616
▁toppled	-14.6616
▁straightened	-14.6616
▁sharpening	-14.6617
▁Witch	-14.6617
▁butcher	-14.6617
elease	-14.6618
▁Shiny	-14.6618
▁stumbles	-14.6626
▁intentions	-14.6634
▁exception	-14.6636
▁darkest	-14.6639
Ding	-14.6644
▁Teacher	-14.6646
▁sunbeam	-14.6657
▁mitt	-14.6657
▁Stripe	-14.6657
▁collector	-14.6657
?''	-14.666
▁donut	-14.666
▁Worms	-14.6665
▁cleverly	-14.667
▁reindeers	-14.6672
Chirp	-14.6691
six	-14.6711
▁sooo	-14.6711
Woah	-14.6719
▁eternity	-14.672
▁fragrant	-14.672
▁hilarious	-14.672
▁Brett	-14.672
uthie	-14.672
▁cooperation	-14.672
▁Blossom	-14.672
▁Easter	-14.672
▁packs	-14.672
▁smudged	-14.672
▁Square	-14.6722
▁anniversary	-14.6724
▁Jumping	-14.6727
▁beady	-14.6727
▁Golf	-14.6727
▁justice	-14.6731
▁bolts	-14.6732
?'.	-14.6732
▁treetops	-14.6734
▁Danger	-14.6736
▁playdough	-14.6738
sses	-14.6743
▁Pinch	-14.6743
▁delicately	-14.6746
▁Napp	-14.6749
▁squirm	-14.676
▁kayaks	-14.676
▁disease	-14.6761
▁cartwheels	-14.677
gly	-14.6779
friend	-14.6788
OA	-14.6794
awr	-14.6803
▁ramps	-14.6809
iko	-14.6816
▁avail	-14.6825
▁dragonflies	-14.6825
▁garlic	-14.6825
▁virtue	-14.6825
▁judgement	-14.6825
▁tipping	-14.6825
▁persevered	-14.6825
▁virus	-14.6825
▁Jacklyn	-14.6825
œlet	-14.6826
▁swatte	-14.6827
▁Honest	-14.6829
▁Boots	-14.6835
▁brownies	-14.6837
ded	-14.6838
ful	-14.6845
▁clicks	-14.6846
▁treating	-14.6846
▁fellow	-14.6847
▁Sing	-14.6852
▁grilling	-14.6864
▁limit	-14.6868
▁parcel	-14.6868
▁gemstone	-14.6868
▁shoelace	-14.6869
▁bound	-14.6871
▁Truck	-14.6875
away	-14.6895
Anything	-14.6903
nine	-14.6903
▁mow	-14.6929
▁graze	-14.693
▁coax	-14.693
▁inquisitive	-14.6931
▁miners	-14.6931
▁Graham	-14.6931
responsibilities	-14.6931
▁appreciating	-14.6931
▁unhealthy	-14.6931
▁Dilly	-14.6931
▁payment	-14.6932
▁soothed	-14.6932
▁Flame	-14.6933
▁Minty	-14.6933
▁daycare	-14.6935
seven	-14.6935
▁Food	-14.6943
▁complaints	-14.6951
how	-14.6955
▁collars	-14.6957
▁basics	-14.6958
▁poorly	-14.6968
▁Lil	-14.6972
▁tiptoe	-14.6974
▁thaw	-14.6975
azor	-14.6975
▁preparation	-14.6976
▁Crocodile	-14.6978
way	-14.6982
▁gods	-14.6982
ingo	-14.6983
▁tart	-14.699
▁trainer	-14.6998
▁Margo	-14.7001
Marry	-14.7009
Almost	-14.701
Six	-14.701
Doggy	-14.7011
making	-14.7014
eight	-14.702
▁bob	-14.7024
▁decrease	-14.7037
▁Fay	-14.7039
▁Cautiously	-14.7039
▁Dorothy	-14.7039
▁drunk	-14.7039
▁flesh	-14.7039
▁memorable	-14.7039
▁responsibly	-14.7039
▁reddest	-14.7039
▁Marge	-14.7039
▁downstream	-14.7039
▁Franny	-14.7039
▁satisfying	-14.7039
▁Stuart	-14.7039
▁mowing	-14.704
▁Somehow	-14.704
▁blossomed	-14.704
▁smashing	-14.7041
▁Mousey	-14.7041
▁Anchor	-14.7042
▁strangely	-14.7044
▁huh	-14.7044
▁entirely	-14.7045
▁blouses	-14.7047
▁Fill	-14.7049
▁pondered	-14.7052
eal	-14.7053
▁Blocks	-14.7054
▁neighs	-14.7062
▁leaks	-14.7063
▁Yield	-14.7069
oll	-14.7079
▁honestly	-14.708
▁heap	-14.7084
▁strive	-14.7087
▁beats	-14.7103
▁snacking	-14.7112
James	-14.7119
Luna	-14.7119
well	-14.712
▁itching	-14.7132
▁grades	-14.7136
▁quench	-14.7146
▁Clyde	-14.7147
▁fancier	-14.7148
▁pleading	-14.7148
▁Gerald	-14.7148
▁Above	-14.7148
▁Pixie	-14.7148
▁moldy	-14.7148
▁Gavin	-14.7148
œwhat	-14.7149
▁Chester	-14.7149
Baking	-14.715
œTime	-14.715
▁Mushroom	-14.7151
▁fishies	-14.7152
▁grind	-14.7162
Bees	-14.7165
▁pranks	-14.7167
▁orderly	-14.7168
▁stubbornly	-14.7175
▁pickle	-14.719
▁volunteer	-14.7191
▁exist	-14.7193
▁client	-14.7194
▁Paper	-14.7196
▁dusting	-14.7202
▁speeded	-14.7213
George	-14.7229
Gas	-14.7232
History	-14.7236
ily	-14.7246
▁chorus	-14.7256
▁divide	-14.7256
▁triumphant	-14.7257
▁Gabe	-14.7257
▁choking	-14.7257
▁tattered	-14.7257
▁hiking	-14.7257
▁knitted	-14.7257
▁headband	-14.7257
▁vain	-14.7257
▁trotting	-14.7258
▁fame	-14.7258
▁Trixie	-14.7258
▁flushed	-14.7259
▁BEEP	-14.726
▁Steak	-14.7264
▁leaders	-14.7272
▁Tap	-14.7279
▁onboard	-14.7283
▁provides	-14.7297
▁lure	-14.7305
▁bale	-14.7306
Hmmm	-14.7311
▁Adventure	-14.7313
Trying	-14.7324
▁fighter	-14.7324
▁unroll	-14.7327
▁thundering	-14.7331
Yippee	-14.7339
Spicy	-14.734
elderly	-14.734
yield	-14.734
Ducky	-14.734
ready	-14.7342
▁admires	-14.7352
light	-14.7357
▁beavers	-14.7361
▁Jada	-14.7368
▁Majesty	-14.7368
▁Morty	-14.7368
▁dashboard	-14.7368
▁qualities	-14.7368
▁snout	-14.7368
▁Barbara	-14.7368
▁shimmery	-14.7369
▁tender	-14.7369
▁reassuringly	-14.7369
▁wizards	-14.7369
▁aiming	-14.7371
Winning	-14.7372
œit	-14.7373
▁Mari	-14.7379
▁campers	-14.738
▁Tonight	-14.7389
▁stinging	-14.739
▁Prunes	-14.7393
▁tissues	-14.7395
▁splashy	-14.7405
▁Mop	-14.7408
▁lightbulb	-14.7412
▁drained	-14.7414
▁wheelchair	-14.7415
▁recommendations	-14.7418
▁Pigeon	-14.7421
▁relationships	-14.7422
▁w	-14.7442
▁dozen	-14.7451
Believe	-14.7452
Danny	-14.7453
mail	-14.7456
Whoever	-14.7474
▁flexibility	-14.7481
▁barbershop	-14.7481
▁briefcase	-14.7481
▁elves	-14.7481
▁snoozing	-14.7481
▁scariest	-14.7481
▁choppy	-14.7481
▁stooped	-14.7481
▁ringmaster	-14.7481
▁tame	-14.7481
▁Mixy	-14.7481
▁Scared	-14.7482
iya	-14.7482
œYeah	-14.7485
▁ticked	-14.7486
▁competed	-14.7488
▁overalls	-14.7489
▁wildest	-14.749
▁Learn	-14.749
▁Deaf	-14.7492
▁bursting	-14.7496
▁flutes	-14.7496
▁Sour	-14.7498
moo	-14.7503
▁Bring	-14.7504
ive	-14.7506
Aha	-14.7507
▁tadpoles	-14.7512
▁generations	-14.7522
▁rancher	-14.7529
▁title	-14.7531
▁milkshake	-14.7531
▁looping	-14.7533
iest	-14.7537
▁Paint	-14.7537
▁souvenirs	-14.7561
Spray	-14.7566
Math	-14.7566
▁shivers	-14.7576
▁squint	-14.7592
▁unfold	-14.7592
▁scuttl	-14.7594
▁assistance	-14.7594
▁betrayed	-14.7594
▁failure	-14.7594
▁hydrant	-14.7594
▁receipt	-14.7594
▁adventuring	-14.7594
▁Taffy	-14.7594
▁hospitality	-14.7595
▁backseat	-14.7595
▁galloping	-14.7595
▁gentlemen	-14.7596
▁polishes	-14.7596
▁sucking	-14.7596
▁choked	-14.7597
▁numbering	-14.7597
▁Clay	-14.7597
▁Lumber	-14.7598
▁housework	-14.76
▁artifacts	-14.7603
▁Freda	-14.7606
▁sharper	-14.7609
▁waft	-14.7613
nock	-14.7614
▁Start	-14.7627
▁plum	-14.7637
▁racecar	-14.7645
▁products	-14.7647
▁noodle	-14.7647
▁celebrations	-14.7655
▁angles	-14.7665
down	-14.7667
▁trumpeted	-14.767
▁Frances	-14.7672
▁Aly	-14.7705
▁Whe	-14.7707
▁misbehave	-14.7708
▁research	-14.7708
▁uneven	-14.7709
▁Sylvester	-14.7709
▁thirteen	-14.7709
▁instructed	-14.7709
▁jewellery	-14.7709
▁Moira	-14.7709
▁difficulties	-14.771
œNot	-14.771
▁glinted	-14.771
▁Fierce	-14.7711
œLucy	-14.7712
▁fitted	-14.7712
▁Sunflower	-14.7713
▁deliciousness	-14.7713
▁Willa	-14.7716
▁meantime	-14.7718
keeper	-14.772
▁Matches	-14.7722
wee	-14.7735
▁controller	-14.7758
▁wrinkle	-14.7762
▁La	-14.7788
▁sacked	-14.7788
▁anchors	-14.7791
check	-14.7795
Mail	-14.7797
repeat	-14.7797
Butterfly	-14.7797
▁j	-14.7798
Joey	-14.7821
▁speech	-14.7825
▁fourteen	-14.7826
▁Mallory	-14.7826
▁ninety	-14.7826
▁sheriff	-14.7826
▁spicies	-14.7826
▁townsfolk	-14.7826
▁pausing	-14.7826
▁Danielle	-14.7826
▁marvelous	-14.7826
▁boredom	-14.7826
▁Sully	-14.7826
▁Anthony	-14.7826
▁jingling	-14.7826
▁Hood	-14.7826
▁pier	-14.7826
▁unfreeze	-14.7827
▁leashes	-14.7828
▁Andrea	-14.7828
▁growth	-14.7828
▁crunched	-14.783
▁mmm	-14.7832
▁Bridget	-14.7833
hold	-14.7842
▁Skeleton	-14.7844
▁Delicious	-14.785
▁Hal	-14.7852
▁trades	-14.7865
▁earthworm	-14.7878
▁hopper	-14.788
▁Luca	-14.7881
Mind	-14.7895
Sweetheart	-14.7915
grandma	-14.7915
woof	-14.7915
▁consider	-14.7941
Ancient	-14.7943
▁Nevertheless	-14.7943
▁ferry	-14.7943
▁Elena	-14.7943
▁smack	-14.7943
▁grime	-14.7943
▁Slimy	-14.7943
▁renewed	-14.7943
▁rubble	-14.7943
▁password	-14.7943
▁Horsy	-14.7944
▁Chippy	-14.7944
F	-14.7951
▁safaris	-14.7951
▁antennas	-14.7989
▁grilled	-14.7995
▁restaurants	-14.7997
▁traveller	-14.7998
▁oval	-14.7999
▁rafting	-14.8003
▁Flea	-14.8005
▁hallways	-14.8005
▁cooling	-14.8009
▁pom	-14.801
cross	-14.801
▁swimmers	-14.8012
▁Elliot	-14.8025
Ahhh	-14.8028
▁pity	-14.8028
Lost	-14.8034
▁Snakes	-14.805
▁transform	-14.806
▁scowl	-14.806
▁stormed	-14.8061
▁caretaker	-14.8062
▁unattended	-14.8062
▁vivid	-14.8062
▁accessory	-14.8062
▁rainstorm	-14.8062
▁Cory	-14.8062
▁arose	-14.8062
▁north	-14.8063
▁Denny	-14.8063
▁storeowner	-14.8063
▁Louisa	-14.8063
▁Starry	-14.8063
▁fairness	-14.8064
▁screeching	-14.8065
▁disobeying	-14.8066
▁Steam	-14.8066
▁modestly	-14.8082
▁Fireworks	-14.8082
▁belonging	-14.8102
▁leaked	-14.8104
▁opener	-14.811
▁Guard	-14.812
▁Wind	-14.8128
help	-14.8154
Paul	-14.8154
▁prop	-14.8164
▁apologise	-14.8182
Excellent	-14.8183
▁Troy	-14.8183
▁altogether	-14.8183
▁hesitating	-14.8183
▁limeade	-14.8183
▁drenched	-14.8183
▁Allowed	-14.8183
▁Cotton	-14.8183
▁extended	-14.8183
▁fifth	-14.8183
▁Bally	-14.8183
▁advised	-14.8183
eke	-14.8183
▁stranded	-14.8183
onny	-14.8184
▁swish	-14.8185
▁swor	-14.8185
▁attempted	-14.8186
œYummy	-14.8186
▁Ghost	-14.8186
▁adopted	-14.8186
▁Night	-14.8187
▁freshest	-14.8187
us	-14.8188
▁Cop	-14.8189
▁shutting	-14.82
Frog	-14.8213
▁Clouds	-14.8247
▁Half	-14.8248
▁bases	-14.8253
▁flowery	-14.8263
green	-14.8273
Pink	-14.8277
Fight	-14.8277
leaf	-14.8277
Ball	-14.8277
ha	-14.8279
▁eyed	-14.8294
ye	-14.8302
▁recover	-14.8302
▁fulfill	-14.8303
▁oblige	-14.8304
▁unpleasant	-14.8304
▁intense	-14.8304
▁engulf	-14.8305
▁Nanny	-14.8305
▁infected	-14.8305
▁occurred	-14.8305
▁rosemary	-14.8305
▁cancelled	-14.8305
▁seventy	-14.8305
▁shrugging	-14.8305
▁Duckie	-14.8305
nknown	-14.8305
▁deliveries	-14.8305
▁Abbey	-14.8305
▁quarrelled	-14.8306
▁Cell	-14.8306
▁amounts	-14.8306
œLittle	-14.8306
▁handcuffs	-14.8307
▁puckered	-14.8307
▁oinked	-14.8307
▁elsewhere	-14.8308
▁archery	-14.831
ey	-14.8319
▁Boat	-14.8322
▁Grant	-14.8323
ainbows	-14.8342
▁shove	-14.835
▁culture	-14.8366
▁spreads	-14.8366
▁afterward	-14.8367
▁camels	-14.8375
▁J	-14.8386
ever	-14.8394
Aunt	-14.84
Lilly	-14.84
As	-14.8401
Oink	-14.8401
ew	-14.8402
▁Teach	-14.8406
▁forms	-14.8413
are	-14.8419
▁Clean	-14.842
▁swallows	-14.8424
▁possibl	-14.8427
▁Angus	-14.8428
▁dribbling	-14.8428
▁junkyard	-14.8428
▁constantly	-14.8428
▁chomped	-14.8428
▁Lamb	-14.8429
▁Olaf	-14.8429
▁priceless	-14.8429
▁Denise	-14.8429
▁invented	-14.8429
▁Walking	-14.843
▁rudeness	-14.843
▁ripping	-14.843
▁core	-14.843
▁vacuumed	-14.8431
▁longing	-14.8435
œExc	-14.8439
▁shortly	-14.8443
▁amazingly	-14.8444
▁encourages	-14.8448
▁willow	-14.8448
▁floods	-14.8448
▁fashions	-14.8471
ch	-14.8472
▁Nat	-14.8474
▁Anny	-14.8485
alfway	-14.8486
ivi	-14.8487
▁violet	-14.849
▁ruff	-14.849
▁carrier	-14.8491
▁gut	-14.8492
▁Oyster	-14.8495
▁Cloud	-14.8496
▁raged	-14.8498
▁Lemon	-14.8498
▁leftovers	-14.8508
▁truthful	-14.8517
Books	-14.8542
▁glint	-14.8551
adish	-14.8553
nives	-14.8553
▁clumsily	-14.8553
▁disrespectful	-14.8553
▁rollercoaster	-14.8553
▁unity	-14.8553
▁Tubby	-14.8553
▁clubhouse	-14.8553
▁shrieked	-14.8554
▁walker	-14.8554
▁portal	-14.8554
ollie	-14.8554
▁Honesty	-14.8558
▁curling	-14.856
here	-14.8562
▁replying	-14.8572
maker	-14.8573
▁ensure	-14.8575
▁Jena	-14.8577
▁Words	-14.8577
▁bossing	-14.8578
doh	-14.8581
▁coldest	-14.8583
▁bakers	-14.8589
▁fasten	-14.8596
▁stamping	-14.8609
▁feat	-14.8615
▁fragrance	-14.8615
oice	-14.8617
▁improvement	-14.8617
fives	-14.8634
STOP	-14.865
Fish	-14.8651
sometimes	-14.8651
Henry	-14.8651
blue	-14.8652
behaved	-14.8652
Sophie	-14.8655
yay	-14.8657
Before	-14.8659
yla	-14.8665
nyone	-14.867
▁Deep	-14.8676
atrina	-14.868
▁Allison	-14.868
▁blaring	-14.868
▁clumsiness	-14.868
▁elated	-14.868
▁gluing	-14.868
▁kindergarten	-14.868
▁kitties	-14.868
▁squiggly	-14.868
▁strumming	-14.868
▁summit	-14.868
▁width	-14.868
▁Beaky	-14.868
▁colony	-14.868
▁drawbridge	-14.868
▁Blacky	-14.868
▁rainwater	-14.868
▁gracefulness	-14.868
▁Band	-14.868
▁Pepe	-14.8681
▁Blaze	-14.8681
▁pleasantly	-14.8681
▁shaved	-14.8685
▁regretting	-14.8686
▁cargo	-14.8695
▁Iris	-14.8698
▁secured	-14.87
▁Hide	-14.8702
▁peep	-14.8707
?'"	-14.8708
▁brat	-14.8718
▁superpowers	-14.872
Arr	-14.8729
▁hens	-14.8729
▁marrying	-14.8741
▁parachute	-14.8743
▁smudge	-14.8744
▁Acorn	-14.8745
▁Missile	-14.8746
od	-14.8748
▁vow	-14.8748
▁Beetle	-14.8749
œbu	-14.8761
▁commands	-14.8766
▁Novel	-14.8771
▁Swans	-14.8773
▁rhymes	-14.8775
stand	-14.8777
Wheeee	-14.8779
Mister	-14.878
▁Cut	-14.878
▁chunks	-14.8786
onnie	-14.8798
▁frost	-14.8806
▁require	-14.8807
Ladies	-14.8808
▁Snappy	-14.8808
▁previous	-14.8808
▁sizzling	-14.8808
▁toucan	-14.8808
▁Bumpy	-14.8808
nknowingly	-14.8808
▁hairbrush	-14.8808
▁Scout	-14.8808
▁Tuffy	-14.8808
▁strained	-14.8808
▁haunted	-14.8808
▁Flynn	-14.8809
▁Gertrude	-14.8809
▁Grandfather	-14.8809
▁Fireman	-14.8809
▁overcoming	-14.881
▁pinecones	-14.881
▁marches	-14.8811
▁Bald	-14.8811
▁Success	-14.8811
▁fainted	-14.8816
▁Power	-14.8816
▁Drawing	-14.8817
▁drips	-14.8831
▁Honk	-14.8835
▁gazes	-14.8838
▁Catch	-14.8841
x	-14.8849
▁detectives	-14.886
▁achievements	-14.8866
▁Lili	-14.8872
▁splinter	-14.8873
▁relationship	-14.8875
▁classmate	-14.8875
▁cartwheel	-14.8879
▁questioning	-14.888
▁booms	-14.8908
lantern	-14.891
▁Emi	-14.8934
▁Granddad	-14.8938
▁Luis	-14.8938
▁coyote	-14.8938
▁galaxy	-14.8938
▁passerby	-14.8938
▁preferences	-14.8938
▁vigorously	-14.8938
▁Debby	-14.8938
▁Angelina	-14.8938
▁slumped	-14.8938
▁marketplace	-14.8938
▁ahhed	-14.8938
▁realising	-14.8938
▁bellowed	-14.8938
▁Shawn	-14.8938
▁Tanya	-14.8938
▁Mario	-14.8939
▁claimed	-14.8939
▁Aria	-14.8939
▁nervousness	-14.8939
▁squishing	-14.8941
Girls	-14.8943
▁healer	-14.8944
▁Flexible	-14.8944
▁Ama	-14.8946
▁Add	-14.8949
▁exited	-14.8972
▁hotdogs	-14.8982
▁sparklers	-14.899
▁Dolphins	-14.8992
▁N	-14.8998
▁slope	-14.9005
▁Oat	-14.9014
unning	-14.9016
▁pil	-14.9017
▁Bit	-14.9021
▁pauses	-14.9022
▁Lo	-14.9032
zip	-14.9033
Aaaah	-14.9036
dong	-14.9041
œBob	-14.9041
Maggie	-14.9042
March	-14.9042
Sweetie	-14.9043
▁disagreements	-14.9054
▁twitch	-14.9062
▁whirl	-14.9067
▁cycle	-14.9068
▁reluctant	-14.9069
▁Tobi	-14.9069
▁hydrated	-14.9069
▁Happily	-14.9069
▁Margie	-14.9069
▁curb	-14.9069
▁grouchy	-14.9069
▁operator	-14.9069
▁paradise	-14.9069
▁salesperson	-14.9069
▁toothache	-14.9069
▁sharpener	-14.907
Yup	-14.907
▁Jared	-14.907
▁Saturn	-14.907
▁swishing	-14.907
▁slurping	-14.9071
▁Safety	-14.9071
▁Pia	-14.9071
▁Ace	-14.9072
▁Hairy	-14.9072
▁inspiring	-14.9073
▁Triangle	-14.9074
ma	-14.9077
œAnd	-14.9081
▁h	-14.9082
Hoo	-14.9082
▁Someday	-14.9084
▁arguments	-14.9086
▁Slide	-14.9087
▁jumpy	-14.9089
▁obeying	-14.9094
▁Hugs	-14.9104
Studying	-14.9118
▁tapes	-14.912
▁Push	-14.9129
▁raging	-14.913
ged	-14.9134
▁poodle	-14.9135
▁tambourine	-14.9136
▁molds	-14.9137
▁lane	-14.9139
▁nuzzle	-14.9139
▁mechanics	-14.9144
▁Carrots	-14.9167
▁golfers	-14.9171
Fred	-14.9174
Honk	-14.9174
tasting	-14.918
▁footing	-14.9185
▁fo	-14.9185
▁boarding	-14.9192
Tina	-14.9196
▁subtract	-14.9201
▁Puss	-14.9203
▁menacing	-14.9203
▁Hana	-14.9203
irsty	-14.9203
▁Cottontail	-14.9203
▁clogged	-14.9203
▁intricate	-14.9203
▁lazily	-14.9203
▁messenger	-14.9203
▁selection	-14.9203
▁stabbed	-14.9203
▁Curly	-14.9203
▁Buffy	-14.9203
▁antics	-14.9203
▁controls	-14.9203
▁dipping	-14.9203
▁Jumper	-14.9203
▁Jonas	-14.9204
▁dribbled	-14.9204
▁Peaches	-14.9205
▁breakable	-14.9205
▁Stories	-14.9206
▁awoken	-14.9206
▁Wheat	-14.9208
▁BANG	-14.9209
▁eighty	-14.9209
▁Dana	-14.9209
▁Pitch	-14.9209
▁BOOM	-14.921
▁Castle	-14.9215
▁Gold	-14.9216
œno	-14.9216
▁wilder	-14.9217
▁locker	-14.9218
▁lightest	-14.923
▁Dada	-14.9233
▁doggies	-14.9249
▁flyers	-14.9251
▁alleyway	-14.9273
car	-14.9273
▁comment	-14.9274
▁cannon	-14.9275
▁taco	-14.9275
▁Wiggle	-14.9276
Glad	-14.9309
abracadabra	-14.9309
Delicious	-14.931
Brownie	-14.931
Snap	-14.931
snap	-14.9312
Merry	-14.9316
ho	-14.9324
▁Jog	-14.9325
▁bouquets	-14.9328
▁landscapes	-14.9335
▁honour	-14.9337
▁Clive	-14.9338
▁handiwork	-14.9338
▁impatience	-14.9338
▁supervision	-14.9338
▁Alina	-14.9338
▁Maia	-14.9338
▁Madison	-14.9338
▁Street	-14.9338
▁Cally	-14.9338
▁marvelled	-14.9338
▁Sidney	-14.9338
▁swerved	-14.9339
▁Elise	-14.9339
eddy	-14.9339
▁Bertha	-14.9339
▁cases	-14.9339
▁steeper	-14.934
▁Jem	-14.934
▁aahed	-14.934
▁snugly	-14.934
▁brightening	-14.9341
▁banners	-14.9342
▁blackbird	-14.9342
▁cheapest	-14.9342
▁Bathing	-14.9343
▁coldness	-14.9343
▁dozing	-14.9343
▁thumping	-14.9344
▁Cricket	-14.9345
▁tusks	-14.9345
▁Spinning	-14.9347
▁boing	-14.9349
▁disc	-14.9354
▁disguise	-14.9357
see	-14.936
▁Pie	-14.9367
▁granddad	-14.9368
▁pests	-14.9374
▁Spiders	-14.9387
▁G	-14.9389
Snow	-14.9392
▁certificate	-14.9409
Sun	-14.941
▁restful	-14.9412
▁product	-14.9444
shrink	-14.9446
Perfect	-14.9446
Higher	-14.9446
Coco	-14.9446
œwe	-14.9448
▁besides	-14.945
Cake	-14.9451
hair	-14.9452
▁pats	-14.9456
▁rectangles	-14.9463
▁mateys	-14.9464
▁raccoons	-14.9465
▁reasons	-14.9469
▁boop	-14.9469
▁chimneys	-14.947
▁disgust	-14.9473
▁Lilli	-14.9474
▁Lori	-14.9474
Yep	-14.9475
▁prison	-14.9475
▁Jumbo	-14.9475
▁concentration	-14.9475
▁frills	-14.9475
▁receptionist	-14.9475
▁yolk	-14.9475
▁Perry	-14.9475
▁Wolfie	-14.9475
▁Tucker	-14.9475
▁selected	-14.9476
▁Late	-14.9476
▁Canada	-14.9476
▁Ping	-14.9477
▁Jaya	-14.9477
▁Nation	-14.9477
▁Scratch	-14.9477
▁Brain	-14.9478
▁Sharp	-14.9482
shirts	-14.9484
trapped	-14.9485
!''	-14.9485
▁spines	-14.9486
▁cradle	-14.9494
▁embark	-14.9496
▁pegs	-14.9498
▁reminders	-14.95
▁Heel	-14.951
▁wonderfully	-14.9514
▁billboards	-14.9518
▁Bananas	-14.9523
▁Toast	-14.9525
▁south	-14.9525
▁liquids	-14.9528
mores	-14.9529
▁fossils	-14.9536
▁Cats	-14.9537
mit	-14.9543
▁whir	-14.9546
▁Bart	-14.9546
▁investigated	-14.9548
▁owie	-14.9549
▁germ	-14.9551
▁pitched	-14.9564
Mix	-14.9585
Mike	-14.9585
ING	-14.9585
would	-14.9585
Ollie	-14.9586
▁nor	-14.9602
▁fro	-14.9603
▁counters	-14.9608
▁toasted	-14.9612
▁invent	-14.9612
▁recycle	-14.9613
▁Amaya	-14.9614
▁Frisbee	-14.9614
▁Wilson	-14.9614
▁Wren	-14.9614
▁cavity	-14.9614
▁director	-14.9614
▁triceratops	-14.9614
▁untouched	-14.9614
▁tiniest	-14.9614
▁fried	-14.9614
▁blushes	-14.9614
▁Laurie	-14.9614
▁Smudge	-14.9614
▁triumphantly	-14.9614
▁trespassing	-14.9614
▁Magnet	-14.9616
▁rhinoceroses	-14.9616
▁hooting	-14.9616
œTommy	-14.9618
▁Exercise	-14.9623
▁Pay	-14.9625
▁eyebrows	-14.9627
▁feasted	-14.963
▁lapping	-14.9631
▁gentler	-14.9634
▁feathery	-14.9637
▁CDs	-14.9637
▁pulse	-14.9679
ter	-14.9681
▁overflow	-14.9687
▁icicle	-14.9692
▁fossil	-14.9692
▁rage	-14.9692
▁trader	-14.9694
▁Lemons	-14.9697
▁hating	-14.9699
▁Pee	-14.9705
▁apply	-14.9723
for	-14.9725
Butterflies	-14.9726
click	-14.9727
Jazz	-14.9727
▁buns	-14.9737
ied	-14.9748
▁Emmi	-14.9754
hinoceros	-14.9755
▁Bryan	-14.9755
▁walrus	-14.9755
▁Daniella	-14.9755
▁Grey	-14.9755
▁lightening	-14.9756
œMolly	-14.9756
▁witnessed	-14.9757
▁Hook	-14.9757
▁Worry	-14.9757
▁roaming	-14.9757
▁Cauliflower	-14.9763
▁Leopard	-14.9765
▁slowest	-14.9765
▁Browny	-14.9766
▁Original	-14.9766
▁Swinging	-14.9769
▁twine	-14.9772
▁keepers	-14.9773
▁rounder	-14.9774
▁sauces	-14.9814
G	-14.9816
▁glues	-14.9828
▁Pen	-14.9831
▁racket	-14.9833
▁Twin	-14.9833
▁quarter	-14.9835
▁Shop	-14.9836
▁rulers	-14.9852
land	-14.9862
Alex	-14.9869
whoosh	-14.9869
Millie	-14.9869
Drop	-14.9869
Yoga	-14.9869
▁claim	-14.9869
Bring	-14.9869
▁sap	-14.9888
▁Mill	-14.9896
▁festive	-14.9897
▁Evie	-14.9897
▁Hayley	-14.9897
▁Lala	-14.9897
▁location	-14.9898
▁snorting	-14.99
œListen	-14.99
▁crackled	-14.9902
▁Store	-14.9902
▁twirly	-14.9907
▁nerves	-14.9907
▁mentioning	-14.9915
▁smoked	-14.992
▁Spaghetti	-14.9921
▁mirrors	-14.9929
Aye	-14.9931
▁scatters	-14.9939
▁aah	-14.994
AC	-14.9948
▁range	-14.9953
▁saucers	-14.9958
▁Grab	-14.9961
▁Surrender	-14.9963
▁Call	-14.9964
▁submarine	-14.9974
▁Phew	-14.9977
▁Feather	-14.9981
▁rescuer	-14.9984
▁igloos	-15.0006
▁cauliflowers	-15.0007
▁Pirates	-15.0012
Spin	-15.0014
Mother	-15.0027
pop	-15.0032
▁jeweler	-15.0038
▁unravel	-15.004
▁quiver	-15.0041
▁congratulate	-15.0042
▁elegant	-15.0042
▁skeptical	-15.0042
ictor	-15.0042
▁inspection	-15.0042
▁laziness	-15.0042
▁mercy	-15.0042
▁misbehaving	-15.0042
▁sixteen	-15.0042
▁wriggly	-15.0042
▁Nico	-15.0042
▁Pablo	-15.0043
▁safekeeping	-15.0043
▁Eagle	-15.0043
▁mightier	-15.0044
▁Clever	-15.0044
▁Chase	-15.0044
▁Greenie	-15.0044
▁sunhat	-15.0045
▁Turkey	-15.0046
▁loosened	-15.0046
rrrrrrrrrrrrrrrr	-15.0047
▁Fancy	-15.0048
▁polisher	-15.0049
▁radiat	-15.005
▁Soft	-15.0051
▁Jogging	-15.0051
▁enters	-15.0062
▁rugs	-15.0063
▁cowgirls	-15.0066
▁Poison	-15.0069
▁riddles	-15.0069
Tree	-15.0097
▁fl	-15.0103
œLily	-15.0114
▁finder	-15.0116
▁evenings	-15.0121
k	-15.0124
▁Luka	-15.0124
▁scents	-15.0124
▁afternoons	-15.0136
▁bulls	-15.0149
▁checkup	-15.0161
Order	-15.0161
Spring	-15.0161
Annie	-15.0161
Oxygen	-15.0161
Pete	-15.0161
▁chilli	-15.0162
▁Cooper	-15.0164
▁Plane	-15.0165
Best	-15.0175
▁Save	-15.0187
▁lack	-15.0188
Woohoo	-15.0189
▁favour	-15.0189
▁cavities	-15.0189
▁cranny	-15.0189
▁duties	-15.0189
▁grumpily	-15.0189
▁ignorance	-15.0189
▁trio	-15.0189
▁Delighted	-15.0189
ichie	-15.0189
▁duo	-15.0189
▁muffled	-15.0189
▁snowstorm	-15.019
▁Mackenzie	-15.019
▁quartz	-15.019
▁protested	-15.019
▁Blackie	-15.019
▁carelessness	-15.019
▁foolishness	-15.019
▁Chubby	-15.019
▁schedule	-15.0191
▁Shade	-15.0191
▁clink	-15.0191
▁successes	-15.0191
▁darkened	-15.0191
▁Barb	-15.0192
▁Ladybug	-15.0192
▁regain	-15.0192
▁motionless	-15.0196
▁couches	-15.0196
▁Iron	-15.0198
▁Fuel	-15.0205
eeping	-15.0206
▁stuffy	-15.021
▁darken	-15.021
▁Clap	-15.0214
▁leaps	-15.0214
▁competitions	-15.0215
▁trinkets	-15.0223
▁Balloons	-15.0224
▁Six	-15.0228
▁weekends	-15.0237
▁strands	-15.0241
▁generously	-15.0244
▁Long	-15.0251
rench	-15.0258
▁Freeze	-15.0264
▁crowds	-15.0265
▁crate	-15.0276
▁flowerbed	-15.0276
▁Jin	-15.0279
▁saucer	-15.0282
▁explodes	-15.0299
Neigh	-15.031
Thunder	-15.031
eindeer	-15.0339
▁Further	-15.0339
▁Spud	-15.0339
▁biking	-15.0339
▁educational	-15.0339
▁summon	-15.0339
▁Bradley	-15.0339
▁hull	-15.0339
▁Stevie	-15.0339
▁Windy	-15.0339
▁crumbly	-15.034
▁Woody	-15.034
œSarah	-15.034
▁courageously	-15.034
▁Baker	-15.034
▁clasped	-15.0341
▁Tidy	-15.0342
▁Forever	-15.0343
▁crafting	-15.0344
▁grate	-15.0346
▁Mai	-15.036
▁foolishly	-15.0377
▁cuter	-15.0387
Banana	-15.0398
▁reflections	-15.0408
rs	-15.0417
rrr	-15.0418
▁archer	-15.0423
▁trolley	-15.0424
▁corals	-15.0425
▁employee	-15.0426
ment	-15.0427
▁habitat	-15.0427
▁Waffle	-15.0431
▁Join	-15.0445
▁eel	-15.0447
▁Wouldn	-15.0448
through	-15.0461
open	-15.0461
yuck	-15.0462
Pop	-15.0462
quack	-15.0462
Mouse	-15.0462
Dead	-15.0462
Owl	-15.0467
Making	-15.0468
Am	-15.0482
▁smirk	-15.0488
▁Guardian	-15.049
▁Iggy	-15.049
▁Nadia	-15.049
▁unpredictable	-15.049
▁gummies	-15.049
▁scruffy	-15.049
▁deliveryman	-15.049
▁swiftly	-15.0491
▁scooting	-15.0491
▁Evelyn	-15.0491
▁webbed	-15.0491
▁clinked	-15.0491
▁Shy	-15.0491
▁cling	-15.0492
▁Town	-15.0492
▁Donald	-15.0492
▁crest	-15.0493
▁defended	-15.0494
▁Curiously	-15.0494
Bee	-15.0495
▁Bouncing	-15.0496
▁dread	-15.0496
Hot	-15.0498
▁Flour	-15.0498
▁Tank	-15.0498
▁Perhaps	-15.0511
per	-15.0537
Ho	-15.0539
ead	-15.0565
el	-15.0568
▁upsetting	-15.0569
▁nudges	-15.0572
▁joggers	-15.0573
▁pixie	-15.0576
▁preparations	-15.058
▁email	-15.058
print	-15.0599
▁captains	-15.0609
Dangerous	-15.0615
life	-15.0615
poison	-15.0616
▁reassure	-15.0643
▁unscrew	-15.0643
▁awkward	-15.0644
▁Greed	-15.0644
ingdom	-15.0644
▁Mailman	-15.0644
▁astounded	-15.0644
▁friendlier	-15.0644
▁sensitive	-15.0644
▁unaware	-15.0644
▁sillier	-15.0644
▁violinist	-15.0644
▁array	-15.0644
▁Mateo	-15.0644
▁Chick	-15.0644
▁glare	-15.0645
▁attache	-15.0645
▁schoolwork	-15.0645
▁backstage	-15.0646
▁centimeters	-15.0647
▁Sly	-15.0648
▁pooped	-15.0649
▁connecting	-15.065
▁stingy	-15.0651
▁Pieces	-15.0652
▁Blow	-15.0655
▁appearances	-15.0659
▁zagged	-15.066
▁predators	-15.0672
acing	-15.0684
ise	-15.0696
▁grunts	-15.0697
▁backup	-15.0701
▁ironed	-15.072
▁duet	-15.0722
▁lasting	-15.0726
▁blind	-15.0733
▁compartment	-15.0737
▁spoonfuls	-15.0737
angaroo	-15.0737
▁sparkler	-15.0741
anger	-15.0742
Pull	-15.0749
Mrs	-15.0752
Lemonade	-15.0771
Left	-15.0772
Poison	-15.0772
Tonight	-15.0772
Again	-15.0772
chug	-15.0772
Milo	-15.0772
ra	-15.0782
▁worriedly	-15.0789
▁recognise	-15.0799
eliable	-15.08
▁Eager	-15.08
▁Celeste	-15.08
▁Charley	-15.08
▁Eleanor	-15.08
▁exotic	-15.08
▁nutritious	-15.08
▁frolicked	-15.08
▁overwhelming	-15.08
▁discount	-15.08
▁motivated	-15.08
▁spinny	-15.0801
▁fizzy	-15.0801
▁savoured	-15.0801
▁Grandson	-15.0801
▁squirming	-15.0802
▁bombs	-15.0802
▁Corn	-15.0805
▁Tiggy	-15.0805
▁Police	-15.0807
Car	-15.0808
▁Fall	-15.0809
▁Mud	-15.0814
œSam	-15.0814
▁Taste	-15.0817
▁squiggles	-15.082
œAll	-15.0823
▁independently	-15.0837
▁moos	-15.0845
▁Alec	-15.0846
▁sob	-15.0854
▁ravens	-15.0862
▁waists	-15.0879
ary	-15.0883
wed	-15.0888
▁Statue	-15.0892
▁cookbook	-15.0892
▁subject	-15.0897
▁Onion	-15.0898
Bla	-15.0899
▁Shake	-15.0907
each	-15.0915
▁makers	-15.0919
Money	-15.0931
Things	-15.0931
Whiskers	-15.0931
sh	-15.094
▁itched	-15.0952
ite	-15.0955
▁assemble	-15.0958
▁mould	-15.0958
hythm	-15.0959
▁dimmed	-15.0959
▁erasing	-15.0959
▁experiencing	-15.0959
▁intriguing	-15.0959
▁looming	-15.0959
▁raspberries	-15.0959
▁prodded	-15.0959
▁regardless	-15.0959
▁tentatively	-15.0959
▁Twig	-15.0959
▁Farah	-15.0959
▁Bertie	-15.0959
▁fangs	-15.0959
▁Sienna	-15.0959
▁Week	-15.096
▁energised	-15.096
▁Haley	-15.096
▁Dusty	-15.096
▁whirling	-15.096
▁traced	-15.0962
▁neighing	-15.0962
▁whisked	-15.0962
▁responding	-15.0963
▁cawing	-15.0964
▁harsher	-15.0965
▁highway	-15.0966
▁award	-15.0966
▁Fix	-15.0968
▁Fake	-15.0974
▁Opera	-15.0975
▁chords	-15.0977
ies	-15.0983
▁Salad	-15.0986
▁loo	-15.0987
▁quarrels	-15.0996
ware	-15.1004
▁aching	-15.1005
▁Train	-15.1018
▁tricking	-15.1036
▁version	-15.1053
▁pelican	-15.1054
▁donuts	-15.1056
▁chime	-15.1056
▁antenna	-15.1057
▁Diamond	-15.1057
▁measurement	-15.1058
▁spotting	-15.1058
▁forked	-15.106
▁Button	-15.1061
▁Worm	-15.1061
fish	-15.1063
▁th	-15.1074
▁collects	-15.1089
Work	-15.1092
Count	-15.1092
Peace	-15.1092
stupid	-15.1092
Hide	-15.1093
Jerry	-15.1093
La	-15.1094
Candy	-15.1094
▁pant	-15.1095
▁fives	-15.1101
▁splits	-15.1114
▁powered	-15.1116
▁Flick	-15.112
▁Jupiter	-15.112
▁Malcolm	-15.112
▁plaster	-15.112
▁yipped	-15.112
▁stammered	-15.112
▁twittered	-15.112
▁knowledgeable	-15.1121
▁attentively	-15.1121
▁Australia	-15.1121
▁crime	-15.1121
▁wading	-15.1121
▁diner	-15.1121
▁Jordan	-15.1121
▁moaned	-15.1121
▁mansion	-15.1121
▁buzzer	-15.1122
▁Elderly	-15.1122
▁chanted	-15.1122
▁Modest	-15.1123
▁anxiety	-15.1123
▁sizzled	-15.1123
▁practical	-15.1123
▁Brush	-15.1127
▁upright	-15.1128
▁Sleeping	-15.1128
▁pliers	-15.1129
▁Sorting	-15.113
▁Squeeze	-15.1131
▁linked	-15.1135
ck	-15.1144
▁spaceships	-15.1146
▁Pull	-15.115
▁Ch	-15.1168
▁largest	-15.1177
▁Socks	-15.118
pay	-15.1187
Monkey	-15.1192
▁topping	-15.1195
▁straws	-15.1215
work	-15.1218
▁pod	-15.1222
▁squawks	-15.1226
▁plains	-15.1227
▁Dolphin	-15.1228
▁billow	-15.1238
▁token	-15.124
▁mazes	-15.1244
Sunny	-15.1256
▁lumps	-15.1258
toes	-15.1268
aj	-15.1269
these	-15.1271
▁dawn	-15.1283
▁reunite	-15.1283
Exactly	-15.1284
▁scepter	-15.1284
▁Contest	-15.1284
▁Cynthia	-15.1284
▁llama	-15.1284
▁nozzle	-15.1284
▁scribbling	-15.1284
▁stork	-15.1284
▁Carter	-15.1284
▁Also	-15.1284
▁stuttered	-15.1284
▁Doodle	-15.1284
▁immensely	-15.1284
▁Daphne	-15.1285
▁judging	-15.1285
eef	-15.1285
▁tinkering	-15.1285
▁projector	-15.1285
▁crannies	-15.1285
▁heroic	-15.1285
▁riders	-15.1286
take	-15.1286
▁Stinky	-15.1286
ena	-15.1288
▁Inch	-15.1289
▁dinnertime	-15.1292
▁Allen	-15.1302
Yee	-15.1302
▁Cate	-15.1338
Surfing	-15.1344
▁yo	-15.1355
▁hire	-15.1363
Whatever	-15.1365
▁program	-15.1384
▁inventions	-15.1387
▁kiwi	-15.1387
▁Bone	-15.1393
▁holder	-15.1414
▁loung	-15.1417
Cluck	-15.1422
Fox	-15.1423
▁hurricanes	-15.1423
Sing	-15.1426
▁slug	-15.1427
▁Bon	-15.1437
▁playmates	-15.144
▁boar	-15.145
▁Chelsea	-15.1451
▁Hector	-15.1451
▁Hundreds	-15.1451
▁balm	-15.1451
▁crazier	-15.1451
▁genius	-15.1451
▁ignition	-15.1451
▁kennel	-15.1451
▁president	-15.1451
▁scrumptious	-15.1451
▁strung	-15.1451
▁stylist	-15.1451
▁terrific	-15.1451
▁Catherine	-15.1451
▁humbly	-15.1451
▁hamper	-15.1451
▁Esme	-15.1451
▁chipped	-15.1451
▁grease	-15.1451
▁batted	-15.1451
▁awaiting	-15.1451
▁women	-15.1452
▁drooping	-15.1452
▁Jeep	-15.1452
▁Snail	-15.1452
▁Croco	-15.1452
▁boastful	-15.1453
▁mouthful	-15.1453
▁desired	-15.1454
▁Pretend	-15.1455
proving	-15.1455
▁Funny	-15.1456
MY	-15.146
▁Tick	-15.1466
▁Box	-15.1466
legged	-15.1466
▁scampering	-15.1468
oss	-15.1468
▁regrets	-15.149
▁levels	-15.1493
▁Andi	-15.1497
▁Maxi	-15.1514
▁parting	-15.1529
pom	-15.1536
▁dense	-15.1541
▁mural	-15.1552
▁seedling	-15.1554
▁threaded	-15.1557
▁Hooray	-15.1563
Sell	-15.157
▁imagines	-15.1574
▁shortcuts	-15.1575
ush	-15.1576
found	-15.1578
iver	-15.1583
Circus	-15.1591
yo	-15.1598
Was	-15.16
▁surround	-15.1618
▁splint	-15.162
▁Whippy	-15.162
▁bookshelves	-15.162
▁bragging	-15.162
▁comparing	-15.162
▁gloominess	-15.162
▁pastime	-15.162
▁pitchfork	-15.162
▁pulp	-15.162
▁loveliest	-15.162
▁sapling	-15.162
▁sleek	-15.162
obyn	-15.1621
▁postbox	-15.1621
▁lingered	-15.1621
▁illuminated	-15.1621
▁fatter	-15.1621
▁installed	-15.1621
▁boasted	-15.1621
▁Murphy	-15.1622
▁grazed	-15.1622
▁Gear	-15.1623
▁Fashion	-15.1623
▁Muscle	-15.1623
▁Strong	-15.1624
▁proof	-15.1625
▁mending	-15.1625
œMia	-15.1628
▁Octopus	-15.1628
▁Glue	-15.1628
▁Safe	-15.1629
▁Agent	-15.163
▁pinchy	-15.1637
▁competitors	-15.1646
▁Child	-15.1647
▁fisher	-15.1647
▁according	-15.165
▁Ear	-15.1673
▁depends	-15.1686
ake	-15.1693
eb	-15.1708
anish	-15.1711
ally	-15.1712
▁sunbeams	-15.1724
▁issue	-15.1729
▁teacup	-15.1729
▁reporter	-15.1729
▁jersey	-15.1729
▁generation	-15.173
▁straps	-15.1741
▁Sock	-15.1743
record	-15.1763
Lucky	-15.1765
Spaghetti	-15.1765
Harry	-15.1765
yummy	-15.1765
grandpa	-15.1765
will	-15.1766
▁piglets	-15.1771
ingness	-15.1771
▁Cal	-15.1772
▁splat	-15.1775
▁twinkles	-15.1775
Bow	-15.1775
▁desires	-15.1781
▁clasp	-15.1792
▁dunk	-15.1792
▁Brenda	-15.1792
▁severe	-15.1793
▁savanna	-15.1793
▁monk	-15.1793
▁Fern	-15.1793
▁Marissa	-15.1793
▁Terrified	-15.1793
▁caboose	-15.1793
▁complex	-15.1793
▁dusk	-15.1793
▁examination	-15.1793
▁fertilizer	-15.1793
▁instructor	-15.1793
▁Jayden	-15.1793
▁Callie	-15.1793
▁cozier	-15.1793
▁gang	-15.1793
▁Lucia	-15.1793
▁proposed	-15.1793
▁Cassy	-15.1793
▁superstar	-15.1793
▁flex	-15.1793
▁Alvin	-15.1793
▁Arctic	-15.1793
▁Delilah	-15.1793
▁Paulina	-15.1794
▁gatekeeper	-15.1794
▁drooped	-15.1794
▁inventing	-15.1794
▁Flipper	-15.1794
▁Softy	-15.1796
▁braked	-15.1796
▁Washing	-15.1799
▁Abe	-15.1799
Mixing	-15.18
▁duster	-15.18
▁unexpectedly	-15.1803
▁focusing	-15.1805
▁balancer	-15.1806
▁typed	-15.1808
▁jellybeans	-15.1814
▁radios	-15.1816
▁tenth	-15.1818
▁Squawk	-15.1818
▁strengths	-15.1819
▁Sea	-15.1821
▁booed	-15.1821
▁Hat	-15.1821
▁pi	-15.1827
▁vibrations	-15.184
▁smoothies	-15.1844
did	-15.1844
▁fuller	-15.1852
▁Others	-15.1857
▁screwed	-15.1864
▁Earl	-15.1865
New	-15.1877
▁throats	-15.1891
▁whee	-15.1897
▁chart	-15.1902
▁ouchie	-15.1905
▁ABC	-15.1906
▁paramedic	-15.1906
▁jailer	-15.1906
▁Fruit	-15.1911
▁Youth	-15.1914
▁Penguin	-15.1917
▁prisoners	-15.1917
organize	-15.1939
Cheap	-15.194
special	-15.194
Faster	-15.194
Orange	-15.194
Abigail	-15.194
œJoe	-15.1942
sure	-15.1943
▁Pass	-15.1945
œTo	-15.1949
ahh	-15.1953
▁rakes	-15.196
▁jolt	-15.1967
▁descend	-15.1967
Organizing	-15.1968
▁Casper	-15.1968
▁Jeannie	-15.1968
▁complied	-15.1968
▁doomed	-15.1968
▁janitor	-15.1968
▁shoving	-15.1968
ictoria	-15.1968
▁Below	-15.1968
▁Glitter	-15.1969
▁Baxter	-15.1969
▁Joshua	-15.1969
▁cardinal	-15.1969
▁Goldy	-15.1969
▁cackled	-15.1969
▁mummies	-15.1969
▁jumbled	-15.1969
▁Bully	-15.1969
▁bowtie	-15.1969
▁accused	-15.1969
▁Chef	-15.1969
▁gleamed	-15.1969
▁brewing	-15.1969
▁app	-15.1969
▁climbers	-15.197
▁Eddy	-15.197
▁simpler	-15.1971
▁appropriate	-15.1971
▁defending	-15.1972
specting	-15.1972
▁purchased	-15.1974
▁Tape	-15.1974
▁Squash	-15.1974
▁experimenting	-15.1975
▁Poems	-15.1981
▁crush	-15.1981
▁jazzy	-15.1982
rched	-15.1992
▁swoops	-15.1997
Old	-15.1998
ir	-15.2002
▁Perfect	-15.2005
▁awaits	-15.2008
▁labeled	-15.2037
lar	-15.2045
▁woo	-15.2052
▁huddl	-15.2054
Elephant	-15.2055
aise	-15.2058
mingly	-15.2061
▁dreamy	-15.2062
▁scars	-15.2063
▁croc	-15.2067
▁Trucks	-15.2075
▁Trunk	-15.2079
▁Claws	-15.2081
▁strand	-15.2083
▁sample	-15.2083
▁jaw	-15.2084
▁stinger	-15.2086
▁Goat	-15.2101
end	-15.2113
worm	-15.2118
Patience	-15.2118
tweet	-15.2119
value	-15.2119
fragile	-15.2119
▁ye	-15.2119
Amen	-15.2119
▁ya	-15.212
▁slithers	-15.2122
▁Mist	-15.214
uiet	-15.2147
▁Trix	-15.2147
odney	-15.2147
▁Christine	-15.2147
▁Elmer	-15.2147
▁barefoot	-15.2147
▁crossbones	-15.2147
▁enthralled	-15.2147
▁organization	-15.2147
▁protein	-15.2147
▁terrain	-15.2147
▁yeast	-15.2147
▁Bowser	-15.2147
▁Swimmy	-15.2147
▁Drew	-15.2147
arla	-15.2147
▁blazing	-15.2147
▁Jamal	-15.2148
▁entertaining	-15.2148
▁surfaces	-15.2148
▁pitches	-15.2148
▁Painter	-15.2148
▁Patient	-15.2148
▁gush	-15.2149
▁Grateful	-15.2149
▁Log	-15.2149
▁wilting	-15.2149
▁Jaden	-15.2149
Nope	-15.2149
▁Graceful	-15.215
▁erupting	-15.215
▁powerless	-15.215
▁dollies	-15.215
▁encouragingly	-15.2152
▁Dust	-15.2153
▁Humble	-15.2153
▁Junk	-15.2154
▁mewed	-15.2159
▁leaky	-15.216
▁Wear	-15.2163
aw	-15.2165
Dolls	-15.2166
▁Tam	-15.2175
▁entranced	-15.2179
▁classrooms	-15.2181
▁Spin	-15.2182
▁axes	-15.2186
▁greatly	-15.2214
ya	-15.2221
œSo	-15.2226
Duck	-15.2236
Toy	-15.2242
▁border	-15.2261
▁moan	-15.2263
▁signature	-15.2263
▁Sailor	-15.2264
▁grunt	-15.2264
▁chandelier	-15.2265
▁Bears	-15.2268
dough	-15.2268
▁lambs	-15.2269
box	-15.2279
▁Book	-15.2281
▁Swing	-15.2282
▁chipmunks	-15.2286
tocked	-15.2287
▁filth	-15.2296
Child	-15.23
Green	-15.23
Coffee	-15.23
fashioned	-15.23
▁strangest	-15.23
Lightning	-15.2301
wealthy	-15.2301
▁turnip	-15.2304
ide	-15.2313
▁unplug	-15.2317
▁Seek	-15.232
Chirpy	-15.2321
▁observes	-15.2323
ascal	-15.2329
ealizing	-15.2329
▁cement	-15.2329
▁contagious	-15.2329
▁indigo	-15.2329
▁lawnmower	-15.2329
▁lollies	-15.2329
▁rippling	-15.2329
▁Gracy	-15.2329
▁Logan	-15.2329
▁Marina	-15.2329
▁eighteen	-15.2329
▁shack	-15.2329
▁robbed	-15.2329
enus	-15.2329
▁Pamela	-15.2329
▁proclaimed	-15.2329
▁recovery	-15.2329
▁Stretchy	-15.233
▁Cloudy	-15.233
▁chanting	-15.233
▁Hay	-15.2331
▁hilltop	-15.2331
▁Twisty	-15.2331
▁Samson	-15.2332
▁yelping	-15.2332
▁Aunty	-15.2335
▁Hang	-15.2346
▁magicians	-15.2351
▁craters	-15.2356
▁marchers	-15.2356
▁Cheap	-15.2358
▁pinky	-15.236
▁wasps	-15.2361
Nap	-15.2361
▁topic	-15.2364
▁Pebbles	-15.2365
▁Omar	-15.237
▁delightedly	-15.2372
▁Mal	-15.2374
▁roughly	-15.2375
▁ledge	-15.2376
▁unusually	-15.2379
▁puffs	-15.2384
▁clocks	-15.2385
▁microphones	-15.2392
house	-15.2403
▁sews	-15.2409
▁blub	-15.2416
Spider	-15.2422
▁Ants	-15.244
▁impression	-15.2447
▁poet	-15.2448
▁somersault	-15.2449
ocket	-15.245
▁widen	-15.245
▁medic	-15.2452
▁hotdog	-15.2456
▁straighten	-15.246
▁coos	-15.2464
ous	-15.2481
▁wetting	-15.2481
fly	-15.2484
▁seasoning	-15.2484
Popcorn	-15.2485
Both	-15.2486
▁beehives	-15.2487
Stand	-15.2487
Fin	-15.25
▁journals	-15.2509
▁boast	-15.251
Tweety	-15.2511
▁interrupt	-15.2512
▁entertain	-15.2512
▁ginger	-15.2514
aymond	-15.2514
▁Second	-15.2514
▁babbling	-15.2514
▁frustrating	-15.2514
▁ivy	-15.2514
▁orchestra	-15.2514
▁saddened	-15.2514
▁gazelle	-15.2514
▁Tower	-15.2514
▁echoes	-15.2514
▁humor	-15.2514
▁occasionally	-15.2514
▁Craig	-15.2514
▁sandpaper	-15.2514
▁nutrients	-15.2515
▁bookstore	-15.2515
▁burped	-15.2515
▁Beaver	-15.2515
▁knotted	-15.2515
▁quivering	-15.2515
▁Spinny	-15.2516
▁Cross	-15.2516
▁Wizard	-15.2516
▁weary	-15.2516
œGoodnight	-15.2517
▁Ayla	-15.2517
▁Jungle	-15.2518
▁Storm	-15.2522
▁Tomato	-15.2523
▁lunches	-15.2526
▁arf	-15.2527
▁Praying	-15.2529
▁highly	-15.253
▁Crash	-15.2531
▁oily	-15.2536
▁separately	-15.2537
▁Butch	-15.2545
▁bustle	-15.2549
At	-15.255
olling	-15.2555
▁ga	-15.2563
▁Mat	-15.2563
▁NO	-15.2572
Sandy	-15.2582
▁Caw	-15.2584
▁pods	-15.2585
hop	-15.2595
▁Marry	-15.2597
ola	-15.2611
oot	-15.2618
▁framed	-15.2625
give	-15.2629
ner	-15.2629
▁cheater	-15.2635
▁ambition	-15.2637
▁document	-15.2639
▁hornet	-15.264
▁Pickle	-15.264
▁burner	-15.2643
▁Grape	-15.2645
▁Sail	-15.265
ier	-15.2672
Dance	-15.2674
Marriage	-15.2674
Charlie	-15.2674
Space	-15.2674
magic	-15.2674
▁poo	-15.2675
▁Elephants	-15.2689
▁su	-15.2699
▁slider	-15.27
▁ferocious	-15.2702
▁unfortunate	-15.2702
▁Dash	-15.2702
▁triumph	-15.2703
▁Floyd	-15.2703
▁Gator	-15.2703
▁Jiminy	-15.2703
▁advertisement	-15.2703
▁barrier	-15.2703
▁choir	-15.2703
▁exhaustion	-15.2703
▁false	-15.2703
▁identify	-15.2703
▁strategy	-15.2703
▁tarp	-15.2703
▁trekked	-15.2703
▁Mikayla	-15.2703
▁downhill	-15.2703
▁Moses	-15.2703
▁Noelle	-15.2703
▁misery	-15.2703
▁Fia	-15.2703
▁hairdryer	-15.2703
▁replant	-15.2703
▁clenched	-15.2703
▁easel	-15.2703
▁gingerly	-15.2703
▁whipping	-15.2703
▁entry	-15.2703
▁busily	-15.2704
▁clinking	-15.2704
▁overflowed	-15.2704
▁foamy	-15.2704
▁starlight	-15.2704
▁tornadoes	-15.2705
▁Doris	-15.2705
▁Fisherman	-15.2706
▁daydreamed	-15.2706
▁Law	-15.2707
▁Cereal	-15.2707
▁Steel	-15.2709
▁prickles	-15.2709
▁Moving	-15.271
▁flashy	-15.2711
▁curvy	-15.2711
▁Crack	-15.2712
▁Toy	-15.2712
▁Joke	-15.2712
▁greatness	-15.2714
▁Mariah	-15.2716
œTimmy	-15.2721
▁Spread	-15.2721
▁cooker	-15.2722
▁ruffles	-15.2722
▁dye	-15.2728
▁Colors	-15.273
tap	-15.2739
c	-15.2745
▁explorations	-15.2787
▁swoosh	-15.2787
▁ports	-15.2793
▁Crocodiles	-15.2821
▁plead	-15.2827
▁kiddo	-15.283
▁technique	-15.2832
▁Tuck	-15.2834
▁Wing	-15.2837
Shoot	-15.2849
▁proudest	-15.2853
ind	-15.286
splash	-15.2865
Behave	-15.2866
Whoosh	-15.2866
Celery	-15.2866
Squawk	-15.2867
Amazing	-15.2867
Juice	-15.2867
neigh	-15.2867
surrender	-15.2867
▁diapers	-15.2867
line	-15.2868
▁ambulances	-15.2868
▁cradl	-15.2868
▁eng	-15.2873
▁travelers	-15.2873
▁brew	-15.2893
▁vibrate	-15.2894
▁participate	-15.2894
▁combine	-15.2894
▁prance	-15.2894
▁affection	-15.2895
▁attentive	-15.2895
▁miraculous	-15.2895
rossed	-15.2895
▁Claudia	-15.2895
▁Morris	-15.2895
▁Petunia	-15.2895
▁ambitious	-15.2895
▁bridle	-15.2895
▁brilliance	-15.2895
▁brooch	-15.2895
▁cleanliness	-15.2895
▁disorganized	-15.2895
▁luxuries	-15.2895
▁mobile	-15.2895
▁royalty	-15.2895
▁splendid	-15.2895
▁whiff	-15.2895
▁Skippy	-15.2895
▁circling	-15.2895
adishes	-15.2895
▁Irene	-15.2895
aja	-15.2895
▁dedicated	-15.2895
▁chomping	-15.2895
▁absorbed	-15.2895
▁Dovey	-15.2896
▁Isaac	-15.2896
▁xylophone	-15.2896
▁multipl	-15.2896
▁perfection	-15.2896
▁downtown	-15.2896
Stretching	-15.2897
ge	-15.2897
▁gentleness	-15.2899
▁Taxi	-15.2903
▁toybox	-15.2904
▁Camp	-15.2906
▁clack	-15.2907
▁bloody	-15.2913
▁Touch	-15.2914
▁dislikes	-15.2914
▁silvery	-15.292
▁dealing	-15.2921
▁tense	-15.2923
▁Marian	-15.2932
▁docked	-15.2936
▁Sweetheart	-15.2942
ol	-15.2947
▁topics	-15.2961
▁mysteriously	-15.2966
Closed	-15.301
▁Jing	-15.3018
▁contract	-15.3024
▁stink	-15.3027
▁croissant	-15.3028
▁consequence	-15.3029
▁Bark	-15.3048
▁arch	-15.305
▁mops	-15.3051
Clean	-15.3062
Dave	-15.3062
Treasure	-15.3063
Salad	-15.3063
Press	-15.3063
Birdie	-15.3063
Inside	-15.3074
▁delete	-15.3077
▁droop	-15.3089
▁Chlo	-15.309
egular	-15.3091
▁wove	-15.3091
▁Desperate	-15.3091
▁wick	-15.3091
▁Henri	-15.3091
▁Davy	-15.3091
▁Fawn	-15.3091
▁Gilbert	-15.3091
▁drier	-15.3091
▁enchanting	-15.3091
▁leprechaun	-15.3091
▁veins	-15.3091
▁skidded	-15.3091
▁tracing	-15.3091
▁blah	-15.3091
▁rapidly	-15.3091
▁Amina	-15.3091
▁snipping	-15.3091
▁buggy	-15.3091
▁toothbrushes	-15.3091
▁Harley	-15.3091
▁snooping	-15.3091
▁childish	-15.3091
▁Croc	-15.3092
▁Juno	-15.3092
▁Autumn	-15.3092
▁thawed	-15.3093
▁clipped	-15.3093
▁acceptance	-15.3094
▁harvesting	-15.3096
▁distracting	-15.3096
▁Cheep	-15.3097
▁Luxury	-15.3097
▁Shampoo	-15.3099
▁Feel	-15.31
▁cancel	-15.3103
▁wit	-15.3103
▁rocker	-15.3104
▁sprayer	-15.3105
▁Gum	-15.3108
▁deserts	-15.3111
hey	-15.3122
▁deserted	-15.3126
▁reveals	-15.3153
▁techniques	-15.3156
▁knowingly	-15.3163
Mmmmm	-15.3172
▁patterned	-15.3186
▁Noon	-15.3197
Friend	-15.32
▁muster	-15.3215
▁brow	-15.3216
W	-15.322
▁waistband	-15.3224
▁birdsong	-15.3224
▁snorkel	-15.3227
▁superpower	-15.3228
▁bumper	-15.3229
▁Plant	-15.3238
▁Any	-15.3244
▁Soar	-15.3257
▁cheetahs	-15.3261
Join	-15.3262
Easy	-15.3262
Write	-15.3262
Squeak	-15.3263
Crazy	-15.3263
Puppy	-15.3264
▁Tod	-15.3278
▁dies	-15.3286
exit	-15.3287
▁announce	-15.329
▁lasso	-15.329
▁sunbathe	-15.329
▁unfroze	-15.3291
▁America	-15.3291
▁sushi	-15.3291
anessa	-15.3291
▁Breezy	-15.3291
▁Frannie	-15.3291
▁Maureen	-15.3291
▁Maurice	-15.3291
▁bulldozer	-15.3291
▁omelet	-15.3291
▁paddock	-15.3291
▁rebuilt	-15.3291
[...]
