<unk>	0
<s>	0
</s>	0
.	-2.55608
▁and	-3.22767
▁the	-3.29871
,	-3.3003
▁to	-3.5723
▁a	-3.66815
▁was	-3.86941
▁it	-4.45684
▁"	-4.49482
▁She	-4.57448
▁her	-4.6017
▁He	-4.60402
▁They	-4.61589
'	-4.64853
▁The	-4.81441
▁said	-4.83227
▁he	-4.8609
▁in	-4.96165
s	-4.98183
▁with	-4.98735
▁she	-4.9878
▁Lily	-4.99875
▁his	-5.06689
▁day	-5.12688
▁that	-5.14081
▁of	-5.14354
▁you	-5.22064
▁had	-5.23731
▁they	-5.24078
▁so	-5.26463
▁on	-5.29011
▁for	-5.41475
▁very	-5.48044
!	-5.49259
▁time	-5.51661
▁little	-5.53026
▁there	-5.54022
▁mom	-5.54619
▁It	-5.55436
▁happy	-5.56172
▁is	-5.57115
▁not	-5.59457
t	-5.60107
▁big	-5.6106
▁saw	-5.61121
."	-5.61916
▁	-5.63721
▁I	-5.67185
▁One	-5.68012
!"	-5.70142
▁but	-5.71443
▁were	-5.72299
▁play	-5.73029
▁Once	-5.75368
▁are	-5.83739
▁wanted	-5.85961
▁girl	-5.88185
▁upon	-5.88235
▁him	-5.88944
▁their	-5.90239
▁them	-5.90239
▁have	-5.96326
▁Tom	-5.9718
▁be	-5.97491
▁up	-5.98258
▁Ben	-5.98357
▁went	-6.05375
▁go	-6.06554
?"	-6.08701
▁can	-6.09238
▁at	-6.0948
▁But	-6.09488
▁friends	-6.11271
▁all	-6.14985
▁back	-6.21198
▁too	-6.236
▁Timmy	-6.23898
▁smiled	-6.2417
▁named	-6.24606
▁loved	-6.26442
▁like	-6.27088
▁asked	-6.28253
▁felt	-6.29051
▁fun	-6.29473
▁looked	-6.29796
▁could	-6.29904
▁around	-6.30959
▁out	-6.3398
▁boy	-6.38073
â	-6.41132
€	-6.41132
▁did	-6.41435
▁help	-6.41885
▁see	-6.42586
▁make	-6.43616
▁would	-6.43695
,"	-6.4377
▁what	-6.44225
▁some	-6.4442
▁says	-6.45502
▁away	-6.46456
▁You	-6.46981
▁ran	-6.48282
▁started	-6.49301
▁want	-6.49562
▁made	-6.50777
▁something	-6.51998
▁together	-6.52586
▁park	-6.53222
I	-6.56208
▁do	-6.56234
▁from	-6.56853
▁sad	-6.58045
▁put	-6.58597
▁new	-6.59134
▁Tim	-6.60898
▁home	-6.60945
▁again	-6.62792
▁then	-6.63811
▁found	-6.63851
▁bird	-6.64326
▁when	-6.66702
▁playing	-6.67291
▁other	-6.67855
▁who	-6.68648
▁things	-6.70958
▁liked	-6.71154
▁we	-6.73366
▁got	-6.75048
▁excited	-6.7601
▁friend	-6.76307
▁decided	-6.76629
▁came	-6.76905
▁Mom	-6.77546
▁scared	-6.78225
▁man	-6.78279
▁one	-6.79089
▁down	-6.8068
▁Sam	-6.81467
▁dog	-6.82988
▁Anna	-6.8344
▁an	-6.83518
▁will	-6.85125
▁find	-6.85883
▁your	-6.86032
▁get	-6.87176
▁me	-6.87275
▁Max	-6.87967
▁took	-6.88995
▁didn	-6.8916
▁about	-6.89555
▁always	-6.89616
▁toys	-6.90484
▁good	-6.90773
▁mommy	-6.91987
▁tree	-6.92354
▁outside	-6.93137
▁more	-6.93551
▁my	-6.93923
▁as	-6.94681
▁thought	-6.97077
▁take	-6.98557
▁old	-6.99845
▁special	-7.00113
▁knew	-7.01092
▁When	-7.01618
▁dad	-7.02163
▁car	-7.02692
▁toy	-7.03826
▁Her	-7.04008
▁how	-7.06341
▁sorry	-7.06463
▁know	-7.07732
▁much	-7.09402
▁house	-7.10249
▁So	-7.10542
m	-7.11329
▁Jack	-7.11395
▁look	-7.13995
▁tried	-7.14448
▁into	-7.14463
▁inside	-7.14866
▁ball	-7.15815
▁told	-7.15997
▁gave	-7.16565
▁this	-7.16597
▁heard	-7.17178
▁if	-7.17266
▁We	-7.17293
▁each	-7.17415
▁never	-7.17657
▁water	-7.17713
▁couldn	-7.17762
▁Mia	-7.19499
▁room	-7.20365
▁Sara	-7.20469
▁over	-7.20711
▁Suddenly	-7.21106
▁played	-7.21561
▁proud	-7.21956
▁Then	-7.22253
▁hugged	-7.22339
▁just	-7.22893
▁no	-7.24429
▁From	-7.25592
▁many	-7.25897
▁because	-7.26891
▁His	-7.27823
▁box	-7.30178
▁nice	-7.30555
▁And	-7.32586
▁bear	-7.3342
▁learned	-7.34292
▁until	-7.34405
▁small	-7.34595
▁better	-7.36454
▁don	-7.38569
▁best	-7.39045
▁careful	-7.41412
▁eat	-7.41867
▁garden	-7.433
▁off	-7.43711
▁thanked	-7.44162
▁sky	-7.44474
▁say	-7.44933
▁laughed	-7.45067
▁cat	-7.45657
Yes	-7.46494
▁come	-7.47445
▁love	-7.47773
▁by	-7.48079
▁even	-7.48611
▁beautiful	-7.49029
▁long	-7.49147
▁end	-7.49532
▁animals	-7.50326
▁still	-7.50358
▁lots	-7.50553
▁kind	-7.5173
?	-7.53728
▁both	-7.54715
▁way	-7.55711
▁safe	-7.55866
▁let	-7.56086
▁feel	-7.57396
▁hard	-7.57572
▁two	-7.57935
▁As	-7.59338
You	-7.59432
▁lived	-7.59642
▁angry	-7.59668
▁walked	-7.60915
▁Lucy	-7.61013
▁sun	-7.61174
▁people	-7.61271
▁hurt	-7.61543
▁red	-7.61638
▁loud	-7.62001
▁flew	-7.62071
▁family	-7.62447
▁try	-7.63103
▁called	-7.63474
▁brave	-7.63706
▁soon	-7.64172
▁every	-7.64254
▁bad	-7.6457
▁share	-7.64786
▁kept	-7.65023
It	-7.65362
▁After	-7.65781
▁or	-7.66369
▁Mommy	-7.67963
▁going	-7.68263
▁pretty	-7.68512
▁noise	-7.68931
▁shiny	-7.7034
▁John	-7.70466
▁opened	-7.70654
▁before	-7.71411
▁should	-7.71469
▁run	-7.72463
Let	-7.72552
▁ground	-7.73308
▁also	-7.7337
▁lot	-7.73612
▁door	-7.73626
▁fast	-7.73629
▁hug	-7.74291
▁explore	-7.75118
No	-7.75168
▁idea	-7.75271
▁now	-7.75465
▁nodded	-7.76069
▁its	-7.76723
▁has	-7.76731
▁feeling	-7.77582
▁keep	-7.78239
▁picked	-7.78331
▁next	-7.78441
▁walking	-7.79388
▁Every	-7.80092
▁need	-7.80194
▁smile	-7.80375
▁while	-7.80658
What	-7.82105
▁give	-7.82637
▁being	-7.8273
▁show	-7.83626
▁eyes	-7.85918
▁food	-7.86113
▁stopped	-7.86291
▁looking	-7.86642
▁hand	-7.88586
▁clean	-7.8915
▁Bob	-7.89173
▁flowers	-7.89513
▁great	-7.89614
▁ever	-7.90155
That	-7.90228
▁Sue	-7.90264
Thank	-7.90398
▁Spot	-7.90515
▁slide	-7.90761
re	-7.9095
▁noticed	-7.91432
-	-7.9145
▁hands	-7.91602
▁fish	-7.91954
▁forest	-7.92598
▁listen	-7.93708
▁important	-7.94165
▁okay	-7.94403
▁truck	-7.94793
▁showed	-7.95114
▁replied	-7.96036
▁after	-7.96715
▁everyone	-7.97107
▁right	-7.97172
▁Sarah	-7.9759
▁watched	-7.97594
▁blue	-7.98474
▁where	-7.99044
▁stay	-7.99074
▁voice	-7.99141
We	-7.99322
▁quickly	-7.99638
▁been	-7.99773
▁face	-8.00406
▁rabbit	-8.00585
▁goodbye	-8.00925
▁different	-8.01351
▁bed	-8.01512
▁became	-8.02072
▁place	-8.02097
▁sure	-8.02326
▁walk	-8.02538
▁Jane	-8.0276
▁closer	-8.02972
▁high	-8.03001
▁work	-8.03405
▁head	-8.03774
Look	-8.03871
▁our	-8.04426
▁cake	-8.05164
▁mean	-8.05357
▁fly	-8.05366
▁store	-8.05544
▁curious	-8.05816
▁Lila	-8.06302
▁anymore	-8.06849
▁boat	-8.07864
▁three	-8.08295
▁first	-8.08602
▁Dad	-8.08791
▁here	-8.09232
▁use	-8.09568
▁doll	-8.09865
▁grabbed	-8.10383
▁strong	-8.10443
▁fell	-8.10979
▁only	-8.11396
▁us	-8.1164
▁does	-8.11865
▁night	-8.12039
▁Everyone	-8.1276
▁warm	-8.12926
▁kitchen	-8.13299
▁jumped	-8.13571
▁wait	-8.13747
▁That	-8.13767
▁adventure	-8.14162
Can	-8.14164
▁helped	-8.15025
▁glad	-8.15147
▁birds	-8.1565
▁happened	-8.15824
▁dress	-8.16611
▁cry	-8.16772
▁shouted	-8.16906
▁Let	-8.18398
▁reached	-8.18399
▁Joe	-8.19104
▁book	-8.19126
▁story	-8.19236
▁grass	-8.19378
▁bright	-8.19515
▁bunny	-8.19524
▁sees	-8.19619
▁realized	-8.19927
▁having	-8.20313
▁yummy	-8.20371
▁game	-8.20678
▁ate	-8.21146
▁open	-8.21168
▁rock	-8.21197
▁Tommy	-8.2135
▁am	-8.21406
▁bit	-8.21668
▁favorite	-8.22427
▁ready	-8.22526
▁mum	-8.22582
▁thing	-8.22604
▁watch	-8.22717
▁learn	-8.23243
▁really	-8.23746
▁Can	-8.24214
▁through	-8.24353
▁lady	-8.24555
▁making	-8.24596
▁world	-8.2469
▁began	-8.24839
▁himself	-8.24988
▁done	-8.25135
▁Do	-8.25148
▁looks	-8.25448
▁coming	-8.25823
▁pond	-8.25999
▁kids	-8.26013
▁stop	-8.2615
▁waved	-8.26408
▁tired	-8.2681
▁than	-8.26919
▁why	-8.27064
▁flower	-8.27473
▁near	-8.275
▁name	-8.27765
▁funny	-8.28405
▁mouse	-8.28736
▁cars	-8.2886
▁cried	-8.29159
▁A	-8.29179
Wow	-8.29347
▁used	-8.29608
▁blocks	-8.29629
▁worry	-8.29802
▁seen	-8.29904
▁another	-8.30492
▁top	-8.3065
▁green	-8.30653
▁parents	-8.30776
▁hopped	-8.30972
▁touch	-8.31031
▁under	-8.31387
▁care	-8.32275
▁doing	-8.3238
▁soft	-8.32392
▁surprise	-8.32392
▁paper	-8.3279
▁Sally	-8.33014
▁think	-8.33443
▁catch	-8.33746
▁lesson	-8.33925
▁floor	-8.34229
▁brother	-8.34342
▁wished	-8.34913
▁behind	-8.35435
▁pick	-8.35452
▁full	-8.35679
▁running	-8.35919
▁worked	-8.36244
▁yellow	-8.3654
".	-8.37
▁hole	-8.37439
ll	-8.37624
▁years	-8.37636
▁-	-8.37771
▁Daisy	-8.38156
▁trees	-8.38478
▁likes	-8.3875
▁happily	-8.3889
Don	-8.39155
▁surprised	-8.39231
ing	-8.39415
▁remembered	-8.39934
▁carefully	-8.40013
▁held	-8.40061
▁lost	-8.40527
▁tell	-8.40717
▁butterfly	-8.40725
▁ice	-8.41101
▁Benny	-8.41169
▁cool	-8.41476
▁dark	-8.41738
TMs	-8.41749
▁hear	-8.41929
▁needed	-8.41997
▁picture	-8.42159
▁cold	-8.42165
▁At	-8.42322
▁anything	-8.43047
▁left	-8.43286
▁enjoyed	-8.43361
▁move	-8.43575
Hello	-8.43705
▁wrong	-8.43784
▁buy	-8.43933
▁followed	-8.44115
▁sat	-8.44129
▁sound	-8.44613
▁children	-8.44939
▁Now	-8.45014
▁There	-8.45785
▁Finally	-8.45915
▁hat	-8.46015
▁Billy	-8.46025
▁friendly	-8.46138
▁close	-8.46308
▁please	-8.46606
▁finished	-8.46676
▁delicious	-8.47337
▁herself	-8.47557
▁window	-8.48383
▁table	-8.48589
▁else	-8.49015
▁frog	-8.49188
▁rain	-8.49374
▁Molly	-8.49391
▁own	-8.49807
▁colors	-8.50101
▁arrived	-8.50155
▁wind	-8.50173
▁wonderful	-8.50395
▁broken	-8.50603
▁swing	-8.51054
▁stick	-8.51123
▁Amy	-8.51452
▁baby	-8.51598
▁able	-8.52395
▁gone	-8.52404
▁climb	-8.52581
▁sweet	-8.52583
▁bag	-8.52783
▁filled	-8.53222
▁hill	-8.53325
ed	-8.53948
▁read	-8.54091
▁far	-8.54249
▁agreed	-8.54423
▁someone	-8.54508
▁This	-8.55043
▁leaves	-8.55306
▁books	-8.5532
▁pink	-8.55437
▁tall	-8.55627
▁jump	-8.55673
▁continued	-8.55935
▁understand	-8.56013
▁any	-8.56815
▁fire	-8.57787
▁lion	-8.57963
▁ask	-8.58002
▁yes	-8.58206
▁wants	-8.58221
▁enough	-8.58339
▁morning	-8.58637
▁laugh	-8.58915
▁getting	-8.59054
▁Maybe	-8.59066
▁stayed	-8.59067
▁mess	-8.5949
▁hot	-8.59698
▁grandma	-8.59878
▁hair	-8.60119
▁finally	-8.60364
▁forgot	-8.60945
▁cookies	-8.61001
▁hungry	-8.61129
▁scary	-8.61129
▁turned	-8.61738
▁sometimes	-8.619
▁beach	-8.62079
▁set	-8.62163
▁What	-8.63016
▁trying	-8.63099
▁few	-8.63426
▁amazing	-8.63493
▁climbed	-8.63597
▁dinner	-8.63799
▁castle	-8.63928
▁mother	-8.6426
▁listened	-8.64359
▁smiles	-8.64535
▁wet	-8.65042
▁pictures	-8.65303
▁white	-8.65761
▁Jill	-8.65991
▁daddy	-8.66323
▁talk	-8.6645
▁clothes	-8.67048
▁light	-8.6705
▁squirrel	-8.67192
▁fix	-8.67291
▁puppy	-8.67466
▁cream	-8.67764
▁duck	-8.6779
▁moment	-8.6822
▁alone	-8.68225
▁air	-8.6829
▁makes	-8.68784
▁rest	-8.68879
▁others	-8.68889
▁asks	-8.68916
▁brought	-8.69338
▁tail	-8.69709
▁strange	-8.69746
▁everything	-8.69761
▁wasn	-8.6994
▁pulled	-8.7024
▁woods	-8.70259
▁ride	-8.7047
▁might	-8.72198
▁won	-8.72229
▁thank	-8.72518
▁hide	-8.72862
▁waited	-8.7288
▁joy	-8.72958
d	-8.73692
Oh	-8.73718
▁leave	-8.73829
▁amazed	-8.74315
▁Soon	-8.74971
▁teddy	-8.75385
▁towards	-8.75655
▁silly	-8.76292
▁fox	-8.76749
▁living	-8.76854
But	-8.76905
▁flying	-8.77448
▁runs	-8.7752
▁owner	-8.776
▁pretend	-8.7766
▁In	-8.77766
▁thinks	-8.77793
▁sing	-8.78016
▁shared	-8.78192
▁promised	-8.78539
▁race	-8.7899
▁All	-8.79151
▁perfect	-8.79178
▁job	-8.79179
This	-8.79266
Maybe	-8.79289
▁Mama	-8.79342
O	-8.79391
▁lake	-8.79986
▁draw	-8.8016
▁money	-8.80593
▁moral	-8.80841
▁party	-8.80845
▁wear	-8.80901
▁Daddy	-8.81165
▁deep	-8.81671
▁sand	-8.82101
▁worried	-8.82236
▁faster	-8.82522
e	-8.8285
▁slowly	-8.82957
▁colorful	-8.83184
▁pieces	-8.83188
▁dance	-8.83389
▁bike	-8.83406
Okay	-8.83441
▁visit	-8.83863
▁broke	-8.83982
▁bigger	-8.84408
▁Mary	-8.84412
▁grateful	-8.85159
▁candy	-8.8534
▁train	-8.85533
▁such	-8.85737
Mom	-8.86104
▁monster	-8.86123
▁tower	-8.86682
▁dangerous	-8.86863
▁cut	-8.86943
▁sit	-8.87199
▁magical	-8.87437
▁smart	-8.87981
▁sister	-8.88437
▁everywhere	-8.8862
▁farmer	-8.88978
▁join	-8.89065
▁music	-8.89285
▁side	-8.89609
▁sleep	-8.89824
▁helping	-8.89949
▁most	-8.89999
▁Just	-8.90069
▁across	-8.90141
▁twins	-8.90348
▁dolls	-8.90537
▁threw	-8.9097
▁reach	-8.91005
▁bite	-8.91196
▁dragon	-8.91222
▁met	-8.91565
▁heavy	-8.91575
▁dirty	-8.916
ir	-8.91608
▁bug	-8.91611
▁stepped	-8.91614
▁spot	-8.91624
▁crying	-8.9192
▁same	-8.92024
▁river	-8.92576
▁tight	-8.9279
▁words	-8.92978
Sure	-8.93062
▁hoped	-8.93101
▁field	-8.93388
▁wall	-8.9365
▁closed	-8.93834
TMt	-8.93879
▁start	-8.94015
▁remember	-8.94037
▁turn	-8.94152
▁Grandma	-8.94159
▁believe	-8.94322
Hi	-8.94404
▁balloon	-8.94487
▁Jimmy	-8.94646
▁wouldn	-8.94833
▁song	-8.94857
▁princess	-8.95213
▁swim	-8.95403
▁stuck	-8.9559
▁quiet	-8.96066
▁bowl	-8.96915
▁mouth	-8.97098
▁town	-8.97344
▁brown	-8.97845
▁paint	-8.97859
▁must	-8.98474
Why	-8.98604
▁suddenly	-8.98763
▁course	-8.98896
▁school	-8.99017
▁Emma	-8.99042
▁doctor	-8.99046
▁feels	-8.9918
▁gentle	-8.99244
▁Mum	-8.99396
▁clapped	-8.99437
▁eating	-8.99461
▁pushed	-8.99555
▁fairy	-8.997
▁break	-9.00123
▁black	-9.00772
▁blanket	-9.01126
▁animal	-9.01279
▁welcome	-9.01433
▁higher	-9.01576
▁Inside	-9.01592
▁without	-9.01693
▁drove	-9.02008
▁yard	-9.02147
Mommy	-9.02196
▁today	-9.02497
▁cheered	-9.03435
▁child	-9.03519
▁pet	-9.03669
▁swings	-9.03678
▁piece	-9.0368
▁wings	-9.03977
▁teacher	-9.04302
▁treasure	-9.04466
▁games	-9.04921
▁longer	-9.05108
▁turns	-9.05325
▁explained	-9.05647
▁sang	-9.05667
▁noises	-9.06
▁magic	-9.06863
▁late	-9.069
▁build	-9.0743
▁shoes	-9.07501
▁hugs	-9.07547
▁fence	-9.07791
▁well	-9.08035
▁stories	-9.08702
▁along	-9.08866
▁singing	-9.09156
▁apple	-9.0923
▁wish	-9.09239
▁dry	-9.09388
▁sign	-9.09495
▁shook	-9.0959
▁moved	-9.09835
▁lonely	-9.09946
▁upset	-9.10097
▁pocket	-9.10146
▁mine	-9.10153
▁stars	-9.10524
▁fight	-9.10615
▁bee	-9.10816
▁adventures	-9.10898
▁young	-9.10944
▁naughty	-9.10965
▁hold	-9.11312
▁On	-9.11542
▁sea	-9.1163
f	-9.11713
▁caught	-9.11809
▁enjoy	-9.11847
▁purple	-9.11954
▁nearby	-9.11972
▁Sammy	-9.11978
▁exploring	-9.11995
▁jar	-9.12126
▁wise	-9.12397
▁Fluffy	-9.12448
▁forget	-9.12455
▁dropped	-9.12497
▁lunch	-9.12505
▁monkey	-9.12506
▁backyard	-9.12823
▁orange	-9.12875
▁soup	-9.12908
▁rocks	-9.13087
▁swam	-9.13239
▁heart	-9.1325
▁shapes	-9.1332
▁taking	-9.136
▁owl	-9.13825
▁year	-9.13852
▁nap	-9.13882
▁star	-9.13953
▁chair	-9.14123
▁seemed	-9.14158
▁hit	-9.14242
▁real	-9.15174
▁woke	-9.1576
▁juice	-9.16037
▁busy	-9.16085
▁nose	-9.16104
▁street	-9.16345
▁though	-9.16368
▁bench	-9.16499
Lily	-9.16678
▁mad	-9.17311
▁farm	-9.1777
▁tiny	-9.17778
▁snow	-9.18003
▁wondered	-9.18155
▁arms	-9.18382
▁daughter	-9.18665
▁holding	-9.18775
▁sounds	-9.18799
▁Later	-9.19054
"	-9.1924
▁pull	-9.19558
▁secret	-9.19838
▁sitting	-9.19868
▁kite	-9.20236
▁nothing	-9.20637
▁afraid	-9.20699
▁branch	-9.20776
▁basket	-9.2101
▁fall	-9.21169
▁gift	-9.21478
▁nest	-9.21556
Do	-9.21647
▁With	-9.21712
▁elephant	-9.21803
▁comes	-9.21836
▁promise	-9.22085
▁round	-9.22277
▁Mr	-9.22399
▁cute	-9.22421
▁sick	-9.22723
▁forever	-9.228
▁takes	-9.22832
▁touched	-9.22941
▁fit	-9.23107
▁Thank	-9.2313
▁relieved	-9.23235
▁Come	-9.23258
▁bucket	-9.23634
▁bring	-9.23638
▁birthday	-9.23725
▁bread	-9.2378
▁hello	-9.23873
▁huge	-9.24042
▁key	-9.24064
▁cheese	-9.24364
▁dream	-9.25307
▁driver	-9.2628
▁swimming	-9.26378
▁exciting	-9.26509
▁onto	-9.26631
▁Jen	-9.27327
▁drink	-9.27452
▁sunny	-9.27488
▁rainbow	-9.2757
y	-9.27578
Of	-9.27658
▁laughing	-9.27767
▁bottle	-9.28574
▁journey	-9.28587
▁pot	-9.28679
▁life	-9.2921
▁instead	-9.29373
▁bush	-9.29749
▁plan	-9.29806
▁cave	-9.29865
▁milk	-9.29923
▁treat	-9.30009
▁follow	-9.30012
▁cozy	-9.30165
▁lucky	-9.30264
▁Jenny	-9.30374
▁pointed	-9.30451
▁woman	-9.30466
Hey	-9.30496
▁Emily	-9.30567
▁Jim	-9.30761
▁sunshine	-9.31061
▁sharp	-9.3107
▁watching	-9.315
▁accidentally	-9.32291
▁gives	-9.32337
▁ducks	-9.32533
▁later	-9.32584
▁smiling	-9.32648
▁grow	-9.33353
▁anyone	-9.33478
▁talked	-9.33515
▁bought	-9.33698
▁honey	-9.33728
▁healthy	-9.34708
▁searched	-9.34849
▁rope	-9.35795
▁interesting	-9.35851
▁hope	-9.35992
▁button	-9.36103
▁apples	-9.36373
▁plane	-9.36488
▁wide	-9.36601
▁person	-9.36726
▁pile	-9.36816
▁win	-9.36838
▁crayons	-9.37088
▁clever	-9.37171
▁tasty	-9.37193
▁smelled	-9.37376
▁clouds	-9.37594
œI	-9.37817
▁T	-9.38162
▁shining	-9.38323
▁free	-9.38736
▁front	-9.38829
▁trouble	-9.39119
▁patient	-9.3914
▁cup	-9.392
▁arm	-9.39279
▁storm	-9.39478
▁fair	-9.39758
▁loves	-9.39815
▁spotted	-9.40097
▁mud	-9.40321
▁screamed	-9.40415
▁coat	-9.40693
▁road	-9.41394
The	-9.41497
▁snake	-9.41544
▁fruit	-9.41575
▁asleep	-9.41846
▁forgive	-9.41941
▁horse	-9.42128
▁snack	-9.42289
▁lovely	-9.42826
▁spoon	-9.43075
▁appeared	-9.43099
▁Mittens	-9.432
▁danced	-9.43213
▁bow	-9.43327
▁snowman	-9.43339
▁shop	-9.43354
▁which	-9.43604
▁goes	-9.43831
▁tries	-9.44071
▁path	-9.4415
▁Jake	-9.44544
▁whole	-9.44787
▁gently	-9.44787
▁phone	-9.44956
▁answer	-9.452
▁corner	-9.45373
▁Together	-9.45802
▁wearing	-9.45813
▁matter	-9.45885
▁confused	-9.46097
▁rude	-9.46451
▁rolled	-9.46475
▁Lisa	-9.46741
▁teeth	-9.46954
▁wild	-9.47046
▁king	-9.47397
▁giant	-9.47437
▁ocean	-9.48015
▁dirt	-9.48191
▁cookie	-9.4852
▁spent	-9.48584
▁tasted	-9.48692
Come	-9.48759
▁places	-9.48786
▁pretended	-9.49126
▁wave	-9.49599
▁problem	-9.50223
▁coin	-9.50378
▁oven	-9.50562
▁machine	-9.50582
▁sack	-9.51087
▁throw	-9.51203
▁furry	-9.51207
▁feet	-9.51268
▁ladder	-9.51374
▁last	-9.5227
▁smell	-9.5233
▁drive	-9.5269
▁helpful	-9.52772
▁eventually	-9.52969
▁faces	-9.53024
▁push	-9.53169
▁tomorrow	-9.53604
▁spider	-9.5372
▁building	-9.53866
▁zoo	-9.53902
▁picnic	-9.53957
▁couch	-9.5412
ex	-9.54131
▁slow	-9.54533
ly	-9.54767
▁Sometimes	-9.54846
▁calm	-9.55005
▁blew	-9.55011
▁Peter	-9.55291
▁knee	-9.55386
▁happen	-9.55522
▁talking	-9.55589
▁part	-9.55636
▁hiding	-9.55643
▁trip	-9.55678
Good	-9.55748
▁call	-9.55787
▁write	-9.55949
▁fur	-9.55959
▁village	-9.56098
▁grab	-9.56234
▁bugs	-9.56395
▁puddle	-9.56526
▁fighting	-9.56537
▁wore	-9.57058
▁chased	-9.57069
▁cow	-9.57138
▁shy	-9.57305
▁pool	-9.57312
▁carrot	-9.5738
▁smooth	-9.57421
▁cannot	-9.57605
▁leaf	-9.57799
▁lay	-9.57871
▁waiting	-9.58084
▁whenever	-9.58131
▁mind	-9.5825
▁Little	-9.58263
▁finish	-9.58381
▁songs	-9.58493
▁cloth	-9.59007
▁taste	-9.59136
▁maybe	-9.59397
▁large	-9.59625
▁Mummy	-9.59734
▁plant	-9.59735
▁treats	-9.60053
▁Everywhere	-9.60204
▁Teddy	-9.60369
▁chocolate	-9.60428
▁selfish	-9.60727
▁string	-9.60823
▁barked	-9.60934
▁letter	-9.61084
Tom	-9.61558
▁stone	-9.61568
▁shelf	-9.61601
▁cloud	-9.61653
▁wash	-9.61844
▁necklace	-9.62092
▁count	-9.62133
▁spread	-9.62137
▁fixed	-9.62384
▁neighbor	-9.62428
▁Please	-9.62543
▁forward	-9.6283
▁hid	-9.62974
▁color	-9.63005
▁peaceful	-9.63266
▁bell	-9.6339
▁creative	-9.63423
▁creature	-9.63962
▁missed	-9.64005
▁Alice	-9.64011
▁jungle	-9.64033
▁How	-9.64201
▁seat	-9.64229
▁shirt	-9.64579
▁kiss	-9.64699
▁embarrassed	-9.64854
▁land	-9.64855
▁jumping	-9.64947
▁meet	-9.65244
▁carrots	-9.6526
▁whistle	-9.65313
▁landed	-9.65381
▁sharing	-9.65555
▁tidy	-9.65602
▁plate	-9.65675
▁robot	-9.65843
Please	-9.6615
▁hears	-9.66236
▁Whil	-9.66345
▁moon	-9.66359
▁knocked	-9.66506
▁bus	-9.66722
▁Johnny	-9.66772
▁teach	-9.66877
▁sticks	-9.66934
▁carry	-9.66962
▁almost	-9.67212
▁splash	-9.67311
▁grew	-9.67339
▁legs	-9.67446
▁tea	-9.67514
▁ashamed	-9.67776
▁save	-9.67802
▁empty	-9.68356
My	-9.68407
▁tells	-9.68629
▁meadow	-9.68641
▁tightly	-9.6867
▁line	-9.68755
▁stood	-9.68798
▁gray	-9.68827
▁Even	-9.68988
▁protect	-9.69024
▁Don	-9.69489
▁sheep	-9.69746
▁yelled	-9.69781
▁Why	-9.69807
▁understood	-9.69975
▁nods	-9.70184
▁band	-9.70655
▁kitten	-9.70892
▁disappointed	-9.70976
▁carried	-9.71239
▁these	-9.71295
▁hospital	-9.7137
▁hours	-9.7178
▁meant	-9.72075
▁sail	-9.72565
▁breath	-9.72575
▁snacks	-9.72584
▁bath	-9.72659
▁Leo	-9.72703
▁sparkly	-9.72803
▁cook	-9.73277
▁bored	-9.73621
▁honest	-9.73687
▁stand	-9.73852
▁hidden	-9.73966
▁spicy	-9.74072
Stop	-9.74191
▁powerful	-9.74209
▁puzzle	-9.74519
▁generous	-9.74629
▁pizza	-9.74826
▁bedroom	-9.74906
▁ant	-9.74915
▁drew	-9.74977
▁block	-9.75198
▁easy	-9.75205
▁crab	-9.75208
▁plants	-9.75307
▁sighed	-9.75361
▁taught	-9.75388
▁present	-9.75402
▁mysterious	-9.75419
▁decide	-9.75616
▁shore	-9.75617
▁standing	-9.75625
▁scarf	-9.75985
▁waves	-9.7603
▁finger	-9.76177
▁worm	-9.7629
▁returned	-9.76302
▁mountain	-9.76387
▁group	-9.7643
▁gate	-9.76538
▁determined	-9.76723
▁kissed	-9.76729
▁thankful	-9.76746
▁sour	-9.76894
▁polite	-9.7701
▁messy	-9.77093
▁hop	-9.77141
▁knowing	-9.77225
▁lock	-9.77255
▁sleepy	-9.77551
▁cries	-9.7767
▁frustrated	-9.77685
▁ship	-9.77717
▁closet	-9.77718
▁Mark	-9.77895
Sorry	-9.78048
▁ring	-9.78116
▁prince	-9.78244
▁minutes	-9.78359
▁yourself	-9.78499
▁fancy	-9.785
▁sandwich	-9.78513
▁tears	-9.78841
▁poor	-9.79114
▁bridge	-9.79176
▁O	-9.79231
▁ugly	-9.79257
▁wolf	-9.79368
œ	-9.79399
▁grumpy	-9.7959
▁often	-9.79861
Ben	-9.79895
▁passed	-9.80129
▁gathered	-9.80316
▁card	-9.80346
▁Susie	-9.80585
▁Today	-9.8068
▁days	-9.80745
▁hopping	-9.81096
▁chest	-9.81176
▁shell	-9.8127
▁caterpillar	-9.81304
▁mummy	-9.81567
Where	-9.81706
▁Go	-9.81876
▁net	-9.81938
▁expensive	-9.81955
▁vase	-9.82003
▁mix	-9.82295
▁lit	-9.82426
Are	-9.82534
▁scissors	-9.82591
▁leg	-9.8271
▁boring	-9.82771
▁saved	-9.82938
▁taken	-9.83014
▁roll	-9.83491
▁mail	-9.83635
▁excitement	-9.83645
▁answered	-9.83706
▁dancing	-9.83877
▁mistake	-9.83891
▁deer	-9.84376
itty	-9.84394
▁seek	-9.84453
▁true	-9.84509
▁working	-9.84597
▁tie	-9.84631
▁wood	-9.84694
▁Some	-9.84746
▁wagged	-9.84911
▁spin	-9.8493
▁middle	-9.85028
▁feed	-9.8541
▁giggled	-9.85457
▁pig	-9.8549
▁tent	-9.85726
▁bone	-9.85951
▁packed	-9.86051
▁rocket	-9.86139
▁crown	-9.86158
▁comfortable	-9.86159
er	-9.86245
▁brush	-9.86251
▁picks	-9.8637
▁ok	-9.86374
▁pleased	-9.8653
▁asking	-9.86703
▁nervous	-9.8685
▁fruits	-9.86923
▁police	-9.87438
▁sugar	-9.87595
▁pain	-9.87663
▁glass	-9.87852
▁cage	-9.87888
▁glue	-9.87993
▁medicine	-9.88009
▁lose	-9.88122
▁drawing	-9.88433
▁match	-9.88577
▁especially	-9.88581
▁distance	-9.88599
▁smelly	-9.88751
▁vegetables	-9.88824
▁fake	-9.88877
▁mirror	-9.88947
▁tape	-9.8901
▁change	-9.89018
▁lazy	-9.89104
▁Eventually	-9.89349
▁Bobby	-9.89533
▁calling	-9.89556
▁number	-9.89615
▁disappeared	-9.89955
▁lying	-9.90071
▁become	-9.90083
▁sweetie	-9.90085
▁moving	-9.90212
▁playground	-9.90318
▁eggs	-9.90369
▁gun	-9.90592
▁nod	-9.90885
▁licked	-9.91139
▁bake	-9.91298
Who	-9.91976
▁fluffy	-9.92068
▁pay	-9.92101
▁ruined	-9.92216
▁splashed	-9.92381
▁respect	-9.9239
▁bathroom	-9.92483
▁feathers	-9.92666
▁test	-9.9272
▁skipped	-9.92772
▁drank	-9.92953
▁noisy	-9.93081
▁body	-9.93117
▁walks	-9.93172
▁weak	-9.93265
▁roar	-9.93268
ose	-9.93428
▁queen	-9.93623
▁measure	-9.93888
▁famous	-9.93939
▁No	-9.94354
▁questions	-9.94385
▁stones	-9.94463
▁juicy	-9.94917
▁lamp	-9.94917
▁fill	-9.94949
▁covered	-9.95512
▁Ellie	-9.95534
▁rich	-9.9557
▁towel	-9.95687
▁wheel	-9.96045
▁Pete	-9.9608
▁fine	-9.96236
▁live	-9.96494
▁Ella	-9.96547
▁eager	-9.96553
▁wrote	-9.96824
▁sailed	-9.97038
▁incredible	-9.97184
▁pillow	-9.97222
▁cleaned	-9.97283
▁clown	-9.97298
▁Mandy	-9.97321
▁hose	-9.97355
Help	-9.9741
▁elderly	-9.97412
n	-9.97472
▁board	-9.97496
▁map	-9.97602
▁gets	-9.97848
▁bubbles	-9.97951
▁father	-9.98002
▁branches	-9.98064
▁flag	-9.98065
▁zoom	-9.98139
▁eye	-9.9819
▁joke	-9.98222
▁End	-9.98251
▁jealous	-9.98347
▁organized	-9.98817
▁chicken	-9.98819
▁adventurous	-9.98885
▁Mrs	-9.98945
▁coins	-9.99262
▁discovered	-9.9928
▁tiger	-9.99286
▁rare	-9.99652
▁dig	-9.99973
▁clear	-9.99975
▁garage	-9.9999
▁realised	-10.0009
▁content	-10.002
▁happening	-10.0022
▁ones	-10.0024
▁colourful	-10.0024
▁offered	-10.0032
▁shows	-10.0046
▁tag	-10.0054
▁balance	-10.0056
▁louder	-10.0087
▁neck	-10.0092
▁chase	-10.0108
▁pie	-10.0137
▁wand	-10.0138
▁once	-10.0142
▁unique	-10.015
▁loyal	-10.0178
▁word	-10.0187
Now	-10.0194
▁cross	-10.0196
▁butter	-10.0203
▁Fred	-10.0204
▁Bobo	-10.0226
▁bottom	-10.0228
▁Bella	-10.0236
▁lifted	-10.024
▁weird	-10.024
TM	-10.0245
▁difficult	-10.0254
▁circle	-10.0262
▁unusual	-10.0292
▁lift	-10.0296
▁knife	-10.0298
▁wonder	-10.0301
▁knight	-10.0302
▁crawled	-10.0305
▁managed	-10.0324
▁mighty	-10.0337
▁banana	-10.0338
▁choose	-10.0342
▁smoke	-10.0362
▁barn	-10.0376
▁drum	-10.0406
▁soap	-10.0408
▁edge	-10.041
▁whale	-10.0424
▁extra	-10.0433
▁shake	-10.0441
▁berries	-10.0444
▁kindness	-10.0454
im	-10.0455
▁thin	-10.0459
▁dogs	-10.0471
▁harder	-10.0478
▁giving	-10.0478
▁needs	-10.0484
▁learning	-10.049
▁sword	-10.0492
▁dizzy	-10.0533
▁added	-10.0541
▁balls	-10.0548
▁tough	-10.0555
▁figure	-10.0571
▁spun	-10.0579
▁search	-10.0587
▁wrapped	-10.0593
▁island	-10.0593
▁kid	-10.0606
▁pointing	-10.0611
▁painting	-10.0627
▁guitar	-10.0637
▁market	-10.0637
▁boxes	-10.0642
▁shape	-10.0654
▁favourite	-10.0664
▁four	-10.0675
▁hurts	-10.0685
▁ears	-10.0703
▁bald	-10.072
▁belonged	-10.0722
▁impressed	-10.0724
▁movie	-10.0725
▁foot	-10.0729
▁laughs	-10.0732
▁enjoying	-10.0741
▁loudly	-10.0745
▁check	-10.0766
▁pen	-10.0768
▁already	-10.0775
▁team	-10.0778
▁against	-10.0779
▁clay	-10.079
▁saying	-10.08
▁trucks	-10.0807
▁brilliant	-10.0809
Here	-10.0824
▁dreamed	-10.0838
▁safely	-10.0839
▁thick	-10.0844
▁circles	-10.0849
▁miss	-10.0859
▁yours	-10.0862
▁paw	-10.0872
▁Grandpa	-10.0874
▁skin	-10.0874
▁balloons	-10.0876
▁Blue	-10.0878
▁normal	-10.0882
▁falls	-10.0894
▁fat	-10.09
▁trunk	-10.0911
▁birdie	-10.0924
▁belong	-10.0928
▁crayon	-10.0941
▁Tweety	-10.0941
▁space	-10.0945
▁swan	-10.0945
▁hats	-10.0947
▁wagon	-10.0958
▁log	-10.0968
▁bossy	-10.0975
▁buttons	-10.0976
▁collect	-10.0977
▁notice	-10.0982
▁rough	-10.0986
▁dinosaur	-10.099
▁Lola	-10.0999
▁ear	-10.1015
▁proudly	-10.1028
▁grown	-10.104
▁clap	-10.104
▁breakfast	-10.105
▁slipped	-10.1055
r	-10.1059
▁Nemo	-10.1063
▁sight	-10.1065
▁escape	-10.1088
▁foolish	-10.1098
▁step	-10.1104
Well	-10.1105
▁shout	-10.1117
▁happiness	-10.1126
▁frightened	-10.1129
▁wake	-10.1135
▁stubborn	-10.1144
▁delicate	-10.1148
▁fridge	-10.115
▁cheerful	-10.1152
▁ancient	-10.1164
▁valuable	-10.1164
▁brothers	-10.1169
▁city	-10.1181
▁invited	-10.1182
▁turtle	-10.119
▁act	-10.121
▁My	-10.1234
▁Ducky	-10.1236
▁kick	-10.1252
▁nosy	-10.1269
▁useful	-10.1285
Be	-10.1311
▁means	-10.1313
▁wiped	-10.1328
▁horn	-10.1341
A	-10.1344
▁icy	-10.1347
▁borrow	-10.1379
▁roof	-10.1383
▁sounded	-10.14
▁office	-10.1414
▁shells	-10.1426
▁dependable	-10.1432
▁dough	-10.1466
▁nicely	-10.1471
▁dead	-10.1479
▁walls	-10.1496
▁mixed	-10.1509
▁grandpa	-10.1527
▁goat	-10.1528
▁exclaimed	-10.1538
▁locked	-10.1548
▁smaller	-10.1565
▁rode	-10.1566
▁jam	-10.1566
▁tools	-10.1574
▁fountain	-10.16
▁rose	-10.16
▁trust	-10.1602
▁suggested	-10.1605
▁lights	-10.1621
▁poured	-10.1622
▁counted	-10.1626
▁fingers	-10.1635
œLet	-10.1643
▁successful	-10.1645
▁pumpkin	-10.1651
▁bitter	-10.1665
▁excitedly	-10.1672
▁stove	-10.169
▁dove	-10.1695
▁gold	-10.1706
▁dreams	-10.171
▁above	-10.1727
▁stumbled	-10.1727
▁ow	-10.1729
▁egg	-10.1748
▁explored	-10.1759
▁Whenever	-10.1759
Me	-10.176
▁showing	-10.1771
▁fierce	-10.1779
▁using	-10.1784
▁Toby	-10.1795
▁practice	-10.1811
▁bushes	-10.1813
▁parrot	-10.1815
▁witch	-10.1817
▁To	-10.1821
▁spinning	-10.1824
▁admired	-10.1835
▁bags	-10.1849
▁themselves	-10.1852
▁bounce	-10.1853
▁brightly	-10.1888
▁son	-10.1891
▁built	-10.1911
▁stronger	-10.1918
▁shone	-10.1921
▁obedient	-10.1929
▁George	-10.1931
▁delighted	-10.1937
▁jolly	-10.1944
▁reminded	-10.1952
▁kicked	-10.1958
▁whispered	-10.1962
▁hero	-10.1964
▁Ann	-10.1975
▁beak	-10.1977
▁Mike	-10.2003
▁print	-10.2015
▁Your	-10.2019
▁fragile	-10.2035
▁tummy	-10.2047
▁raced	-10.2058
▁pass	-10.2073
▁zip	-10.208
▁cleaning	-10.2086
▁playful	-10.2088
▁Dave	-10.2092
▁spoiled	-10.21
▁joined	-10.2102
▁original	-10.2107
▁enormous	-10.2116
▁popcorn	-10.2116
▁pan	-10.2128
▁power	-10.2141
▁scream	-10.215
▁independent	-10.2158
▁wrap	-10.2169
▁unknown	-10.2174
▁cone	-10.2179
▁scare	-10.2192
▁solve	-10.2192
▁reliable	-10.2194
▁changed	-10.2201
▁spend	-10.2201
▁handed	-10.2202
▁pencil	-10.2208
▁chose	-10.2218
▁yarn	-10.2228
▁metal	-10.2238
▁cart	-10.2245
▁thoughtful	-10.2246
▁hammer	-10.2248
▁painted	-10.2257
▁jog	-10.2267
▁sink	-10.2267
▁angel	-10.2274
a	-10.2287
▁bees	-10.2292
▁finding	-10.23
▁shark	-10.2309
▁add	-10.232
▁salad	-10.2335
▁delight	-10.237
▁allowed	-10.237
▁leaving	-10.2375
▁camera	-10.2388
▁hairy	-10.2414
▁doesn	-10.2421
▁Joey	-10.2429
▁forth	-10.2471
▁gasped	-10.2472
▁toast	-10.2482
▁stupid	-10.2497
▁those	-10.2504
▁yet	-10.2507
▁telling	-10.2539
▁tank	-10.2539
▁spray	-10.256
▁kinds	-10.2562
▁guilty	-10.2562
▁wealthy	-10.257
▁stairs	-10.2571
▁picking	-10.2572
▁houses	-10.2574
▁sleeping	-10.2576
▁knows	-10.2577
▁holds	-10.259
▁hay	-10.259
▁boys	-10.2605
▁Polly	-10.2611
œYes	-10.2619
▁thinking	-10.2631
▁terrible	-10.264
▁view	-10.2643
▁patch	-10.2643
▁dolphin	-10.2646
▁march	-10.2657
▁washed	-10.2665
▁clumsy	-10.2671
▁rushed	-10.2674
▁aunt	-10.2684
▁rug	-10.2691
▁barber	-10.2699
Go	-10.2703
▁create	-10.2713
▁cover	-10.2716
▁goose	-10.2729
▁stage	-10.2745
▁half	-10.2768
▁popular	-10.2768
▁missing	-10.2773
▁low	-10.2787
œWhat	-10.279
▁serious	-10.2791
▁Be	-10.28
▁thirsty	-10.2802
▁advice	-10.2812
▁searching	-10.2812
▁boats	-10.2822
▁nurse	-10.2837
▁dull	-10.2843
▁week	-10.2845
▁sauce	-10.2862
▁ways	-10.2905
▁stream	-10.2906
▁clock	-10.2909
▁pirate	-10.291
▁stranger	-10.2915
▁ending	-10.2932
▁driving	-10.2934
▁sparkled	-10.2943
▁rubbed	-10.295
▁hoop	-10.2968
▁nature	-10.2984
▁shocked	-10.2995
▁fresh	-10.2999
▁modern	-10.3013
▁thunder	-10.3015
▁flashlight	-10.3018
▁opens	-10.3018
▁Next	-10.3027
▁Bill	-10.3035
▁impressive	-10.3037
▁friendship	-10.3045
▁tied	-10.305
▁rat	-10.3058
▁crocodile	-10.3058
▁biggest	-10.3066
ate	-10.3078
▁carrying	-10.3081
▁sudden	-10.3086
▁wheels	-10.3088
▁jacket	-10.3093
▁graceful	-10.3099
▁diamond	-10.3106
▁prize	-10.3109
▁flexible	-10.3111
old	-10.313
▁umbrella	-10.3131
Ow	-10.3132
How	-10.3136
▁Bear	-10.3143
▁spaghetti	-10.3167
▁wing	-10.3167
▁dreaming	-10.3179
▁warned	-10.3186
▁careless	-10.3191
▁class	-10.3191
▁hang	-10.3196
▁statue	-10.3198
▁desk	-10.3199
▁crazy	-10.3218
▁peeked	-10.3222
▁numbers	-10.3226
œIt	-10.3235
▁regular	-10.3236
▁engine	-10.3241
▁beetle	-10.3244
▁seeds	-10.3297
▁truth	-10.3307
▁cheap	-10.3309
▁feather	-10.331
▁spilled	-10.3318
▁meal	-10.3332
▁handle	-10.3333
▁Look	-10.3345
▁turkey	-10.3356
▁crane	-10.3359
▁Andy	-10.3361
▁early	-10.3376
▁envelope	-10.3383
▁note	-10.3386
▁corn	-10.3394
▁sadly	-10.3397
▁penny	-10.34
▁imagined	-10.3406
▁gum	-10.3413
▁ingredients	-10.3414
▁sorts	-10.3415
▁pale	-10.3425
▁mailbox	-10.346
▁bent	-10.3466
▁screen	-10.3468
▁flute	-10.3474
▁bull	-10.3474
▁scale	-10.3475
▁lemon	-10.3486
▁towers	-10.3498
▁past	-10.3512
▁Sophie	-10.3518
▁mark	-10.352
▁cupboard	-10.3524
▁value	-10.3533
▁tunnel	-10.3536
▁spoke	-10.3545
▁humble	-10.3563
▁stops	-10.3571
▁persistent	-10.3576
▁ahead	-10.3578
See	-10.3579
▁harmless	-10.3585
▁placed	-10.3588
aid	-10.3598
▁piano	-10.3613
▁reading	-10.3615
▁nut	-10.362
▁bracelet	-10.362
▁octopus	-10.3624
▁jelly	-10.3638
▁guard	-10.3641
▁parade	-10.3644
▁order	-10.3645
▁pretending	-10.3652
▁drop	-10.3657
▁growing	-10.3658
▁badly	-10.3663
▁sofa	-10.3683
▁shoot	-10.3686
▁older	-10.3687
▁counting	-10.3696
▁beauty	-10.3706
▁mole	-10.3714
▁shut	-10.372
▁sell	-10.3725
▁Give	-10.3725
▁celebrate	-10.3729
▁trash	-10.3734
▁fan	-10.3742
▁chew	-10.3748
▁Alex	-10.3773
▁library	-10.3774
up	-10.3781
▁jug	-10.3782
ting	-10.3795
▁butterflies	-10.3813
▁track	-10.3814
▁uncomfortable	-10.3822
They	-10.3848
▁slid	-10.3918
▁refused	-10.392
▁helps	-10.3927
▁uncle	-10.3934
There	-10.3942
▁ordinary	-10.396
▁cooking	-10.3967
▁twirled	-10.3975
▁computer	-10.3982
▁sandwiches	-10.3992
▁cereal	-10.3998
He	-10.3999
▁carpet	-10.4004
▁jumps	-10.4007
▁study	-10.4013
▁hunter	-10.402
▁bandage	-10.4021
cream	-10.4023
▁Paul	-10.4027
▁lead	-10.4028
▁sunflower	-10.4038
▁station	-10.4047
▁drawer	-10.4049
▁gem	-10.4055
▁snuggled	-10.4062
▁gifted	-10.4062
▁intelligent	-10.4068
▁Annie	-10.4074
▁club	-10.4077
▁pigeon	-10.4082
▁charming	-10.4091
▁gloomy	-10.4121
▁chasing	-10.4127
▁rules	-10.4128
▁zebra	-10.4144
▁collar	-10.415
▁anxious	-10.4152
▁anywhere	-10.4153
▁chance	-10.4162
▁letters	-10.4173
Give	-10.418
▁skip	-10.4183
▁trap	-10.4186
▁cards	-10.4191
▁return	-10.4205
▁post	-10.421
▁competitive	-10.4221
▁soldier	-10.4224
▁Henry	-10.4231
▁alert	-10.4239
▁flour	-10.4245
▁Fin	-10.4247
▁ignorant	-10.4248
▁jet	-10.4251
▁lively	-10.4285
▁Jerry	-10.4287
▁chubby	-10.4296
▁deaf	-10.4311
▁spring	-10.4314
▁seem	-10.4317
▁lizard	-10.4324
▁Charlie	-10.4341
▁leash	-10.4344
▁ten	-10.4344
▁ghost	-10.4345
▁names	-10.4346
▁may	-10.4362
▁pressed	-10.4369
▁suit	-10.4372
▁stickers	-10.4375
▁hung	-10.4376
▁package	-10.4381
▁needle	-10.4392
p	-10.4398
▁pack	-10.44
▁case	-10.4401
▁compassionate	-10.4401
▁less	-10.4405
▁Grace	-10.4408
▁led	-10.4408
▁square	-10.4409
▁stretched	-10.4412
▁wishes	-10.4417
▁dug	-10.4422
▁bounced	-10.4449
▁pasta	-10.445
▁fear	-10.4451
▁slides	-10.4453
▁shine	-10.4456
▁squash	-10.4468
œThat	-10.4469
▁Are	-10.449
▁miserable	-10.4492
▁tool	-10.4495
▁cocoa	-10.4499
▁anyway	-10.4505
▁helpless	-10.4508
▁helmet	-10.4513
▁itself	-10.4514
▁arrow	-10.4516
▁blow	-10.4516
▁alligator	-10.4529
▁fearful	-10.4533
▁pony	-10.4535
▁Sandy	-10.4538
Yay	-10.4541
▁thief	-10.4551
▁Tweetie	-10.4551
▁Before	-10.4563
▁rub	-10.4566
▁afternoon	-10.4575
▁design	-10.4581
▁shaking	-10.4588
▁creatures	-10.4588
▁Brownie	-10.4597
▁hippo	-10.4603
▁crystal	-10.4612
▁bark	-10.462
▁tray	-10.4631
▁brighter	-10.4633
▁jeep	-10.4637
▁gorilla	-10.4643
▁candle	-10.4653
▁shouts	-10.4654
▁pants	-10.4665
▁courage	-10.4687
▁cap	-10.4692
▁nobody	-10.4702
▁starts	-10.4703
▁hurry	-10.4713
▁attractive	-10.4727
▁crawl	-10.4733
▁Where	-10.4737
▁envious	-10.4737
▁dish	-10.4743
▁steps	-10.4744
▁practiced	-10.4755
▁Here	-10.4755
▁leopard	-10.4759
▁somewhere	-10.4769
▁further	-10.479
▁purse	-10.4796
▁E	-10.48
▁disgusting	-10.4806
▁trumpet	-10.4809
▁respectful	-10.4827
▁record	-10.4833
▁restaurant	-10.4834
▁Millie	-10.4835
▁math	-10.4838
▁rice	-10.4841
▁sandbox	-10.4844
▁filthy	-10.485
▁adorable	-10.4853
▁giggle	-10.4866
ve	-10.4871
▁Lee	-10.4885
▁travel	-10.4885
▁Danny	-10.4886
▁fireman	-10.4888
▁dessert	-10.4891
▁lollipop	-10.4893
▁decorate	-10.4896
▁thread	-10.4917
▁cube	-10.4927
▁cheer	-10.493
▁impatient	-10.4945
▁windows	-10.4969
▁restless	-10.4984
▁helicopter	-10.4987
▁relax	-10.4989
▁troubled	-10.4992
▁soar	-10.4993
▁question	-10.4997
▁raven	-10.5003
▁hook	-10.5004
▁Everything	-10.5021
▁stirred	-10.5029
▁magnet	-10.5035
▁attic	-10.5048
▁nowhere	-10.5049
▁barking	-10.5064
▁melon	-10.5064
▁guess	-10.5079
▁harsh	-10.5081
▁radio	-10.5084
▁five	-10.5095
▁bicycle	-10.5107
▁van	-10.511
▁cooked	-10.5127
▁pipe	-10.5129
▁listening	-10.5139
▁cricket	-10.5149
▁distant	-10.5159
▁shade	-10.5165
Bye	-10.5178
▁split	-10.5185
▁admire	-10.519
▁lid	-10.5195
▁monkeys	-10.5198
▁happier	-10.5198
▁barrel	-10.5205
▁organize	-10.5217
▁scooter	-10.5225
▁bathtub	-10.5231
▁pepper	-10.5235
▁stared	-10.5242
▁nuts	-10.5252
▁quite	-10.5253
▁fork	-10.5255
▁tooth	-10.5263
▁comb	-10.5266
▁stack	-10.5269
▁Would	-10.5271
▁sweetheart	-10.5274
▁Buddy	-10.5274
▁pour	-10.5277
▁sort	-10.5287
▁grabs	-10.5288
Anna	-10.5298
▁stir	-10.5308
▁jellyfish	-10.5327
▁ostrich	-10.5336
▁shoe	-10.5355
▁frowned	-10.5364
▁given	-10.537
▁rescue	-10.5375
▁mask	-10.5375
▁rod	-10.538
▁crack	-10.5386
▁modest	-10.5407
▁wander	-10.541
▁Ted	-10.5413
▁tripped	-10.5413
▁riding	-10.5414
▁stretch	-10.5421
▁Maria	-10.5421
▁summer	-10.5423
▁message	-10.5433
▁sock	-10.5433
▁mama	-10.5433
▁bubble	-10.5434
▁sheet	-10.5451
▁paws	-10.5457
▁sailor	-10.546
▁tire	-10.5468
▁stuff	-10.5476
▁paid	-10.5487
year	-10.5488
▁sweater	-10.5493
▁salt	-10.5507
▁pushing	-10.5507
▁Will	-10.5509
▁ants	-10.5511
▁size	-10.5521
▁shield	-10.5521
▁enthusiastic	-10.5526
▁violin	-10.5535
▁either	-10.5538
l	-10.554
▁glow	-10.5547
▁heal	-10.5557
▁pilot	-10.5559
▁beep	-10.5575
▁belt	-10.5579
▁eraser	-10.5586
▁Lilly	-10.5586
▁broccoli	-10.5592
▁spirit	-10.5592
▁behave	-10.5594
▁Papa	-10.56
▁Bunny	-10.56
▁sticker	-10.5601
▁pebble	-10.5603
▁pulls	-10.5607
▁neat	-10.5612
▁speed	-10.5613
▁mug	-10.5616
▁dishes	-10.562
▁steal	-10.5621
▁cop	-10.5627
▁cows	-10.5629
▁grapes	-10.5636
▁sent	-10.5637
▁cord	-10.5647
▁pole	-10.5647
▁judge	-10.5651
▁yell	-10.5654
▁switch	-10.5659
▁chain	-10.5678
▁Baby	-10.5679
▁lightning	-10.5682
▁bikes	-10.5686
▁chalk	-10.5688
▁knock	-10.5706
▁perform	-10.5708
▁shadow	-10.5713
▁costume	-10.5717
▁roared	-10.572
▁fold	-10.5721
▁dive	-10.5726
▁palace	-10.5737
▁pushes	-10.5744
▁triangle	-10.5752
▁hive	-10.5758
▁reward	-10.5765
▁elevator	-10.5775
▁raft	-10.5775
▁shopkeeper	-10.5775
▁Harry	-10.5775
▁kangaroo	-10.578
▁seal	-10.5782
▁forgave	-10.5785
▁Smith	-10.5799
▁starting	-10.5802
▁otter	-10.5808
▁evening	-10.5814
▁microphone	-10.5827
▁wallet	-10.5838
▁peek	-10.584
▁Maggie	-10.5842
▁journal	-10.5848
▁send	-10.5863
▁wheat	-10.5866
▁swinging	-10.5887
▁tap	-10.589
▁pair	-10.5901
▁shakes	-10.5902
▁checked	-10.5918
▁penguin	-10.592
▁knot	-10.592
▁dust	-10.5922
▁bin	-10.5924
▁softly	-10.5925
▁basketball	-10.5925
▁jokes	-10.5945
▁alive	-10.5954
▁quick	-10.597
▁falling	-10.598
▁vine	-10.5981
œYou	-10.5986
▁silver	-10.5996
▁jewel	-10.5999
▁volcano	-10.601
▁taxi	-10.6014
▁peace	-10.6017
▁object	-10.6024
▁colours	-10.6026
▁zoomed	-10.6028
▁energy	-10.6032
▁mild	-10.6064
▁reindeer	-10.6067
▁visited	-10.6072
▁marched	-10.6092
▁boots	-10.6095
▁rubber	-10.6107
▁clapping	-10.6107
▁seed	-10.6111
▁S	-10.6116
▁folder	-10.6119
▁ended	-10.6125
▁James	-10.6126
▁backpack	-10.6139
▁panda	-10.6143
▁laundry	-10.6154
▁barks	-10.6154
▁wool	-10.6161
▁unhappy	-10.6175
▁holes	-10.6178
▁trains	-10.6193
▁Whiskers	-10.6201
▁notebook	-10.6204
▁planet	-10.6207
▁ambulance	-10.6208
▁comet	-10.6215
▁wire	-10.6216
▁danger	-10.6238
▁steak	-10.6248
▁task	-10.6249
▁frame	-10.6255
▁museum	-10.6255
▁mule	-10.627
▁mushroom	-10.6289
▁strawberry	-10.6292
▁cardboard	-10.6299
▁tube	-10.6303
▁haircut	-10.6308
▁papers	-10.6314
▁tomato	-10.6317
▁available	-10.6324
▁putting	-10.6328
▁twist	-10.6343
▁painter	-10.6348
▁lions	-10.6353
▁climbing	-10.6358
h	-10.6359
▁rolling	-10.6363
▁aeroplane	-10.6363
▁belongs	-10.6365
▁raining	-10.6366
▁flies	-10.6369
TMm	-10.6373
▁tricks	-10.6373
▁learnt	-10.6376
▁marry	-10.6376
▁trophy	-10.6383
▁yacht	-10.6391
▁polish	-10.6409
▁soil	-10.6414
▁hadn	-10.6436
▁bananas	-10.645
▁goal	-10.645
▁coffee	-10.645
▁hoping	-10.6455
▁smells	-10.647
▁shelter	-10.648
▁leaned	-10.6495
▁imagine	-10.6501
▁trick	-10.651
▁rag	-10.651
▁cauliflower	-10.6517
▁football	-10.6521
▁flame	-10.6524
▁pin	-10.6525
▁human	-10.6531
▁cactus	-10.6539
▁meat	-10.654
▁yogurt	-10.6555
▁drawings	-10.6563
▁twig	-10.6577
▁acorn	-10.6579
▁comfort	-10.658
▁counter	-10.6584
▁airport	-10.6585
▁minute	-10.6615
▁medal	-10.6653
▁resist	-10.6656
▁complete	-10.6658
▁mill	-10.6663
▁celery	-10.6668
▁page	-10.6695
▁lawyer	-10.6698
▁bloom	-10.6706
▁apologized	-10.6707
▁Mimi	-10.6718
▁ink	-10.6736
▁support	-10.6736
▁cats	-10.6738
▁drops	-10.6738
▁porch	-10.674
▁shrimp	-10.674
▁repair	-10.6744
▁breaks	-10.6744
▁winter	-10.6752
▁cooler	-10.6762
▁vendor	-10.6767
▁onion	-10.6768
▁shouldn	-10.6768
▁cups	-10.6768
▁spell	-10.6773
▁diary	-10.6779
▁hotel	-10.6779
▁vest	-10.6782
▁pit	-10.6789
▁eagerly	-10.6803
▁closely	-10.6804
▁factory	-10.6809
▁swung	-10.6821
▁Tony	-10.6821
▁between	-10.6844
▁treasures	-10.6852
▁quit	-10.6871
▁unlock	-10.6875
▁Tweet	-10.6877
▁Or	-10.6884
▁Instead	-10.6906
▁shouting	-10.6906
▁sunset	-10.691
osie	-10.6914
▁shower	-10.6914
▁deliver	-10.6928
▁kitty	-10.6929
▁points	-10.6943
▁stuffed	-10.6959
▁coal	-10.6972
▁motor	-10.6976
▁mixer	-10.6982
▁point	-10.6984
▁lie	-10.7009
▁furniture	-10.7012
▁zipper	-10.7012
▁thanks	-10.7012
▁forgotten	-10.7047
▁created	-10.705
▁fields	-10.705
▁temple	-10.7059
▁skull	-10.7063
▁giraffe	-10.7066
▁flea	-10.7066
▁poke	-10.7068
▁tuna	-10.7079
▁perfectly	-10.708
▁baking	-10.7091
▁sneak	-10.7094
▁sir	-10.71
▁motorcycle	-10.7106
▁laser	-10.711
▁attention	-10.7118
▁speak	-10.7124
Your	-10.7127
▁seeing	-10.713
▁wife	-10.7134
ach	-10.7136
▁golf	-10.7142
▁throws	-10.7142
▁skeleton	-10.715
▁player	-10.7152
▁headed	-10.7155
▁slept	-10.7162
▁igloo	-10.7178
▁soccer	-10.719
Tim	-10.7197
▁Pat	-10.7224
▁lives	-10.7227
▁fireplace	-10.7234
▁mechanic	-10.7254
▁swamp	-10.7254
▁petals	-10.7266
▁loop	-10.7269
▁hut	-10.727
▁hockey	-10.727
▁meeting	-10.7281
▁video	-10.7283
▁photo	-10.7291
▁pirates	-10.7291
▁argue	-10.7293
▁gather	-10.7307
▁Miss	-10.7315
▁oil	-10.7315
▁maze	-10.7319
▁Clara	-10.7319
▁peach	-10.7327
▁explain	-10.7328
▁reef	-10.7331
▁blowing	-10.7342
▁Bun	-10.7343
▁vet	-10.7343
▁oyster	-10.7373
▁bulb	-10.7373
▁waving	-10.738
▁breeze	-10.7392
▁axe	-10.7413
▁cabinet	-10.7413
▁weather	-10.7417
▁church	-10.7421
▁cherries	-10.7437
b	-10.7443
▁wipe	-10.7445
▁theater	-10.7445
▁glove	-10.7476
▁powder	-10.7499
▁cable	-10.7507
▁marble	-10.7509
▁imagination	-10.7513
▁heads	-10.7535
▁cushion	-10.7538
▁golden	-10.7545
▁celebrated	-10.7547
▁popped	-10.7553
es	-10.7565
▁parent	-10.7572
▁Tina	-10.7574
▁shovel	-10.7576
▁pup	-10.7582
▁feelings	-10.7588
ie	-10.7589
▁stamp	-10.7591
▁glowing	-10.7593
▁potato	-10.7594
▁frogs	-10.7598
▁sunglasses	-10.7603
▁God	-10.7628
▁welcomed	-10.7629
▁calls	-10.7676
▁sniffed	-10.7678
Max	-10.768
▁fishing	-10.7683
▁horses	-10.7687
▁Dan	-10.7701
▁slippery	-10.7703
▁peanut	-10.7706
▁strength	-10.7712
▁bouncing	-10.7716
▁yoga	-10.7724
▁plastic	-10.7728
▁lime	-10.7732
▁trail	-10.7736
▁greedy	-10.7737
▁staff	-10.7745
▁mop	-10.7756
▁curtain	-10.7757
▁rhinoceros	-10.7762
▁gas	-10.777
▁second	-10.777
▁flapped	-10.7771
▁bears	-10.7772
▁pine	-10.7773
▁lotion	-10.7777
▁ceiling	-10.7779
▁anchor	-10.7783
▁hanging	-10.7808
▁toilet	-10.7813
▁wags	-10.782
▁shoulder	-10.7821
▁baseball	-10.7822
▁battery	-10.7822
▁poem	-10.7826
▁kingdom	-10.7835
▁chickens	-10.7854
▁dishwasher	-10.786
▁napkin	-10.786
▁faucet	-10.7869
▁knob	-10.7869
▁cabin	-10.7882
▁film	-10.7895
▁spark	-10.7907
▁offer	-10.7919
▁dear	-10.792
▁pistol	-10.7929
al	-10.7932
▁skirt	-10.7934
▁microscope	-10.7937
▁agree	-10.7945
▁mystery	-10.7955
▁sticky	-10.7964
▁fought	-10.7985
▁memories	-10.7985
▁magazine	-10.8008
▁avocado	-10.8017
▁investigate	-10.8024
▁lend	-10.8035
▁kayak	-10.8039
▁rise	-10.8046
▁vroom	-10.8048
▁iron	-10.8048
▁eaten	-10.806
▁tear	-10.8065
▁television	-10.8072
▁shrugged	-10.8085
▁discover	-10.8089
▁First	-10.8089
▁sailing	-10.8092
▁burned	-10.8105
▁success	-10.8107
▁classroom	-10.8125
c	-10.8128
▁tutor	-10.8133
▁dancer	-10.8134
o	-10.8138
▁ignored	-10.8144
▁squirrels	-10.8147
▁jewelry	-10.8151
▁sprayed	-10.8154
▁finds	-10.8159
▁disappear	-10.8169
▁mistakes	-10.8178
▁See	-10.819
▁veterinarian	-10.8191
▁quietly	-10.8191
i	-10.8192
▁alarm	-10.8217
▁cane	-10.8222
▁worth	-10.8226
▁burn	-10.8228
▁oak	-10.8231
▁throwing	-10.8239
▁choice	-10.826
▁collected	-10.8266
▁writing	-10.8271
▁hopes	-10.8282
▁hedge	-10.8288
▁separate	-10.8291
▁tub	-10.8293
▁tug	-10.832
▁beef	-10.833
Timmy	-10.8338
▁hall	-10.834
▁display	-10.8343
▁radish	-10.8347
▁scolded	-10.8347
g	-10.8365
▁crib	-10.8369
▁follows	-10.8371
▁cared	-10.8382
▁mattress	-10.8382
▁accepted	-10.8389
▁file	-10.8401
▁happens	-10.8408
▁chess	-10.8414
▁serve	-10.8417
▁short	-10.8418
▁fisherman	-10.8419
▁exam	-10.8428
▁mustache	-10.8428
▁missile	-10.8446
▁gym	-10.8451
▁creek	-10.846
▁quarrel	-10.8474
▁True	-10.8475
▁blouse	-10.8478
▁nail	-10.8482
▁bookcase	-10.8533
▁veil	-10.8533
▁earth	-10.8537
▁bean	-10.8539
▁trusted	-10.855
▁tucked	-10.8556
▁matches	-10.8556
▁kisses	-10.8556
▁blankets	-10.8565
▁armchair	-10.8588
▁grill	-10.8592
▁entered	-10.8599
▁newspaper	-10.8602
▁accept	-10.8611
▁candles	-10.862
▁wardrobe	-10.8624
▁chimney	-10.8629
▁stable	-10.8629
▁licks	-10.8633
▁fog	-10.8643
▁sizes	-10.8644
▁musician	-10.8644
▁mosquito	-10.8647
▁keeping	-10.865
▁boot	-10.8658
▁luck	-10.8665
▁melt	-10.8685
Wait	-10.869
And	-10.8696
▁opera	-10.8699
▁pattern	-10.87
▁rake	-10.8702
▁presents	-10.8707
▁lab	-10.8732
▁freezer	-10.8736
▁puddles	-10.8746
▁perfume	-10.875
▁claws	-10.8761
▁pinch	-10.8774
▁splashing	-10.8781
▁dressed	-10.8784
▁straight	-10.8792
▁caring	-10.8799
▁Milly	-10.8806
Sam	-10.8809
▁blood	-10.883
▁apart	-10.8834
▁amazement	-10.8839
These	-10.8858
▁blinked	-10.8864
▁razor	-10.8868
▁lawn	-10.8882
▁Freddy	-10.8886
▁improve	-10.889
u	-10.889
▁root	-10.8894
▁pastry	-10.8901
▁However	-10.8915
▁load	-10.8916
▁squeeze	-10.8916
▁castles	-10.8917
▁shampoo	-10.892
▁coats	-10.8921
▁pear	-10.8923
ver	-10.8928
▁pray	-10.8948
▁birdcage	-10.8953
▁crossed	-10.8958
▁language	-10.8961
▁easily	-10.8963
▁unpack	-10.8968
▁warmth	-10.8969
▁trade	-10.8971
▁ticket	-10.8971
▁since	-10.8973
▁symbol	-10.8976
▁ribbon	-10.8995
▁raise	-10.8999
▁spear	-10.9005
▁squeezed	-10.9012
▁mint	-10.9018
▁telephone	-10.902
▁worms	-10.9027
▁crawling	-10.9033
▁attach	-10.9045
▁steam	-10.9047
▁makeup	-10.9057
▁uniform	-10.9072
▁holiday	-10.9078
▁moves	-10.9088
Did	-10.9115
▁country	-10.9117
▁ringing	-10.9119
or	-10.9142
▁Snowy	-10.9152
▁puzzles	-10.9166
▁valley	-10.917
▁mist	-10.9174
▁remind	-10.918
▁helper	-10.9182
▁wandered	-10.9183
▁gear	-10.9185
▁relaxed	-10.9188
se	-10.9211
▁yucky	-10.9214
▁crash	-10.9215
▁Luckily	-10.9219
▁dictionary	-10.9224
▁sneeze	-10.9228
▁weigh	-10.9237
▁C	-10.9249
▁blueberries	-10.9254
▁doors	-10.9254
en	-10.9287
▁oasis	-10.9288
▁poked	-10.929
▁chairs	-10.9311
▁hurting	-10.9315
▁subway	-10.9318
▁waste	-10.9324
▁ha	-10.9332
▁Help	-10.9334
▁muffin	-10.9344
▁sandcastle	-10.9374
Because	-10.9376
▁growled	-10.9383
▁pill	-10.9383
▁quiz	-10.9387
eady	-10.9397
▁buckle	-10.9415
ray	-10.9418
▁Who	-10.9421
▁below	-10.9422
▁reaches	-10.9424
▁tornado	-10.9427
▁screw	-10.9429
▁Buzz	-10.9442
▁berry	-10.9447
▁following	-10.9459
▁married	-10.9467
▁novel	-10.9489
▁invite	-10.9498
▁shrink	-10.9521
▁bury	-10.9541
and	-10.9547
est	-10.9551
uby	-10.9558
▁whip	-10.9558
▁begged	-10.9563
▁spade	-10.9563
▁isn	-10.9565
▁ashtray	-10.9568
▁experience	-10.9569
Yuck	-10.9578
▁myself	-10.9594
▁fallen	-10.96
▁strawberries	-10.9614
▁buried	-10.9614
▁reverse	-10.9629
▁laughter	-10.963
▁immediately	-10.9639
▁jail	-10.9639
atie	-10.9641
▁bravely	-10.9649
▁hearts	-10.965
▁beamed	-10.9655
▁ignore	-10.9658
▁bookshelf	-10.9665
▁People	-10.9666
▁cell	-10.9669
▁junk	-10.967
▁cliff	-10.968
▁fuel	-10.968
▁enter	-10.9681
▁Ollie	-10.9691
▁apron	-10.9699
▁bumped	-10.9718
▁skills	-10.9723
▁Brown	-10.9732
▁hate	-10.9733
▁breathe	-10.9738
▁planes	-10.9744
œNo	-10.9748
achel	-10.9753
▁calendar	-10.9758
▁ornament	-10.9767
▁festival	-10.9768
▁bathe	-10.977
▁remove	-10.9771
▁safety	-10.9799
▁score	-10.9808
▁alright	-10.981
▁snapped	-10.982
▁refrigerator	-10.9825
▁plates	-10.9832
▁understanding	-10.984
▁harbor	-10.9846
▁drain	-10.9851
▁known	-10.9858
▁saving	-10.9888
▁captain	-10.9898
▁spoil	-10.9899
▁prevent	-10.9917
▁license	-10.9935
▁someday	-10.9952
▁cuddled	-10.9957
ups	-10.9978
▁D	-10.9982
▁wine	-10.9986
▁Everyday	-10.9988
▁Steve	-11.0003
▁dried	-11.0014
▁massage	-11.0014
▁Joy	-11.0026
▁pages	-11.0041
▁sparkling	-11.0046
Sara	-11.0048
▁permission	-11.0052
▁teaching	-11.0071
▁scattered	-11.0074
▁shot	-11.0084
▁cheek	-11.0085
▁bathrobe	-11.0089
▁spending	-11.0099
▁destination	-11.0105
▁waffle	-11.0106
▁taller	-11.0122
▁sparkle	-11.0127
▁Abigail	-11.0127
▁Poppy	-11.0133
▁blackboard	-11.0143
▁insisted	-11.0143
▁chamber	-11.0148
▁sausage	-11.015
oe	-11.015
▁socks	-11.0155
▁label	-11.0161
▁model	-11.0171
▁vanished	-11.0176
▁lily	-11.0186
▁pride	-11.0186
▁Have	-11.0198
▁Penny	-11.0202
▁lemonade	-11.0202
▁jewels	-11.0208
▁hanger	-11.021
▁praised	-11.0245
▁tease	-11.025
▁yawned	-11.0252
▁scooped	-11.0257
▁dresses	-11.026
▁lumber	-11.0262
▁settled	-11.0263
▁rot	-11.0267
▁prepare	-11.0271
▁earlier	-11.0278
▁port	-11.028
▁received	-11.0307
▁surprises	-11.0309
▁destroyed	-11.0312
▁press	-11.0313
▁whisper	-11.032
▁rail	-11.0328
▁washing	-11.0364
▁Betsy	-11.0365
▁buzzing	-11.0366
▁chirping	-11.0372
▁appreciate	-11.0375
▁surrender	-11.0389
▁toes	-11.0398
▁none	-11.0407
▁insect	-11.0419
▁patiently	-11.0419
▁dare	-11.043
ness	-11.0432
▁decorations	-11.0438
▁moments	-11.0451
▁pulling	-11.0468
▁nation	-11.0491
▁beans	-11.0498
▁encouraged	-11.0505
▁spots	-11.0506
▁deeper	-11.0509
▁superhero	-11.0509
▁tongue	-11.0542
▁hits	-11.0551
▁examine	-11.0586
▁fastest	-11.0604
▁supply	-11.0608
▁urge	-11.0631
▁believed	-11.0635
▁panic	-11.0646
▁chores	-11.0657
▁tour	-11.0658
▁passport	-11.0666
▁heat	-11.0686
▁brain	-11.0695
▁floated	-11.0708
▁remain	-11.0714
▁provide	-11.0722
▁vacation	-11.0723
▁palm	-11.0735
▁snap	-11.0735
▁sparkles	-11.0756
▁universe	-11.0758
▁worse	-11.0763
▁mitten	-11.0764
▁upstairs	-11.0775
▁automobile	-11.0781
▁twisted	-11.0784
▁infant	-11.0815
▁collection	-11.0833
▁law	-11.0844
▁shooting	-11.0848
▁solved	-11.0865
▁jazz	-11.0867
▁cobweb	-11.0868
▁ranch	-11.0871
▁digging	-11.0873
▁struggling	-11.0884
▁warning	-11.0887
▁suppose	-11.089
▁sneezed	-11.0904
▁cherry	-11.0907
▁setting	-11.0923
▁stadium	-11.0931
▁rhythm	-11.0936
▁mall	-11.0937
▁art	-11.0941
▁meowed	-11.0949
▁thrilled	-11.0966
▁grey	-11.0971
▁floating	-11.0974
▁sits	-11.0989
▁awe	-11.0992
▁vehicle	-11.1003
▁cartoon	-11.1009
▁camp	-11.101
Welcome	-11.1011
▁succeed	-11.102
▁grinned	-11.1024
▁rabbits	-11.1025
▁ideas	-11.1027
▁leak	-11.104
▁billboard	-11.1042
▁grape	-11.1044
▁replace	-11.107
▁approached	-11.1072
in	-11.1077
▁wizard	-11.1083
▁weeks	-11.1085
▁itch	-11.1086
▁sip	-11.1097
▁restore	-11.1099
▁structure	-11.1103
▁war	-11.1104
▁gifts	-11.1105
it	-11.1106
▁thumb	-11.1109
▁stomach	-11.1119
▁measured	-11.113
▁neighbour	-11.1133
▁remained	-11.115
▁Luna	-11.1155
▁neighborhood	-11.116
▁weapon	-11.1169
▁oranges	-11.117
Ok	-11.1181
emember	-11.1196
▁rush	-11.1204
▁difference	-11.1205
▁May	-11.121
▁shed	-11.1235
▁luggage	-11.1244
▁thermometer	-11.1244
▁mailman	-11.125
Thanks	-11.1264
▁batter	-11.1285
▁memory	-11.1286
▁Liz	-11.1295
▁future	-11.1298
▁actually	-11.1301
▁David	-11.131
▁bricks	-11.1317
▁delay	-11.1324
▁glowed	-11.1338
▁university	-11.134
un	-11.1351
▁poppy	-11.1352
▁fixing	-11.1367
▁cartoons	-11.1368
▁marbles	-11.1374
▁teaspoon	-11.1389
▁parts	-11.1423
▁airplane	-11.143
Ha	-11.1438
▁receive	-11.1448
▁Spike	-11.1468
▁slice	-11.148
▁climbs	-11.1484
▁hills	-11.1485
emy	-11.15
▁firework	-11.1505
nfortunately	-11.1524
▁surrounded	-11.1536
▁scratch	-11.1537
▁Jo	-11.1548
▁accident	-11.1554
▁sprinkles	-11.1554
▁hurricane	-11.1555
▁wisdom	-11.1555
▁exercise	-11.1561
▁watches	-11.1571
▁brings	-11.1574
▁mister	-11.158
▁daisy	-11.1586
▁discovery	-11.1605
▁destroy	-11.1606
▁observe	-11.1609
▁bites	-11.1613
▁tomatoes	-11.1617
▁Someone	-11.1629
▁dur	-11.1636
▁melted	-11.1638
▁sliding	-11.1646
▁tide	-11.1667
▁invitation	-11.1667
▁potatoes	-11.1673
▁complain	-11.1675
▁curled	-11.168
▁paused	-11.168
▁yield	-11.1682
▁zipped	-11.1686
▁paints	-11.1687
▁torn	-11.1692
▁float	-11.17
▁continue	-11.1715
▁rooms	-11.1716
▁admiring	-11.1729
▁Julie	-11.1736
▁chewed	-11.174
▁sunrise	-11.1742
▁seats	-11.1757
▁twirl	-11.1763
▁decision	-11.1769
▁Anne	-11.1771
▁laid	-11.1774
▁gust	-11.1799
▁bang	-11.1828
Mmm	-11.1829
▁sunlight	-11.1844
▁unite	-11.1848
▁elephants	-11.1859
le	-11.1882
▁tracks	-11.1888
▁twigs	-11.1915
▁operation	-11.192
▁manage	-11.1921
▁shiver	-11.1922
▁whistling	-11.1933
▁possible	-11.1933
▁crashed	-11.1936
▁weight	-11.1936
▁pillows	-11.1939
▁grocery	-11.1952
▁price	-11.1965
▁ordered	-11.1983
▁racing	-11.1991
▁kindly	-11.2
▁patterns	-11.2002
▁peer	-11.2006
▁spaceship	-11.2011
▁signs	-11.2033
▁marching	-11.2036
▁collecting	-11.205
▁watered	-11.2074
▁x	-11.2079
▁menu	-11.2082
ncle	-11.2095
▁chirped	-11.2116
▁Sunday	-11.2128
▁beside	-11.2133
▁problems	-11.2138
▁jogging	-11.2141
▁bother	-11.2142
▁scratched	-11.2143
▁colour	-11.2154
ch	-11.2156
▁gloves	-11.2158
▁sidewalk	-11.2161
▁Sharing	-11.2164
▁sold	-11.2168
▁petted	-11.2168
▁burning	-11.2171
▁fed	-11.2174
▁folded	-11.221
▁escaped	-11.2232
▁poison	-11.2254
▁peanuts	-11.2274
▁Cat	-11.2282
▁crunchy	-11.2287
▁raised	-11.2289
▁doggy	-11.2313
▁navy	-11.2313
▁gotten	-11.2313
▁safari	-11.2333
ri	-11.234
▁lands	-11.2345
▁officer	-11.2353
▁Sunny	-11.2353
▁equipment	-11.236
▁repeat	-11.2362
▁brick	-11.2372
▁earthquake	-11.2393
▁Nina	-11.2394
▁Chloe	-11.2394
œThank	-11.2395
Ouch	-11.2399
▁Nutty	-11.2407
▁appear	-11.2412
▁attached	-11.2416
▁onwards	-11.2418
▁spoons	-11.2419
▁strangers	-11.2422
oom	-11.2429
▁gain	-11.243
▁copper	-11.2461
▁beat	-11.2462
eally	-11.2478
▁skipping	-11.2482
▁Suzy	-11.2488
▁comfy	-11.2495
▁happiest	-11.2509
▁pigs	-11.2519
▁soldiers	-11.2536
▁screams	-11.2538
▁whistled	-11.2544
▁sings	-11.2545
▁refreshed	-11.2556
▁prune	-11.2556
seek	-11.2562
▁reminder	-11.2565
▁event	-11.2582
▁measuring	-11.2591
▁planted	-11.2615
▁bump	-11.2616
▁eagle	-11.2618
▁drinks	-11.262
▁lecture	-11.2632
▁image	-11.2633
▁clearing	-11.2633
Would	-11.2637
▁olive	-11.264
▁slip	-11.2659
▁Moral	-11.266
▁overjoyed	-11.266
▁sc	-11.2663
▁hated	-11.2687
▁disagreed	-11.2688
▁network	-11.2694
▁fetch	-11.2701
▁buildings	-11.2705
▁Beth	-11.2715
▁selling	-11.2721
▁mountains	-11.2735
▁turning	-11.2738
▁pitch	-11.2739
on	-11.2749
▁flood	-11.2762
▁bowed	-11.2769
▁history	-11.2771
▁keeper	-11.2774
▁precious	-11.2778
▁brand	-11.2799
▁wooden	-11.28
▁punish	-11.2818
▁scatter	-11.2823
▁Sadly	-11.2834
▁drinking	-11.2844
▁cuddle	-11.2856
▁mineral	-11.2857
▁Jamie	-11.2863
▁recognized	-11.2864
œWe	-11.2882
▁tip	-11.2936
▁lips	-11.2938
▁company	-11.294
▁pies	-11.2944
▁sore	-11.2948
▁dinosaurs	-11.2952
▁bye	-11.2952
▁Big	-11.297
▁crep	-11.2976
▁wonders	-11.2983
▁served	-11.2992
▁comforted	-11.3001
▁succeeded	-11.3007
▁request	-11.3009
▁easier	-11.3026
▁everyday	-11.3041
▁revealed	-11.3041
▁weren	-11.3052
▁printer	-11.3056
▁prepared	-11.3057
▁prayed	-11.3057
▁surf	-11.3059
▁apologize	-11.306
▁disturb	-11.3072
▁landscape	-11.3083
▁traffic	-11.3127
▁By	-11.3155
▁fireworks	-11.3156
▁ash	-11.3186
▁cutting	-11.3188
▁Thomas	-11.3207
is	-11.3219
▁rested	-11.3234
▁blueberry	-11.3236
▁Josh	-11.3236
Dad	-11.3237
▁rang	-11.3237
▁whatever	-11.3238
▁bleeding	-11.3244
▁remembers	-11.3249
▁bridges	-11.3266
▁shadows	-11.3271
▁herb	-11.3273
▁bones	-11.3275
▁anytime	-11.328
▁For	-11.3285
▁settle	-11.3286
▁rained	-11.3291
▁style	-11.3295
▁steel	-11.3302
▁catching	-11.3303
▁hurried	-11.3316
▁waist	-11.3317
▁creation	-11.333
▁secrets	-11.3331
▁trapped	-11.3333
▁freeze	-11.3333
▁muddy	-11.3346
▁soared	-11.3351
▁perched	-11.3361
▁simple	-11.3383
▁Chirpy	-11.3391
▁Tilly	-11.3436
▁circus	-11.3443
▁stripes	-11.3448
k	-11.3453
▁wreck	-11.3456
▁olives	-11.3457
▁practicing	-11.3458
▁oats	-11.3462
▁Something	-11.3469
▁cakes	-11.3476
▁Coco	-11.3482
▁permit	-11.3488
▁weep	-11.3489
▁breaking	-11.3489
▁shopping	-11.3496
▁area	-11.3498
▁responsible	-11.3503
▁owned	-11.3507
œCan	-11.3517
▁disturbed	-11.352
▁gained	-11.3535
▁row	-11.3544
ter	-11.3574
▁Sure	-11.358
▁agreement	-11.3586
▁soak	-11.3593
Will	-11.3603
▁visiting	-11.3606
▁villagers	-11.3609
▁beneath	-11.3632
▁curiosity	-11.3632
▁acorns	-11.3633
▁guessed	-11.3636
▁waffles	-11.366
▁exactly	-11.3662
▁pets	-11.3682
▁Betty	-11.3685
▁vegetable	-11.3694
▁items	-11.3701
▁wanting	-11.3717
▁velvet	-11.3731
▁tremble	-11.3737
▁zero	-11.3739
▁ours	-11.374
▁leather	-11.3747
▁costumes	-11.3753
▁boss	-11.3753
▁stealing	-11.3759
▁mission	-11.3762
▁brushed	-11.3763
out	-11.3766
▁mice	-11.3778
▁six	-11.3778
▁downstairs	-11.3793
One	-11.3797
▁recognize	-11.3799
▁mouths	-11.3799
ip	-11.382
Those	-11.3826
▁tastes	-11.3852
Spot	-11.3874
▁exit	-11.3886
▁struggled	-11.3888
▁ruin	-11.389
▁argued	-11.3921
▁bringing	-11.3921
▁cape	-11.3927
▁suffer	-11.3937
▁control	-11.3941
▁unicorn	-11.3941
▁twirling	-11.3944
▁sadness	-11.3953
la	-11.3955
▁ripped	-11.3965
▁yawn	-11.3976
▁victory	-11.3981
ar	-11.3983
▁knelt	-11.3988
▁news	-11.3991
▁Frank	-11.3996
▁unlocked	-11.4008
▁underground	-11.402
She	-11.4065
▁fascinated	-11.4068
▁grandmother	-11.4068
▁studied	-11.4076
▁Lulu	-11.4084
▁oxygen	-11.4084
▁Jessie	-11.4084
▁Tiny	-11.4092
▁frown	-11.4099
▁answers	-11.412
▁B	-11.4126
el	-11.4126
abbit	-11.4132
▁P	-11.4161
▁planned	-11.4164
▁decorated	-11.4168
▁examined	-11.4174
▁doctors	-11.4179
▁outdoors	-11.418
▁Claire	-11.4188
▁died	-11.4197
▁soaring	-11.4199
▁nicer	-11.4212
▁weighed	-11.4215
▁Lucky	-11.4253
▁Floppy	-11.4261
▁jogged	-11.4261
▁wagging	-11.4269
▁tugged	-11.4269
Yum	-11.4274
▁realize	-11.428
▁loaded	-11.4288
▁works	-11.4293
▁challenge	-11.4305
▁slapped	-11.4309
▁regret	-11.4316
▁shivering	-11.432
▁wondering	-11.4327
▁pinched	-11.4337
▁supplies	-11.4358
ro	-11.4374
▁winning	-11.4375
▁sting	-11.4381
▁pastel	-11.4389
▁bunnies	-11.4391
S	-11.4398
▁winner	-11.4405
▁increase	-11.4406
▁instructions	-11.4409
▁nails	-11.4416
œDon	-11.4437
▁Like	-11.4438
▁Hop	-11.4438
looking	-11.4447
use	-11.4449
▁underneath	-11.4457
▁yelling	-11.4463
eep	-11.4472
▁tickets	-11.4484
▁lemons	-11.4488
▁Susan	-11.449
▁monsters	-11.4516
▁contain	-11.4519
▁writes	-11.4527
li	-11.4535
▁budge	-11.454
▁brushes	-11.4541
▁sport	-11.4547
▁beds	-11.4551
▁gathering	-11.4553
▁zigzag	-11.4557
▁waits	-11.4559
▁satisfied	-11.4565
▁ruler	-11.4566
▁pancakes	-11.4573
▁punished	-11.4584
▁accidents	-11.4596
▁stirring	-11.4599
▁firemen	-11.4607
▁tune	-11.4615
▁Pip	-11.4632
▁neighbourhood	-11.4658
▁teasing	-11.4658
ay	-11.4664
▁properly	-11.4666
ee	-11.4672
▁shoulders	-11.4679
Or	-11.468
▁stretching	-11.468
▁zooming	-11.4685
▁mixing	-11.4703
▁printed	-11.4707
▁Carl	-11.473
▁strip	-11.474
▁introduce	-11.4767
▁peaches	-11.4777
▁pedal	-11.4815
▁Hannah	-11.4845
▁fashion	-11.4848
▁men	-11.4861
thank	-11.4861
▁Abby	-11.4862
▁lick	-11.4868
▁release	-11.487
▁surface	-11.488
œLook	-11.4889
▁discuss	-11.4893
▁released	-11.4899
▁ago	-11.4911
▁keys	-11.4912
▁Did	-11.4917
▁bunch	-11.4923
▁lines	-11.4938
Not	-11.494
▁spit	-11.4948
▁sights	-11.498
▁claps	-11.498
▁machines	-11.4987
▁lets	-11.4988
▁frosting	-11.4993
▁competition	-11.5001
▁piles	-11.5008
▁Bubbles	-11.5025
▁poking	-11.5028
▁herbs	-11.5076
▁ladybug	-11.508
▁strike	-11.508
▁F	-11.5084
▁Stop	-11.5086
▁sisters	-11.5094
œThis	-11.5098
▁camping	-11.511
Goodbye	-11.5111
▁giggling	-11.5124
▁burrow	-11.5142
▁lip	-11.5145
▁Santa	-11.5179
▁protected	-11.5181
▁obey	-11.5185
▁purred	-11.5187
▁struck	-11.5204
▁neighbors	-11.5222
▁pearl	-11.5235
▁repeated	-11.5261
▁studying	-11.5265
▁shock	-11.5265
w	-11.5269
▁stitch	-11.5274
▁beard	-11.5274
ic	-11.5282
▁muscles	-11.5283
▁Afterwards	-11.5283
▁baked	-11.5293
▁Adam	-11.5295
▁demanded	-11.5295
▁tickle	-11.5305
▁loose	-11.5316
▁un	-11.5329
▁super	-11.533
▁pockets	-11.5338
▁guns	-11.5344
▁touching	-11.535
▁marks	-11.5354
▁recommend	-11.5355
▁prunes	-11.5357
▁ourselves	-11.5357
▁ribbons	-11.5359
▁nightmare	-11.5361
▁mittens	-11.5366
▁voices	-11.5368
▁policeman	-11.5376
▁Both	-11.5376
▁youth	-11.5381
▁sigh	-11.5392
▁vowed	-11.5394
urried	-11.5402
▁silence	-11.5402
▁rides	-11.5407
ayla	-11.5413
▁include	-11.5421
▁pop	-11.5436
▁entire	-11.5439
▁result	-11.5453
▁parked	-11.5456
▁dragged	-11.5475
▁mentioned	-11.5477
▁steep	-11.5494
▁stair	-11.5499
▁draws	-11.5501
▁emergency	-11.5503
▁bouncy	-11.5512
▁motion	-11.5512
▁sorting	-11.5518
▁babies	-11.5531
Happy	-11.5532
▁Jenna	-11.554
Mama	-11.555
œHello	-11.5552
▁flap	-11.5574
▁barely	-11.5577
▁buckets	-11.5586
▁broom	-11.5605
Mia	-11.5606
▁discovering	-11.5609
▁prettiest	-11.5614
▁snail	-11.5614
▁gazed	-11.5615
▁web	-11.5621
▁tonight	-11.563
▁Wednesday	-11.5632
▁spiders	-11.5638
▁prints	-11.5638
▁soaked	-11.5644
il	-11.5663
▁pouring	-11.5667
▁Tuesday	-11.567
▁east	-11.567
▁frozen	-11.5698
▁season	-11.5714
▁lied	-11.572
▁acted	-11.5725
▁strings	-11.579
▁kicking	-11.5792
▁cub	-11.5803
▁guys	-11.5818
▁goodnight	-11.5821
▁pears	-11.5824
▁sweeties	-11.5828
ra	-11.5859
ery	-11.5864
▁muffins	-11.5866
▁loving	-11.5867
▁bank	-11.5877
▁stole	-11.5886
▁rocked	-11.5896
▁rubbing	-11.5896
▁shelves	-11.5896
P	-11.5898
▁highest	-11.5903
▁patience	-11.5906
▁Mira	-11.5925
▁movies	-11.5931
▁curly	-11.5935
▁chips	-11.5939
▁applauded	-11.5946
▁flat	-11.5946
▁chewing	-11.5952
Daddy	-11.5976
▁urged	-11.5976
▁Cindy	-11.5983
C	-11.5997
▁horns	-11.5998
▁scoop	-11.6007
▁Suzie	-11.6012
▁twinkling	-11.6012
▁sausages	-11.6028
▁fabric	-11.6031
▁Jeff	-11.6051
▁catches	-11.6056
▁eight	-11.6071
▁luxury	-11.6089
▁cones	-11.6091
at	-11.6115
▁G	-11.6116
▁west	-11.6126
▁drives	-11.613
œWhy	-11.6146
▁planets	-11.6149
▁Lizzie	-11.6158
▁direction	-11.6158
▁completed	-11.6162
▁sighs	-11.6173
▁knowledge	-11.6187
▁unexpected	-11.6197
▁staring	-11.6214
▁arrive	-11.6215
ur	-11.622
▁bloomed	-11.6222
▁chases	-11.6233
▁powers	-11.6239
▁reluctantly	-11.6247
▁crow	-11.6254
▁wedding	-11.6256
▁matched	-11.6258
▁situation	-11.6267
v	-11.6286
▁dragons	-11.6293
ion	-11.6299
▁figured	-11.6304
▁singer	-11.6316
▁safer	-11.632
oh	-11.6334
▁Linda	-11.6336
▁contest	-11.6336
▁curtains	-11.6337
▁waiter	-11.6342
▁shivered	-11.6379
▁rainbows	-11.6398
▁sides	-11.64
▁importance	-11.6406
▁slimy	-11.6406
▁effort	-11.6408
▁stamps	-11.642
no	-11.6424
▁balancing	-11.6436
▁librarian	-11.6436
away	-11.6441
▁cheering	-11.6443
▁rocking	-11.6445
▁awesome	-11.6446
▁blink	-11.6462
▁sorted	-11.6463
▁Always	-11.6479
▁passing	-11.6486
Exc	-11.6487
▁usual	-11.6496
▁pebbles	-11.6497
▁introduced	-11.6499
▁solution	-11.65
▁heel	-11.6503
▁allow	-11.6515
▁lean	-11.6526
▁Hoppy	-11.6528
▁hugging	-11.6529
▁roaring	-11.654
▁pupil	-11.6541
▁bravery	-11.6552
▁dusty	-11.6561
▁rid	-11.6561
▁vanish	-11.6567
▁flash	-11.6574
▁confident	-11.6578
▁Jessica	-11.6579
▁shined	-11.6584
▁patted	-11.6599
oo	-11.6608
œOh	-11.6609
▁marriage	-11.663
▁Dolly	-11.663
▁plenty	-11.665
▁screaming	-11.667
▁homework	-11.6686
▁traveled	-11.6688
▁dolphins	-11.6711
go	-11.6722
▁Lena	-11.6733
▁Two	-11.6748
▁ranger	-11.6748
▁workers	-11.675
▁struggle	-11.6752
▁sticking	-11.6755
ers	-11.6764
▁written	-11.6764
▁zookeeper	-11.6769
▁cast	-11.6775
Yeah	-11.6775
▁matching	-11.6778
▁oat	-11.678
▁Luke	-11.6785
▁growl	-11.6794
▁fault	-11.6806
▁reaching	-11.6811
▁kneel	-11.6846
▁blooming	-11.6854
▁Lizzy	-11.6859
▁hunt	-11.6866
▁An	-11.6886
▁markers	-11.6922
▁pat	-11.6922
▁M	-11.694
▁exhausted	-11.6943
▁radishes	-11.6944
▁Momo	-11.6949
▁flavor	-11.6961
▁caused	-11.6967
▁rescued	-11.697
▁glitter	-11.697
an	-11.6989
▁flags	-11.6993
▁Jacob	-11.6996
▁lamb	-11.6996
▁expected	-11.7009
▁regretted	-11.7018
▁startled	-11.7019
▁project	-11.7024
▁arguing	-11.7028
▁dared	-11.7032
▁storekeeper	-11.704
▁Julia	-11.7043
▁Tara	-11.7051
▁siren	-11.7057
▁baker	-11.7059
▁quack	-11.7074
▁goals	-11.7076
▁packing	-11.7079
▁twinkle	-11.708
▁towels	-11.7088
▁lap	-11.7099
▁stare	-11.7107
▁included	-11.7109
▁mane	-11.7144
▁creating	-11.7147
▁slap	-11.7168
▁Bee	-11.7171
▁Good	-11.7173
▁paintings	-11.7178
▁truly	-11.7179
▁observed	-11.7204
▁bottles	-11.7206
▁spraying	-11.7211
▁growling	-11.7215
oar	-11.7215
▁worker	-11.7219
▁spill	-11.7227
▁recorded	-11.723
▁Jones	-11.7234
▁desert	-11.7245
▁kneeled	-11.7247
▁Pinky	-11.7256
▁completely	-11.7258
▁resting	-11.727
▁leader	-11.7271
▁ventured	-11.7278
▁trembling	-11.7289
▁quacked	-11.7302
▁princesses	-11.7303
▁prayer	-11.7309
▁spike	-11.732
▁reveal	-11.7342
▁gaze	-11.7353
▁Leave	-11.7359
▁ripe	-11.7373
▁pretends	-11.7383
▁opening	-11.7387
▁dentist	-11.7388
▁reply	-11.7388
hello	-11.7396
▁encourage	-11.7397
▁paddled	-11.74
ara	-11.7404
▁agrees	-11.7408
▁bar	-11.7409
▁pajamas	-11.7432
▁wandering	-11.744
▁seesaw	-11.7445
▁inviting	-11.7455
▁organizing	-11.7455
▁cuts	-11.7456
▁crumbs	-11.7458
▁bat	-11.752
▁Jess	-11.7533
▁penguins	-11.7537
▁usually	-11.7557
▁timer	-11.7559
▁delivery	-11.757
B	-11.7574
▁throat	-11.7578
▁poems	-11.7579
▁removed	-11.7582
▁crowd	-11.759
▁everybody	-11.7601
▁pencils	-11.7602
▁harm	-11.7612
▁worries	-11.7612
▁keeps	-11.7618
th	-11.762
▁flames	-11.7638
▁countryside	-11.7658
▁recording	-11.7666
ling	-11.7669
▁replaced	-11.7684
▁roads	-11.7687
Mum	-11.7704
▁Bye	-11.7705
boo	-11.7709
▁Slowly	-11.7715
▁valued	-11.7722
▁Everybody	-11.7726
▁daisies	-11.7738
▁fairies	-11.7739
▁wasted	-11.774
▁applaud	-11.7745
▁honk	-11.7746
▁belly	-11.7757
▁misses	-11.7762
▁healed	-11.7791
▁polishing	-11.7791
▁remote	-11.7795
▁united	-11.7798
▁tractor	-11.7819
▁Fox	-11.7819
▁winked	-11.7821
you	-11.7824
▁scales	-11.7827
▁activities	-11.7853
▁rockets	-11.7856
▁particular	-11.7877
▁rubs	-11.7879
▁relief	-11.7888
▁darkness	-11.7893
obby	-11.7912
▁boom	-11.7927
▁Christmas	-11.7935
▁interested	-11.7936
ever	-11.7939
▁W	-11.7948
▁den	-11.795
▁Follow	-11.7954
▁faced	-11.7959
as	-11.7974
▁polished	-11.7977
▁warn	-11.7979
▁melting	-11.7988
▁peeking	-11.799
▁cause	-11.7993
▁twin	-11.8008
▁sense	-11.8017
▁single	-11.802
▁cracked	-11.8024
▁balanced	-11.8027
▁signed	-11.8035
▁Larry	-11.8041
▁younger	-11.8049
ry	-11.8058
▁Buzzy	-11.8067
▁fuzzy	-11.8077
▁Johnson	-11.8077
▁cautiously	-11.8077
▁texture	-11.808
▁teache	-11.8088
▁Mikey	-11.8093
▁copy	-11.81
Mummy	-11.81
▁wow	-11.8104
▁roots	-11.8105
▁crackers	-11.8106
ad	-11.8121
▁pastries	-11.8124
▁becoming	-11.8128
▁wires	-11.8134
▁directions	-11.8136
▁stem	-11.8136
▁b	-11.8139
▁opinion	-11.8152
Then	-11.8158
▁snakes	-11.8169
▁crabs	-11.817
▁lollipops	-11.8178
▁squealed	-11.8185
▁seagull	-11.8188
▁helmets	-11.82
▁however	-11.8205
▁dipped	-11.8208
▁Doggy	-11.821
▁Watch	-11.8217
▁Olive	-11.8232
▁yesterday	-11.8232
▁wiggled	-11.8246
Fine	-11.8273
▁eats	-11.8278
▁chuckled	-11.8281
room	-11.8282
▁restored	-11.8284
▁bend	-11.8286
▁filling	-11.8296
▁cough	-11.8301
▁Happy	-11.8304
▁celebration	-11.8305
▁forehead	-11.8305
▁wrist	-11.8317
▁sew	-11.8325
ap	-11.8326
▁Jazz	-11.8343
▁itchy	-11.8344
▁Many	-11.8354
uring	-11.8359
▁disagree	-11.8362
▁Matt	-11.8377
▁Put	-11.8378
▁sweets	-11.838
▁coloured	-11.8398
▁Sorry	-11.84
▁boo	-11.8407
▁photos	-11.8414
Just	-11.8416
▁rings	-11.8422
z	-11.8424
Bad	-11.8429
▁staying	-11.8435
T	-11.8439
▁knights	-11.8439
▁rolls	-11.8443
▁splashes	-11.8454
▁groceries	-11.8464
John	-11.8465
▁inch	-11.8474
▁lighter	-11.8482
▁swooped	-11.849
▁fluttered	-11.8503
▁peel	-11.851
over	-11.8526
▁bumpy	-11.8528
▁blows	-11.8542
▁piggy	-11.8551
▁lung	-11.8556
▁sneaky	-11.8567
▁badge	-11.8567
▁marked	-11.8585
▁actions	-11.8589
▁seems	-11.8611
▁paddle	-11.8612
▁rule	-11.8619
▁Sophia	-11.8626
▁beads	-11.8626
▁determination	-11.8639
▁firefighters	-11.8647
▁threat	-11.8651
▁entrance	-11.8651
▁adding	-11.8663
ia	-11.867
▁hider	-11.8679
▁tricky	-11.868
▁snowballs	-11.8686
▁tricked	-11.8696
▁seeker	-11.8719
▁Nothing	-11.8723
▁awake	-11.8727
E	-11.8729
▁lower	-11.8736
▁sobbed	-11.874
Tommy	-11.8743
▁logs	-11.875
▁hissed	-11.8765
▁closes	-11.8771
▁pots	-11.8782
▁Finn	-11.8813
▁provided	-11.882
▁protecting	-11.8824
▁skill	-11.8825
▁noon	-11.8827
▁beyond	-11.8829
▁handful	-11.8846
▁pleasure	-11.8855
▁glasses	-11.8856
▁cubes	-11.886
▁bumps	-11.8867
▁somebody	-11.8868
▁seven	-11.8868
œMommy	-11.8878
▁Emmy	-11.8881
aren	-11.8888
▁expect	-11.8889
▁scarves	-11.8893
▁Pandy	-11.8894
▁deal	-11.8894
▁roses	-11.8917
▁liquid	-11.8919
▁Maya	-11.892
ted	-11.8924
▁owners	-11.893
▁cashier	-11.8932
▁sandcastles	-11.8942
▁froze	-11.8945
▁June	-11.8945
▁complaining	-11.895
▁Abbie	-11.8958
ob	-11.8968
▁explorers	-11.8974
▁joking	-11.8984
▁tickled	-11.8987
▁pedals	-11.8997
▁Princess	-11.901
▁talented	-11.9025
▁Enjoy	-11.903
▁burst	-11.9036
▁foods	-11.9038
▁yourselves	-11.9049
▁darker	-11.9053
▁Laura	-11.9063
▁meow	-11.9068
▁calmed	-11.907
▁bakery	-11.9077
obbie	-11.9078
us	-11.9078
▁trips	-11.9095
Sometimes	-11.9105
▁delivered	-11.9109
▁wink	-11.911
uack	-11.9114
▁Milo	-11.9116
▁covers	-11.9124
▁folding	-11.9137
▁pause	-11.914
▁stolen	-11.9142
▁tallest	-11.9146
ies	-11.9147
▁Pam	-11.9148
ng	-11.9153
▁nectar	-11.9155
▁giraffes	-11.9159
▁afterwards	-11.9159
▁suitcase	-11.9166
▁beginning	-11.9168
Jack	-11.9172
▁achieve	-11.918
▁Out	-11.9181
▁hallway	-11.9181
ack	-11.9198
ful	-11.9203
▁naps	-11.9203
▁miles	-11.9208
▁bars	-11.921
▁candies	-11.9221
▁performance	-11.9235
▁insects	-11.9239
▁Days	-11.9254
▁Get	-11.9267
iki	-11.9275
lo	-11.9286
▁cost	-11.9287
▁Gigi	-11.9302
To	-11.931
▁chick	-11.9315
▁chirp	-11.9338
▁d	-11.9338
▁farther	-11.9343
▁Nick	-11.9354
▁Mickey	-11.9409
▁recipe	-11.9423
▁colored	-11.9426
▁speaking	-11.9431
▁hi	-11.9431
▁demand	-11.9432
▁raincoat	-11.945
▁Water	-11.9453
▁Not	-11.9475
▁salty	-11.9481
▁weeping	-11.9495
When	-11.9496
▁impossible	-11.9505
let	-11.9516
▁achieved	-11.952
▁pastels	-11.9523
▁Todd	-11.9538
▁smarter	-11.9544
▁Aunt	-11.9549
▁marker	-11.9563
▁acting	-11.9574
▁parties	-11.9574
ick	-11.96
▁accomplishment	-11.9601
▁kicks	-11.9628
▁sled	-11.9631
▁indeed	-11.9657
▁Gina	-11.9657
▁Jacky	-11.9689
▁kites	-11.9693
ow	-11.9694
▁tangled	-11.9699
▁hesitated	-11.9713
▁complained	-11.9717
ne	-11.9735
▁dots	-11.9741
▁buying	-11.9748
▁bowls	-11.9752
▁improved	-11.976
▁masks	-11.9761
▁wipes	-11.9764
▁talent	-11.9769
▁uses	-11.9778
▁Binky	-11.9783
▁click	-11.9783
▁chefs	-11.9788
▁snuggle	-11.981
Great	-11.9811
▁scaring	-11.9826
▁magnets	-11.9828
▁recommended	-11.9828
▁arrows	-11.983
▁teased	-11.983
▁avoid	-11.9838
▁secure	-11.9839
▁Stella	-11.9839
▁lettuce	-11.9839
Ah	-11.985
▁mixture	-11.9854
▁basement	-11.9854
▁smiley	-11.9856
▁guy	-11.9885
▁Abi	-11.9887
▁gems	-11.9887
▁Bird	-11.9889
▁cheeks	-11.9893
▁knocks	-11.9908
▁Martha	-11.9911
œCome	-11.9917
▁jackets	-11.9921
na	-11.9923
▁third	-11.9939
▁travelled	-11.9954
▁bedtime	-11.9955
▁Star	-11.9956
▁paying	-11.9957
▁learns	-11.9959
▁leading	-11.9979
œDo	-11.9984
Whee	-11.9999
▁choices	-12.0002
am	-12.0003
▁grin	-12.0006
▁videos	-12.001
▁Sadie	-12.0011
yan	-12.0015
▁Jay	-12.0025
▁chop	-12.0025
▁scrubbed	-12.0025
▁cupcakes	-12.0027
▁rumble	-12.0038
▁creativity	-12.004
Shh	-12.0049
▁creamy	-12.0051
▁neither	-12.0054
▁hesitant	-12.0069
▁stroked	-12.007
▁consequences	-12.0072
Meow	-12.0078
▁gracefully	-12.0087
▁fever	-12.0098
▁pouted	-12.0099
▁Ow	-12.0101
Next	-12.0106
▁families	-12.0112
▁widened	-12.0113
▁wrapping	-12.0113
▁ruining	-12.0117
▁behaved	-12.0122
▁glee	-12.0127
▁batteries	-12.0127
ent	-12.013
▁flapping	-12.0142
▁backwards	-12.0156
▁swept	-12.0156
œHi	-12.016
▁outfit	-12.0161
▁sailboat	-12.0171
▁source	-12.0171
▁fluttering	-12.0173
po	-12.0173
▁wound	-12.0176
led	-12.0184
▁celebrating	-12.0186
▁stung	-12.02
œWow	-12.0224
▁tasks	-12.0226
nuck	-12.023
uick	-12.0245
ueen	-12.0253
▁knees	-12.0254
▁wears	-12.0255
▁Earth	-12.0259
▁rusty	-12.0259
▁drifted	-12.0275
▁Mo	-12.0284
▁puppies	-12.0289
▁siblings	-12.0296
▁sprinkled	-12.0304
▁Chris	-12.0319
▁horizon	-12.0333
▁deserve	-12.0338
▁mention	-12.0346
▁scratches	-12.0349
▁seconds	-12.035
▁peacefully	-12.0356
▁Sparky	-12.0378
▁Goodbye	-12.0379
▁tigers	-12.0382
▁Ch	-12.0391
obert	-12.0408
oey	-12.041
bye	-12.0417
Boo	-12.0424
▁Snuggles	-12.044
▁hearing	-12.0463
ain	-12.0466
▁grand	-12.0469
▁grabbing	-12.0483
▁pointy	-12.0487
▁needles	-12.0497
▁diving	-12.0499
▁wiggle	-12.0527
▁losing	-12.0529
▁dollhouse	-12.053
▁yells	-12.0543
▁raindrops	-12.0544
um	-12.0549
▁shirts	-12.0557
▁guide	-12.0559
less	-12.0566
▁drums	-12.0567
▁mat	-12.0569
▁cuddly	-12.0575
▁J	-12.0581
▁stomped	-12.0591
▁swims	-12.0594
▁materials	-12.0598
L	-12.06
▁grassy	-12.0602
▁poster	-12.0603
▁rising	-12.0605
▁g	-12.0606
▁Wendy	-12.062
▁clowns	-12.0635
▁growls	-12.0644
▁damage	-12.065
▁artist	-12.0667
ntil	-12.0672
▁squares	-12.069
▁treehouse	-12.07
alph	-12.0713
▁tiptoed	-12.0729
▁Frog	-12.0732
▁rewarded	-12.0737
per	-12.074
man	-12.0749
▁Ali	-12.0754
▁among	-12.0759
▁ache	-12.0763
▁darling	-12.0769
▁snowmen	-12.0775
▁weekend	-12.0791
▁imagining	-12.0806
▁objects	-12.0809
ha	-12.0812
▁repaired	-12.0814
▁mushrooms	-12.0817
▁Michael	-12.0822
▁chef	-12.0832
▁gross	-12.0853
▁Granny	-12.0869
▁Janie	-12.0869
▁aren	-12.0877
▁beloved	-12.0884
▁sale	-12.0885
D	-12.0898
Yummy	-12.0901
▁center	-12.0916
▁willing	-12.0927
Have	-12.0929
▁silent	-12.0931
▁Along	-12.0932
▁players	-12.0953
▁Mabel	-12.0963
ight	-12.0971
▁wins	-12.0974
▁reflection	-12.1027
▁heading	-12.103
▁ornaments	-12.103
▁afford	-12.1043
▁tapped	-12.1043
▁Although	-12.1045
▁Jackie	-12.1058
▁students	-12.1071
▁Since	-12.1075
▁spikes	-12.1078
▁die	-12.1107
▁slammed	-12.1107
▁Davey	-12.1113
▁screws	-12.1118
▁adult	-12.1119
sh	-12.1126
▁bodies	-12.1139
▁swans	-12.1153
▁rustling	-12.1156
▁presses	-12.1172
▁windy	-12.1173
▁potion	-12.1189
▁includ	-12.1199
▁husband	-12.1204
▁stool	-12.122
▁trampoline	-12.122
▁Nobody	-12.1224
▁unpacked	-12.1227
▁separated	-12.1243
▁reason	-12.1253
▁Bluey	-12.126
▁wishing	-12.1267
▁printing	-12.1268
▁Simon	-12.1269
▁decorating	-12.1286
Oops	-12.1286
▁gardener	-12.1286
▁surroundings	-12.1299
Today	-12.1299
▁puppet	-12.1299
▁creations	-12.1306
▁temperature	-12.1319
ge	-12.1337
▁sparks	-12.1349
▁Maddie	-12.1352
▁heavier	-12.1352
M	-12.1354
▁neighbours	-12.136
▁cousin	-12.1382
▁Dr	-12.1385
▁item	-12.1418
▁pecked	-12.1435
▁discussed	-12.1438
▁rip	-12.1439
▁warnings	-12.1448
▁Lia	-12.1455
▁pans	-12.1456
▁H	-12.1464
▁Squeaky	-12.1485
▁sailors	-12.1489
▁fears	-12.1508
▁dollars	-12.1516
▁prettier	-12.1518
Time	-12.1522
▁onions	-12.1532
▁granted	-12.1536
▁limes	-12.1537
▁borrowed	-12.1549
▁intrigued	-12.1551
ping	-12.1565
all	-12.1582
▁co	-12.1585
▁audience	-12.1585
▁handsome	-12.1586
the	-12.1588
▁blocking	-12.1593
▁screwdriver	-12.1602
▁Eva	-12.1602
▁wraps	-12.1605
▁designed	-12.1613
▁neatly	-12.1622
▁slower	-12.1626
▁praying	-12.1627
▁wiping	-12.1636
▁meals	-12.1638
▁zebras	-12.1638
pe	-12.1648
▁enthusiasm	-12.1653
▁planning	-12.1653
▁shrinking	-12.166
▁forks	-12.1666
▁gobbled	-12.167
▁thrown	-12.1676
les	-12.1683
▁twice	-12.1687
▁slices	-12.1689
▁magician	-12.1704
▁Meg	-12.1713
Woof	-12.172
▁leaning	-12.1725
▁feeding	-12.1727
▁reads	-12.1731
▁minerals	-12.1733
▁dreamt	-12.1737
▁age	-12.1738
▁hitting	-12.1745
▁couple	-12.1755
▁wobbled	-12.1756
œMy	-12.1762
uth	-12.1767
▁requested	-12.1777
ine	-12.1788
▁Me	-12.1794
▁hawk	-12.1824
▁woof	-12.1824
▁Back	-12.1824
▁dived	-12.1832
▁promises	-12.1843
▁spoonful	-12.186
▁hour	-12.1877
nna	-12.1885
▁touches	-12.1886
ation	-12.189
Lila	-12.1893
▁scamper	-12.1894
▁chosen	-12.1897
▁remembering	-12.1899
▁Judy	-12.1911
▁delivering	-12.1921
▁raccoon	-12.1928
▁zipping	-12.1929
▁helpers	-12.1939
▁Friends	-12.1939
▁robber	-12.1948
G	-12.1972
hi	-12.1986
▁bleed	-12.1996
ac	-12.1999
▁spreading	-12.2011
▁hedgehog	-12.2016
▁sponge	-12.2016
▁starfish	-12.2016
▁noses	-12.203
▁familiar	-12.2034
▁Maddy	-12.2034
▁heroes	-12.2038
▁N	-12.2048
▁forgetting	-12.2058
▁lungs	-12.206
▁feast	-12.2069
ci	-12.2074
▁grandparents	-12.208
▁ham	-12.2081
Grandma	-12.2087
▁tissue	-12.2087
▁nine	-12.2092
▁dip	-12.2106
--	-12.2133
▁coloring	-12.2134
▁rivers	-12.2155
▁Bessie	-12.2158
▁greeted	-12.2159
▁curiously	-12.2168
▁Honey	-12.2173
▁pro	-12.2182
ment	-12.2192
▁hopeful	-12.2212
▁prove	-12.2216
▁preparing	-12.223
▁buzzed	-12.2231
▁sports	-12.2233
▁Listen	-12.2242
▁mesmerized	-12.2248
▁snatch	-12.2255
▁tunnels	-12.2258
▁Amelia	-12.2284
▁rotten	-12.2284
▁superheroes	-12.2285
▁peppers	-12.2297
▁blast	-12.2302
▁muscle	-12.2306
▁softer	-12.2309
▁triangles	-12.2315
▁sniff	-12.232
Our	-12.2322
▁breathed	-12.2332
▁Fido	-12.2338
▁snowball	-12.2343
▁least	-12.2357
▁Wally	-12.2357
▁scraped	-12.2358
▁hops	-12.2374
▁listens	-12.2374
▁sneezing	-12.2375
▁sunflowers	-12.2382
co	-12.2392
▁vanilla	-12.2393
▁aside	-12.2401
▁Baa	-12.2407
▁sniffs	-12.2407
▁geese	-12.2412
▁plain	-12.2412
▁daring	-12.243
my	-12.2436
▁bows	-12.244
▁squeak	-12.2462
lined	-12.2462
▁merry	-12.2485
▁thud	-12.2485
▁plucked	-12.2485
▁Frosty	-12.2486
yes	-12.2512
▁shaped	-12.2517
▁bully	-12.2518
▁Farmer	-12.2522
▁changing	-12.2522
▁crashing	-12.2531
▁forgets	-12.2535
▁Owl	-12.2542
▁firefighter	-12.2547
ce	-12.2558
▁stern	-12.2559
▁Flopsy	-12.2559
▁counts	-12.256
▁wag	-12.2561
one	-12.2568
ered	-12.2571
▁guests	-12.2572
▁sewing	-12.2581
▁flavors	-12.2586
▁Momma	-12.2589
▁glued	-12.2595
▁polar	-12.2597
▁tested	-12.2598
W	-12.2614
▁onward	-12.2622
▁plans	-12.2623
ive	-12.263
▁seaweed	-12.2634
▁Our	-12.2634
▁focused	-12.2636
ids	-12.2643
œMom	-12.2651
▁refreshing	-12.2653
▁skunk	-12.2653
▁honked	-12.2656
▁napkins	-12.2709
▁respected	-12.2711
▁Take	-12.2721
nder	-12.2724
▁warmer	-12.2741
▁stays	-12.2745
œWell	-12.2758
▁worn	-12.2766
▁joyful	-12.2768
▁alien	-12.2774
▁flight	-12.2785
▁suffering	-12.279
▁corners	-12.2792
▁swallowed	-12.2805
▁whispers	-12.2832
▁Only	-12.2833
▁Love	-12.2841
▁Mouse	-12.2844
▁marshmallows	-12.2853
▁Fire	-12.2858
▁panicked	-12.2862
▁Stay	-12.2866
▁joining	-12.2871
▁avocados	-12.2875
▁drawn	-12.2876
▁Birthday	-12.2881
▁throughout	-12.2887
▁streets	-12.291
▁oh	-12.2911
▁slips	-12.2917
by	-12.2919
aty	-12.2943
be	-12.296
▁sending	-12.297
▁baths	-12.2996
▁resisted	-12.3007
▁dropping	-12.3036
▁Thanks	-12.304
op	-12.3045
▁unsure	-12.3055
▁wobbly	-12.3055
ug	-12.3057
▁increased	-12.3059
Ew	-12.3061
▁performed	-12.3066
▁hides	-12.3077
▁shops	-12.3085
▁dresser	-12.3089
▁caus	-12.309
choo	-12.3101
▁steady	-12.3114
▁leapt	-12.3115
▁pens	-12.3122
▁strongest	-12.3125
▁chat	-12.3126
ke	-12.313
▁lifts	-12.3133
▁Tuna	-12.3135
▁twisty	-12.3138
▁stacked	-12.3145
▁Curious	-12.3153
▁battle	-12.3153
elly	-12.3159
F	-12.3159
▁begin	-12.3164
▁dancers	-12.3185
ny	-12.3188
▁biting	-12.319
▁mints	-12.3197
▁gesture	-12.3213
▁tossed	-12.3213
ma	-12.3218
▁freedom	-12.3253
▁waddled	-12.3253
▁trembled	-12.3257
▁lifting	-12.3275
Lucy	-12.3277
▁coral	-12.3292
▁crew	-12.3292
▁spices	-12.3294
▁doorway	-12.3294
▁stands	-12.3301
▁twinkled	-12.3316
▁nervously	-12.3321
▁spat	-12.3321
▁Louise	-12.3333
TMd	-12.334
avi	-12.3341
▁pours	-12.3346
▁grant	-12.3351
▁compassion	-12.3352
▁Mina	-12.3353
▁wept	-12.3353
▁aimed	-12.3353
years	-12.336
▁quarreling	-12.3363
▁amount	-12.3373
▁faded	-12.3374
ier	-12.3383
able	-12.3388
▁flutter	-12.3389
▁behaving	-12.3393
▁garbage	-12.3393
▁toaster	-12.3418
▁L	-12.3421
ol	-12.3436
▁yielded	-12.344
▁Ha	-12.3453
▁squishy	-12.3454
ther	-12.3456
▁blinking	-12.3458
▁months	-12.3465
▁playtime	-12.3476
▁bravest	-12.3482
▁politely	-12.3484
▁duckling	-12.349
▁Marie	-12.3495
▁necklaces	-12.3496
me	-12.3505
▁firmly	-12.3516
Watch	-12.352
▁sank	-12.3536
▁cosy	-12.3536
please	-12.3541
▁spins	-12.3548
▁postman	-12.3557
▁echoed	-12.3557
œWhere	-12.3563
▁clues	-12.357
▁Jan	-12.358
▁playroom	-12.3591
▁Becky	-12.3597
▁appreciation	-12.3597
▁probably	-12.3597
▁leads	-12.3606
▁drawers	-12.3608
œBut	-12.3618
▁Fuzzy	-12.362
▁colder	-12.3624
▁pennies	-12.3639
▁overcome	-12.364
▁rushing	-12.3647
ul	-12.3657
▁conflict	-12.3659
▁evil	-12.3659
▁firefly	-12.3659
▁Ana	-12.3664
▁watering	-12.3686
Mine	-12.3686
▁reversed	-12.3687
▁health	-12.3699
ocky	-12.3716
ub	-12.373
▁master	-12.3742
▁shady	-12.3764
▁base	-12.3764
▁seller	-12.3769
▁swords	-12.377
Goodnight	-12.3772
▁pad	-12.3781
▁fact	-12.3801
▁waterfall	-12.3806
▁pins	-12.3811
▁pigeons	-12.3812
▁loading	-12.3816
▁healing	-12.382
▁encouraging	-12.3827
▁suggestion	-12.3827
Listen	-12.3834
Like	-12.3834
▁cleaner	-12.3838
▁giggles	-12.3838
▁Dog	-12.385
▁Squirrel	-12.385
▁noodles	-12.3856
▁gears	-12.3869
▁Yesterday	-12.3891
▁Despite	-12.3891
œNow	-12.3897
▁scored	-12.3897
▁yum	-12.3898
▁Sh	-12.3903
▁behavior	-12.3912
▁shown	-12.3912
▁roars	-12.3921
▁matters	-12.3933
▁breathing	-12.3944
▁oysters	-12.3949
to	-12.3952
▁Still	-12.3955
▁ease	-12.3955
▁sever	-12.3955
▁passengers	-12.396
▁Ally	-12.3967
▁flown	-12.3976
▁nearly	-12.3977
▁frowning	-12.3982
▁surrendered	-12.3984
▁twisting	-12.3989
▁tighter	-12.3992
œOkay	-12.3996
Surprise	-12.3997
▁designs	-12.4001
▁adults	-12.4003
▁ropes	-12.4004
▁Meanwhile	-12.4019
▁toddler	-12.4019
▁Fiona	-12.404
▁forgiving	-12.404
▁Flo	-12.4064
▁Janey	-12.4069
▁bells	-12.408
▁Bo	-12.4105
▁tricycle	-12.4105
▁wakes	-12.4111
▁results	-12.4116
▁performing	-12.412
▁Elle	-12.4127
▁grandchild	-12.4127
▁elf	-12.4127
Follow	-12.4135
▁Patch	-12.4149
▁squeezing	-12.4171
he	-12.4187
▁tails	-12.4189
▁Bubba	-12.4193
▁Samantha	-12.4193
▁Patty	-12.4193
▁fleas	-12.4199
▁sweetest	-12.4201
▁warrior	-12.4215
▁Tessa	-12.4215
▁damaged	-12.4217
▁thorns	-12.4218
▁blocked	-12.4221
▁Try	-12.4232
▁drivers	-12.4235
▁Well	-12.4238
▁buses	-12.424
we	-12.4252
▁streamers	-12.4259
▁accomplished	-12.4259
▁napping	-12.426
round	-12.4261
▁Because	-12.4262
▁anger	-12.4271
▁buzz	-12.4278
▁reminding	-12.4291
▁laying	-12.4297
▁sharks	-12.4298
▁grows	-12.4323
▁instruments	-12.4327
ure	-12.433
▁notes	-12.4333
▁Tess	-12.4347
▁Halloween	-12.4347
▁dances	-12.4362
▁cobwebs	-12.4365
▁Amanda	-12.4369
Bob	-12.4375
ig	-12.4386
▁Pippin	-12.4392
▁Sofia	-12.4392
▁wider	-12.44
▁refuse	-12.4413
ring	-12.4417
▁crossing	-12.4417
▁explorer	-12.4434
▁action	-12.4436
▁puzzled	-12.4438
▁Spidey	-12.4459
▁oatmeal	-12.4459
▁connected	-12.446
▁lending	-12.4471
▁toward	-12.4481
▁Elly	-12.4482
▁Froggy	-12.4482
▁rainy	-12.4484
▁humans	-12.4487
▁ties	-12.4499
▁swimsuit	-12.4504
▁Splash	-12.4509
▁appreciated	-12.4511
Take	-12.4514
▁cushions	-12.4515
▁pumpkins	-12.4519
▁Ashley	-12.4527
id	-12.4529
œOf	-12.4563
▁awoke	-12.4572
▁p	-12.4574
og	-12.4578
▁Daniel	-12.4578
N	-12.4578
▁Lu	-12.4583
▁ignoring	-12.4595
▁aisle	-12.4595
Sue	-12.4605
▁finishing	-12.4612
▁angels	-12.4615
▁paintbrush	-12.4618
▁cottage	-12.4618
▁granddaughter	-12.4618
▁mermaid	-12.4618
▁heartbroken	-12.4618
▁Pippa	-12.4618
▁Mother	-12.462
▁Pretty	-12.4623
▁brushing	-12.4625
ped	-12.4633
▁focus	-12.4639
▁genie	-12.4641
▁punishment	-12.4641
▁smallest	-12.4646
▁shovels	-12.465
▁quieter	-12.4658
▁footsteps	-12.4664
▁pedaled	-12.4669
▁frowns	-12.4676
▁definitely	-12.4687
▁fantastic	-12.4687
▁rather	-12.4687
▁stitches	-12.4687
da	-12.469
▁hairdresser	-12.471
▁surfboard	-12.471
ity	-12.4712
ina	-12.4715
▁tying	-12.4733
▁Mae	-12.4734
▁slipping	-12.4756
▁snowflakes	-12.4758
ero	-12.4773
▁reassured	-12.4779
▁correctly	-12.4779
▁Frankie	-12.4803
▁cowboy	-12.4804
but	-12.4811
œPlease	-12.4812
▁humming	-12.4826
▁luckily	-12.4826
▁passports	-12.4827
▁final	-12.4828
▁repeating	-12.4833
▁Feel	-12.4849
▁nasty	-12.4849
▁spies	-12.4849
▁tipped	-12.4849
▁nibble	-12.4871
▁response	-12.4872
oger	-12.4872
▁chopped	-12.4872
▁business	-12.4873
▁Dory	-12.4878
evin	-12.4878
▁cloudy	-12.4888
▁cotton	-12.4896
▁bandages	-12.4906
Beep	-12.4909
▁Freddie	-12.4919
▁afar	-12.492
▁sniffing	-12.4922
▁within	-12.4931
▁soaking	-12.4931
x	-12.4932
▁symbols	-12.495
▁disturbing	-12.495
▁packages	-12.4957
▁elbow	-12.4967
▁arranged	-12.4967
▁suffered	-12.4973
▁poppies	-12.499
▁Megan	-12.499
▁mailed	-12.4995
▁grip	-12.4998
▁wisely	-12.5011
▁Jonny	-12.5014
▁risks	-12.5017
▁travels	-12.5025
▁sill	-12.5037
▁Bounce	-12.5038
▁apologised	-12.5038
▁Auntie	-12.5038
▁travelling	-12.5039
▁Ma	-12.504
▁robots	-12.5042
▁banged	-12.5045
▁curl	-12.5059
▁believing	-12.5062
▁cuddles	-12.5078
▁address	-12.5086
▁comforting	-12.51
▁Holly	-12.511
▁trotted	-12.511
▁Excitedly	-12.511
▁scent	-12.5113
▁kittens	-12.5128
▁purr	-12.5133
espite	-12.5134
▁newfound	-12.5134
▁masterpiece	-12.5134
▁yelped	-12.5134
▁vehicles	-12.515
▁inspired	-12.5158
▁efforts	-12.5177
▁ponies	-12.5182
▁licking	-12.5188
▁pays	-12.5202
▁Birdy	-12.5208
▁wobble	-12.5209
▁surfing	-12.5214
▁force	-12.5219
ni	-12.5223
▁fishes	-12.5251
▁reunited	-12.5255
▁fits	-12.5259
ake	-12.5265
▁gazing	-12.5279
▁supported	-12.5292
œHey	-12.5293
▁flipped	-12.5304
▁lent	-12.5304
▁congratulated	-12.5304
icky	-12.5325
▁encouragement	-12.5328
▁mood	-12.5329
▁deed	-12.533
▁Pepper	-12.533
▁customers	-12.5333
▁straw	-12.5353
▁belts	-12.5354
▁stopping	-12.5356
ru	-12.5368
▁stain	-12.5381
▁braver	-12.5381
▁Hope	-12.5399
▁Bow	-12.5402
▁Lou	-12.5406
▁darlings	-12.5412
▁stored	-12.5421
▁firm	-12.5426
▁pleaded	-12.5427
▁edges	-12.5441
▁Eddie	-12.5452
▁presented	-12.5458
tle	-12.5465
▁peas	-12.5465
▁talks	-12.5475
▁campfire	-12.5476
▁driveway	-12.5477
▁Green	-12.5478
▁worrying	-12.5484
▁spits	-12.5498
▁stumble	-12.55
▁coach	-12.5502
ant	-12.5506
▁bracelets	-12.5511
▁aliens	-12.5516
▁whose	-12.5517
Alright	-12.5526
▁simply	-12.5526
▁officers	-12.5532
vroom	-12.5541
▁steer	-12.5547
▁examining	-12.5551
▁sped	-12.5552
▁peeled	-12.5555
▁student	-12.5558
▁Time	-12.5572
ard	-12.5572
▁donkey	-12.5577
▁tasting	-12.558
oomy	-12.558
▁smelling	-12.5584
▁bothering	-12.5585
▁seashells	-12.5586
Get	-12.5591
▁suits	-12.5592
▁paths	-12.5602
▁aware	-12.5602
▁covering	-12.5624
▁wrinkled	-12.5627
▁de	-12.5631
▁sails	-12.5651
▁Brian	-12.5652
▁concert	-12.5652
▁swollen	-12.5652
▁Fight	-12.5653
▁birdhouse	-12.5658
▁calmly	-12.5667
▁squeaked	-12.568
▁members	-12.5681
▁vines	-12.5684
▁cheers	-12.5687
▁knots	-12.5687
▁loops	-12.5701
▁expert	-12.5703
ving	-12.5708
▁weeds	-12.5708
▁guest	-12.5711
▁purpose	-12.5729
▁Snowman	-12.5754
▁gap	-12.5754
▁artwork	-12.5754
▁Lion	-12.5761
▁charge	-12.5778
▁windowsill	-12.5806
▁Jax	-12.5806
▁Outside	-12.5806
▁spy	-12.5806
▁chilly	-12.5806
▁Jojo	-12.5831
▁annoyed	-12.5831
▁unfortunately	-12.5831
▁warmly	-12.5841
▁experienced	-12.5865
▁delayed	-12.5866
▁Elsa	-12.5883
▁belongings	-12.5883
▁lies	-12.5893
Little	-12.5899
pi	-12.5907
▁Olivia	-12.5909
▁Saturday	-12.5909
▁Speedy	-12.5909
▁buddy	-12.5909
▁scarecrow	-12.5909
▁changes	-12.5909
▁speeding	-12.5952
▁Startled	-12.5961
▁discussing	-12.5968
▁fins	-12.5971
▁type	-12.5971
▁decisions	-12.5982
lthough	-12.5985
ock	-12.5993
ous	-12.6003
▁terrified	-12.6014
▁tapping	-12.6014
▁untied	-12.6015
▁wounds	-12.6031
▁Po	-12.6035
▁swap	-12.604
▁tweet	-12.604
▁Bongo	-12.604
▁nurses	-12.6049
▁burying	-12.6052
ag	-12.6059
▁nibbled	-12.6068
▁sewed	-12.6071
▁sunscreen	-12.6093
ey	-12.6111
▁drift	-12.6115
▁exercises	-12.612
▁pl	-12.612
▁container	-12.6128
Leave	-12.6137
▁maker	-12.6141
▁joked	-12.6142
▁Elsie	-12.6146
▁solving	-12.6146
▁laptop	-12.6146
▁kings	-12.6147
▁Welcome	-12.6148
▁spills	-12.6153
▁whispering	-12.6157
bo	-12.6158
▁admiration	-12.6173
▁clerk	-12.6173
▁dragonfly	-12.6173
▁nodding	-12.6173
▁la	-12.6177
ally	-12.6182
uff	-12.6187
▁Nana	-12.6189
J	-12.6193
▁untie	-12.6198
▁Hoot	-12.6199
▁Jason	-12.6199
age	-12.6209
▁toolbox	-12.6226
uackers	-12.6226
▁Helen	-12.623
▁classmates	-12.6234
pp	-12.6238
œThe	-12.6243
▁guessing	-12.6245
▁magazines	-12.6246
▁material	-12.6266
▁Liam	-12.6266
Y	-12.6271
▁puff	-12.6277
▁exchange	-12.628
▁spooky	-12.628
▁insisting	-12.6282
▁Ba	-12.6284
▁glittering	-12.6286
▁images	-12.6305
▁syrup	-12.6307
udy	-12.6309
▁insist	-12.633
▁Excited	-12.6361
▁stall	-12.6361
what	-12.638
▁spells	-12.6382
ck	-12.6382
▁opposite	-12.6389
▁treated	-12.6389
obo	-12.6393
uck	-12.6405
▁Izzy	-12.6416
œSee	-12.6421
der	-12.6424
▁activity	-12.6443
▁beaming	-12.6445
œSure	-12.6466
▁Ava	-12.6471
▁grandson	-12.6471
▁foxes	-12.6481
▁stroke	-12.6483
▁tidied	-12.6498
Dear	-12.6499
▁Gus	-12.6503
▁displayed	-12.651
five	-12.6518
▁experiment	-12.6526
▁million	-12.6527
▁planting	-12.6527
▁thanking	-12.653
▁ships	-12.654
▁Maisy	-12.6554
▁bouquet	-12.6554
▁forgiveness	-12.6558
pa	-12.6569
▁Fortunately	-12.6581
▁telescope	-12.6581
▁bitten	-12.6581
▁discoveries	-12.6582
▁sternly	-12.6582
work	-12.6585
wn	-12.6593
▁scientist	-12.6596
▁chip	-12.6597
▁diamonds	-12.66
▁Phil	-12.6609
▁argument	-12.6609
▁crowns	-12.6613
Mr	-12.6631
▁Peppa	-12.6637
▁emerged	-12.6637
▁prayers	-12.6644
ud	-12.6645
▁flip	-12.6656
▁doorbell	-12.6665
▁scurrying	-12.6666
▁brightest	-12.668
ish	-12.6684
▁scrambled	-12.6693
▁Bert	-12.6693
▁rely	-12.6694
So	-12.6696
▁Poor	-12.6702
▁Okay	-12.671
art	-12.6718
▁encountered	-12.6722
▁figures	-12.6722
▁flips	-12.6734
▁sweaty	-12.675
ble	-12.6754
▁characters	-12.6756
▁orders	-12.6758
Stay	-12.6771
▁Amber	-12.6778
▁icing	-12.6778
▁matey	-12.6779
▁meowing	-12.6783
▁scratching	-12.6788
▁tubes	-12.6798
udolph	-12.6806
Always	-12.6828
▁cleared	-12.6835
▁wiggly	-12.6835
▁rays	-12.6836
▁lowered	-12.684
▁beeped	-12.6853
▁permitted	-12.6864
ah	-12.6865
▁fin	-12.6884
▁explains	-12.6887
▁backpacks	-12.6891
ufus	-12.6892
▁shrunk	-12.6892
▁swimmer	-12.6892
▁Dino	-12.6892
▁responded	-12.6893
▁tires	-12.69
▁wealth	-12.691
▁seashell	-12.691
▁labels	-12.6912
▁pupils	-12.6912
▁Hold	-12.6917
▁beehive	-12.6921
▁shimmering	-12.6922
▁testing	-12.6928
▁tables	-12.6929
▁hunters	-12.6933
▁failed	-12.695
▁attacked	-12.6981
j	-12.6986
▁craft	-12.6997
ying	-12.7
▁Gary	-12.7008
▁honking	-12.7013
▁hike	-12.7035
▁except	-12.7037
▁robin	-12.7037
▁tumbled	-12.7037
▁astronauts	-12.7064
▁increasing	-12.7066
▁Bonnie	-12.7066
▁tuck	-12.7083
ot	-12.7095
▁Taking	-12.7096
▁visitors	-12.7099
▁dressing	-12.7101
▁Al	-12.7103
▁manners	-12.7107
▁conversation	-12.7115
▁depend	-12.712
▁environment	-12.7124
▁obeyed	-12.7131
▁Boo	-12.7136
do	-12.7136
▁taped	-12.7138
▁offering	-12.714
▁Jilly	-12.7147
▁cocoon	-12.7154
▁tilted	-12.7155
▁Lo	-12.7157
▁youngest	-12.716
▁lessons	-12.7179
▁compare	-12.7183
▁sprout	-12.7183
▁lipstick	-12.7183
▁Shelly	-12.7184
▁rotting	-12.7185
▁Sun	-12.7194
iley	-12.7206
▁attack	-12.7209
▁shall	-12.7213
▁Jean	-12.7213
▁queens	-12.722
▁gasp	-12.7241
ca	-12.7242
▁William	-12.7243
▁rescuing	-12.7243
▁Terry	-12.7243
side	-12.7244
▁purrs	-12.7268
▁declared	-12.7272
▁mischievous	-12.7272
▁rumbling	-12.7272
▁nuzzled	-12.7272
▁ghosts	-12.7292
▁Eliza	-12.7302
▁Peggy	-12.7302
▁plug	-12.7302
▁swayed	-12.7304
▁loses	-12.7313
▁switched	-12.7319
▁twists	-12.7319
▁snatche	-12.7321
▁tablet	-12.7329
▁pandas	-12.7331
▁Ever	-12.7333
▁Duck	-12.7341
▁aeroplanes	-12.7348
hind	-12.7361
▁beating	-12.7372
time	-12.7382
▁seagulls	-12.7383
ita	-12.7384
▁drowned	-12.7393
▁awful	-12.7393
▁manager	-12.7394
▁badger	-12.7397
wa	-12.7402
▁Say	-12.7403
▁beautifully	-12.7406
▁tidying	-12.7411
ory	-12.7419
▁survive	-12.7421
▁routine	-12.7422
▁Eric	-12.7423
▁grandfather	-12.7424
▁goats	-12.7424
▁turtles	-12.7424
▁rowed	-12.743
▁whistles	-12.7433
▁anticipation	-12.7453
▁court	-12.7453
▁stethoscope	-12.7453
▁Cara	-12.7454
▁recorder	-12.7458
▁gratitude	-12.7483
▁Crabby	-12.7483
▁prevented	-12.7494
▁parted	-12.75
▁knocking	-12.7503
▁designing	-12.7505
▁decoration	-12.7506
▁responsibility	-12.7514
▁Flora	-12.7514
▁announced	-12.7514
▁Finny	-12.7516
▁sheets	-12.7523
enny	-12.7544
▁beaver	-12.7544
▁wade	-12.7544
▁dodged	-12.7545
▁smashed	-12.7545
▁swaying	-12.7546
▁chipmunk	-12.7575
▁veggies	-12.7575
▁inches	-12.7575
▁clicked	-12.7579
▁flaps	-12.7587
Arrr	-12.7593
▁questioned	-12.7594
▁peck	-12.7595
▁goodies	-12.7599
▁Barry	-12.7606
▁mosquitoes	-12.7607
▁checkout	-12.7607
ding	-12.7619
▁freed	-12.7622
ai	-12.7625
Boys	-12.7627
œWho	-12.7633
▁steering	-12.7639
▁crawls	-12.7661
Bang	-12.7663
ebecca	-12.7668
▁dripping	-12.7668
▁instantly	-12.7668
▁bluebird	-12.767
▁films	-12.7696
All	-12.7704
▁movements	-12.7707
▁customer	-12.7724
▁robbers	-12.7727
▁list	-12.773
▁compliment	-12.773
▁faint	-12.773
▁jars	-12.7754
▁chocolates	-12.7756
▁cheat	-12.7757
▁Charlotte	-12.7761
▁Tyler	-12.7761
▁exploded	-12.7762
▁Tree	-12.7766
▁Spring	-12.7766
œGood	-12.7783
ail	-12.7788
▁sweep	-12.779
▁Snowball	-12.7792
▁Bobbie	-12.7794
▁drag	-12.7824
▁statues	-12.7837
?!"	-12.7843
▁baskets	-12.7846
▁rats	-12.7848
▁paddling	-12.7855
▁greet	-12.7883
ink	-12.7886
▁smelt	-12.7887
▁active	-12.7888
▁glimmering	-12.7888
▁Liza	-12.7889
▁thorn	-12.7914
▁cowboys	-12.7917
œMaybe	-12.7917
▁self	-12.7919
▁Immediately	-12.7919
▁killed	-12.7919
▁crystals	-12.7921
▁con	-12.7925
▁suggest	-12.7942
ep	-12.7944
▁runner	-12.7951
▁munched	-12.7952
rs	-12.7964
▁slowed	-12.7969
cat	-12.7974
▁dangers	-12.7975
Too	-12.7976
▁member	-12.7978
▁applause	-12.7983
▁observing	-12.7983
▁ramp	-12.7983
▁snug	-12.7983
▁convinced	-12.7984
▁Pick	-12.7984
aw	-12.7987
▁flashing	-12.799
▁cells	-12.7993
▁bathing	-12.7999
▁Patrick	-12.8015
▁Tiger	-12.8015
▁troubles	-12.8018
▁visitor	-12.802
ging	-12.8024
▁Twinkle	-12.8024
▁buckled	-12.8025
▁Ant	-12.8027
▁unpacking	-12.803
▁earned	-12.8049
▁stretches	-12.8049
▁flashed	-12.8053
▁j	-12.8054
▁bothered	-12.8065
▁Pa	-12.8074
▁cupcake	-12.8075
▁exploration	-12.8079
▁Lina	-12.8079
▁cracks	-12.8092
œBe	-12.8096
▁risk	-12.8107
▁proper	-12.8111
▁Stitch	-12.8111
▁extraordinary	-12.8111
▁supplied	-12.8111
▁collapsed	-12.8112
▁blown	-12.8116
▁applauding	-12.8118
osa	-12.8118
▁Trust	-12.8125
▁dears	-12.8139
py	-12.8142
▁stamped	-12.8159
▁beam	-12.8165
▁swirl	-12.8169
▁Isn	-12.817
▁trusting	-12.8176
▁closing	-12.8176
▁inchworm	-12.8176
▁carries	-12.8181
▁germs	-12.8186
▁petting	-12.819
▁opinions	-12.82
ba	-12.8202
▁marking	-12.8203
▁bond	-12.8209
▁hoops	-12.8209
▁prickly	-12.8209
▁traded	-12.822
▁hardest	-12.8242
▁generosity	-12.8242
▁snaps	-12.8243
▁chin	-12.8243
andy	-12.8257
▁otters	-12.8261
▁heaven	-12.8263
▁seals	-12.8263
▁zooms	-12.8263
▁choo	-12.8268
▁instrument	-12.8272
▁conductor	-12.8275
▁knives	-12.8275
▁poses	-12.8283
▁scrub	-12.8309
▁Bang	-12.8313
▁destroying	-12.832
▁wasting	-12.8323
of	-12.8333
▁Matilda	-12.8341
▁confidence	-12.8341
▁twenty	-12.8341
ani	-12.8347
▁hotter	-12.8349
iggy	-12.8354
ew	-12.8355
▁models	-12.8363
bra	-12.8365
▁shrug	-12.8372
▁pump	-12.8374
▁compete	-12.8374
▁tummies	-12.8374
▁munching	-12.8376
▁moo	-12.8378
▁expecting	-12.838
▁dock	-12.8392
▁dryer	-12.8401
▁breaths	-12.8405
▁Carol	-12.8407
▁trigger	-12.8407
▁squished	-12.8409
▁shorts	-12.841
▁Paula	-12.8412
▁Nancy	-12.8441
wi	-12.8443
▁winding	-12.8447
ance	-12.8448
ccidents	-12.8454
▁wiser	-12.8457
▁tin	-12.8458
▁sadder	-12.8458
▁Prince	-12.8474
ould	-12.8474
▁Mamma	-12.8474
▁Melissa	-12.8474
œOk	-12.8478
▁Bad	-12.848
▁teachers	-12.8493
ning	-12.8501
▁expression	-12.8508
▁whoosh	-12.8513
▁signing	-12.8537
▁erase	-12.854
▁Tammy	-12.8542
▁Annabelle	-12.8542
▁hum	-12.8558
ga	-12.8568
▁chill	-12.8575
▁Mila	-12.8576
▁tickling	-12.8576
▁glided	-12.8576
▁Jon	-12.8588
An	-12.8602
ak	-12.8605
▁Gabby	-12.861
▁chatted	-12.861
▁Carla	-12.8611
▁Monkey	-12.8613
▁hunting	-12.8617
▁tearing	-12.8628
▁floats	-12.864
Nice	-12.8642
uickly	-12.8646
▁quacking	-12.8651
▁languages	-12.8654
end	-12.8656
▁ma	-12.8666
▁kit	-12.8676
▁overhead	-12.8681
▁Steven	-12.8681
▁momma	-12.8685
▁combed	-12.8698
▁companion	-12.8747
▁hood	-12.8747
▁plugged	-12.8747
▁Mona	-12.8747
▁cubs	-12.8755
▁shines	-12.8761
Molly	-12.8781
▁surprising	-12.8781
▁dial	-12.8782
▁papa	-12.8782
▁wildflowers	-12.8782
▁odd	-12.8782
▁flock	-12.8782
▁Sparkle	-12.8783
▁Nora	-12.8783
▁rains	-12.8802
▁bride	-12.8816
▁miracle	-12.8816
▁checking	-12.8819
▁clearly	-12.8829
▁ho	-12.8847
▁pout	-12.8849
▁providing	-12.8851
▁singers	-12.8852
▁Belle	-12.8852
iness	-12.887
▁imagina	-12.8886
elvet	-12.8886
ibbit	-12.8886
▁born	-12.8886
▁local	-12.8886
▁healthier	-12.8886
▁astronaut	-12.8888
▁sirens	-12.8899
▁crops	-12.8901
iest	-12.8908
land	-12.8917
▁peeped	-12.8922
▁cheated	-12.8923
▁cheaper	-12.8928
▁Mel	-12.893
▁burnt	-12.8933
▁experiences	-12.8937
▁sway	-12.8952
yle	-12.8954
▁convince	-12.8955
Someone	-12.8956
▁conquered	-12.8957
▁defeated	-12.8958
▁washes	-12.8964
▁Y	-12.8966
ched	-12.8981
▁scolds	-12.8985
▁April	-12.8992
▁Ginger	-12.8992
▁passes	-12.8995
▁picnics	-12.9001
▁umbrellas	-12.9012
▁awhile	-12.9016
▁adds	-12.9018
our	-12.9019
▁stroll	-12.9022
▁raising	-12.9027
Joe	-12.9027
▁squeaky	-12.9029
▁details	-12.9048
▁honesty	-12.9049
▁relaxing	-12.9052
▁thump	-12.9063
▁Another	-12.9063
▁natural	-12.9063
▁moat	-12.9063
▁grumbled	-12.9064
▁bounces	-12.9065
▁seas	-12.9067
▁puppets	-12.9069
▁cheerfully	-12.9075
▁Gr	-12.9089
▁returning	-12.909
▁Leah	-12.9099
Billy	-12.9099
▁strips	-12.91
▁sl	-12.9102
▁Sweet	-12.9111
▁checks	-12.9112
▁surely	-12.9121
▁leap	-12.9129
▁Fifi	-12.9134
▁Lenny	-12.9134
▁target	-12.9138
▁swirls	-12.9138
▁realizes	-12.9149
▁tips	-12.9156
▁scooters	-12.9162
In	-12.9163
▁microwave	-12.917
▁flowing	-12.9172
▁shorter	-12.9174
▁explaining	-12.919
▁outfits	-12.9195
ile	-12.9199
▁meatballs	-12.9206
▁vibrant	-12.9206
▁countries	-12.9207
▁Oliver	-12.9208
▁uniforms	-12.9212
▁messes	-12.9222
▁soapy	-12.9223
▁dollar	-12.9224
▁pops	-12.9224
▁Sasha	-12.9243
▁mommies	-12.9243
▁sprinkle	-12.9244
▁dis	-12.9245
▁deserved	-12.9249
▁Show	-12.9251
Sally	-12.9253
▁puck	-12.9259
▁Sir	-12.9265
▁Sit	-12.9268
▁newspapers	-12.9273
▁upside	-12.9273
▁scene	-12.9279
▁Midnight	-12.9279
▁melody	-12.9279
▁roast	-12.9279
▁reappeared	-12.928
▁longest	-12.9282
▁dent	-12.9282
light	-12.9288
ked	-12.929
ear	-12.9296
▁tests	-12.93
▁Captain	-12.9316
▁annoying	-12.9316
▁practised	-12.9316
Put	-12.9316
▁treasured	-12.9321
▁sometime	-12.934
▁beast	-12.9352
▁meows	-12.936
▁swallow	-12.9387
▁height	-12.9388
Sarah	-12.9392
ho	-12.9399
▁traveling	-12.9415
car	-12.9416
▁Never	-12.9421
▁behaviour	-12.9426
▁fascinating	-12.9426
▁smoking	-12.9426
▁wriggled	-12.9426
▁Man	-12.9427
Fluffy	-12.9427
▁glittered	-12.9433
▁Make	-12.9445
▁Hootie	-12.9463
▁Again	-12.9469
▁Yum	-12.9476
▁Johny	-12.9485
if	-12.9493
Bun	-12.9494
▁common	-12.95
▁shattered	-12.95
▁sprays	-12.9502
▁Joan	-12.9514
▁dump	-12.9535
▁bubbly	-12.9537
▁unable	-12.9538
▁earn	-12.955
▁ability	-12.9575
▁enemies	-12.9575
▁opportunity	-12.9575
▁souvenir	-12.9575
▁sprang	-12.9575
Hmm	-12.9575
▁pressing	-12.959
▁weapons	-12.9593
▁soundly	-12.9602
di	-12.9606
▁squinted	-12.9613
▁chatting	-12.9613
▁Oink	-12.9613
▁Elephant	-12.9617
▁camel	-12.9627
▁Eat	-12.9631
▁sandy	-12.9632
▁understands	-12.9643
▁blank	-12.965
▁example	-12.965
▁peacock	-12.965
▁teapot	-12.965
▁cafe	-12.9651
▁whined	-12.9651
▁distracted	-12.9651
▁w	-12.9655
▁minds	-12.9656
▁forgiven	-12.9666
▁Ami	-12.9676
▁sincere	-12.9679
▁Sparkles	-12.9687
▁shoo	-12.9689
▁date	-12.9689
Achoo	-12.9691
▁teams	-12.9702
▁icky	-12.9705
▁novels	-12.971
▁bits	-12.9711
H	-12.9724
▁skies	-12.9726
shaped	-12.9728
beep	-12.973
▁La	-12.9731
▁scold	-12.9731
▁pinching	-12.9745
▁mattered	-12.9753
▁stomp	-12.976
▁salon	-12.9764
▁JoJo	-12.9764
▁burns	-12.9778
▁aboard	-12.9784
▁Angel	-12.9802
▁serving	-12.9803
▁shallow	-12.9803
▁Nice	-12.9804
▁burger	-12.9811
▁thicker	-12.9812
▁prizes	-12.9827
▁hangers	-12.9828
▁envelopes	-12.9839
▁discouraged	-12.9841
▁bicycles	-12.9841
ily	-12.985
▁locks	-12.9868
▁Avery	-12.988
▁bomb	-12.988
▁hummed	-12.988
▁seatbelt	-12.988
▁shrank	-12.988
▁sandpit	-12.988
▁freezing	-12.988
▁peak	-12.989
Amy	-12.9908
▁rinse	-12.9917
For	-12.9922
top	-12.9927
▁calmer	-12.9934
ze	-12.9935
atty	-12.9937
▁fade	-12.9956
▁bud	-12.9957
▁inseparable	-12.9957
▁thieves	-12.9957
▁bundle	-12.9957
▁crouch	-12.9957
▁sipped	-12.9958
▁coughed	-12.9964
▁Willy	-13.0007
Danger	-13.0009
▁embarrass	-13.0031
▁answering	-13.0035
▁crowded	-13.0042
▁Does	-13.0048
▁coolest	-13.0052
▁Penelope	-13.0075
▁clutch	-13.0075
▁races	-13.0076
▁enjoyable	-13.0077
▁occasion	-13.0086
▁minded	-13.0104
▁certain	-13.0114
▁Through	-13.0114
▁repairman	-13.0115
▁Thankfully	-13.0115
▁snowy	-13.0117
▁auntie	-13.0119
▁demanding	-13.0121
cy	-13.014
▁Bouncy	-13.0154
▁Jasmine	-13.0154
Anytime	-13.0158
▁tentacles	-13.0161
ky	-13.0171
▁approach	-13.0192
▁Sandra	-13.0194
▁canvas	-13.0194
▁positive	-13.0194
▁rhino	-13.0194
▁toothbrush	-13.0194
▁Joanna	-13.0194
▁Birdie	-13.0195
▁patches	-13.0197
▁hu	-13.0198
▁finishes	-13.02
▁hisses	-13.0201
aking	-13.0232
▁cherish	-13.0232
▁excite	-13.0232
▁doorstep	-13.0234
▁enemy	-13.0234
▁recommendation	-13.0234
▁ill	-13.0234
▁Peep	-13.0235
œA	-13.0252
▁Sleep	-13.0256
od	-13.026
▁stuffing	-13.0261
▁creak	-13.027
▁charm	-13.0272
▁lump	-13.0273
▁angrily	-13.0274
▁attitude	-13.0274
▁slapping	-13.0274
▁Nate	-13.0275
▁Bess	-13.028
mit	-13.0287
▁Allie	-13.0289
▁types	-13.0299
▁sneezes	-13.0311
▁grasshopper	-13.0314
▁hesitation	-13.0314
▁swimsuits	-13.0316
shirt	-13.0319
Ahoy	-13.032
▁gasps	-13.0327
▁scattering	-13.0327
Once	-13.0336
▁crocodiles	-13.0345
▁bill	-13.0346
▁magnif	-13.0355
▁protection	-13.0357
▁formed	-13.0358
▁smartest	-13.0366
▁weighs	-13.0392
▁apology	-13.0396
▁pantry	-13.0396
▁quilt	-13.0396
▁satisfaction	-13.0396
Never	-13.0401
œYay	-13.0403
▁ketchup	-13.0436
▁unfamiliar	-13.0436
Choo	-13.0442
▁yawning	-13.0448
▁Mar	-13.0448
▁successfully	-13.0449
▁leaking	-13.0452
Co	-13.0462
▁Hank	-13.0477
▁condition	-13.0477
▁fireflies	-13.0477
▁mysteries	-13.0477
▁slithered	-13.0478
First	-13.0483
▁sweeter	-13.0483
▁engines	-13.0489
she	-13.049
▁Magic	-13.0492
▁weighing	-13.0496
▁ding	-13.05
▁burgers	-13.051
de	-13.0511
▁Bruno	-13.0519
▁nudge	-13.0519
▁chopping	-13.0519
▁necks	-13.0544
▁forts	-13.0547
▁goodness	-13.0551
▁Fairy	-13.056
▁Martin	-13.056
▁playdate	-13.056
▁croaked	-13.0561
▁clue	-13.0575
▁blonde	-13.0582
▁riddle	-13.0601
▁bubbling	-13.0601
▁cooperate	-13.0601
▁injured	-13.0601
▁wolves	-13.0601
▁Li	-13.0617
▁o	-13.0619
▁nightmares	-13.0624
▁Gracie	-13.0643
▁Jody	-13.0643
▁noticing	-13.0643
▁joyfully	-13.0646
zing	-13.0649
▁Lot	-13.0652
▁haircuts	-13.067
œO	-13.0682
▁section	-13.0685
▁welcoming	-13.0685
▁foam	-13.0685
▁snorted	-13.0686
▁tunes	-13.069
ena	-13.0709
▁speaker	-13.0721
▁communicate	-13.0727
▁energetic	-13.0727
▁sturdy	-13.0727
▁electricity	-13.0727
Open	-13.0733
▁Math	-13.0737
ice	-13.075
▁Car	-13.0752
▁landing	-13.0754
▁Was	-13.0769
▁Toto	-13.077
▁blushed	-13.077
▁napped	-13.0771
ball	-13.0777
▁spilling	-13.0778
like	-13.078
▁Playing	-13.0797
▁mugs	-13.081
▁groaned	-13.0812
▁underwater	-13.0812
▁rips	-13.0814
Hold	-13.0819
▁miller	-13.0822
▁bends	-13.0839
▁bruises	-13.0841
▁munch	-13.085
▁grace	-13.0854
▁Cathy	-13.0854
▁Wooly	-13.0854
▁moonlight	-13.0855
▁Tear	-13.0855
▁Foxy	-13.0857
▁Over	-13.0859
Fire	-13.0861
Jill	-13.0861
Jane	-13.0861
▁guarding	-13.0888
▁jets	-13.0891
▁popsicle	-13.0897
▁tortoise	-13.0897
▁unfair	-13.0897
▁fist	-13.0897
▁achievement	-13.0897
▁BunBun	-13.0897
▁Patches	-13.0897
bird	-13.0898
▁spare	-13.09
que	-13.0901
Deal	-13.0904
▁rewarding	-13.0925
▁Hi	-13.093
ian	-13.0934
▁cautious	-13.0939
▁Super	-13.094
▁Jeremy	-13.094
▁disappointment	-13.094
▁rows	-13.0942
▁shrugs	-13.0942
ced	-13.0945
Hurry	-13.0947
Soon	-13.0947
▁Doug	-13.0969
▁crunch	-13.098
▁glance	-13.0983
▁pleasant	-13.0983
▁temptation	-13.0983
▁Andrew	-13.0983
▁nests	-13.0989
Honey	-13.099
▁binoculars	-13.1026
▁current	-13.1026
▁tempted	-13.1026
▁certainly	-13.1027
▁Gray	-13.1027
▁becomes	-13.105
▁Wait	-13.1056
▁defeat	-13.1068
▁Claus	-13.107
▁overwhelmed	-13.107
▁shave	-13.107
▁keyhole	-13.107
can	-13.1072
▁Life	-13.1078
▁level	-13.1113
▁choosing	-13.1113
iolet	-13.1113
▁scenery	-13.1113
▁tugging	-13.1113
▁cheating	-13.1116
▁supporting	-13.1139
▁Gemma	-13.1157
▁amused	-13.1157
▁intently	-13.1157
▁wiggling	-13.1157
▁CD	-13.1158
▁chews	-13.1159
▁caterpillars	-13.116
▁Fish	-13.1164
▁Ouch	-13.1171
▁rewards	-13.1186
▁talents	-13.1195
▁bamboo	-13.1201
▁watermelon	-13.1201
▁transformed	-13.1202
▁whimpered	-13.1202
colored	-13.121
Some	-13.121
▁ouch	-13.1219
▁month	-13.1221
▁judges	-13.1238
▁Jonathan	-13.1245
▁intelligence	-13.1245
▁Jennie	-13.1245
▁glittery	-13.1249
▁Pink	-13.1255
▁pills	-13.1277
▁pipes	-13.1288
▁Felix	-13.129
▁hopscotch	-13.129
▁worst	-13.129
▁Bug	-13.129
▁marveled	-13.1291
▁baa	-13.1303
▁heels	-13.1327
hoo	-13.1327
▁prank	-13.1334
▁Moon	-13.1367
▁Deal	-13.1372
▁situations	-13.1375
▁boil	-13.1375
ich	-13.1378
▁knit	-13.1379
▁stew	-13.1379
▁springtime	-13.138
▁birdy	-13.1382
▁benches	-13.139
▁pedaling	-13.1391
mon	-13.1399
▁blade	-13.1401
▁Pop	-13.1405
▁textures	-13.1413
ace	-13.1421
▁connect	-13.1422
▁express	-13.1424
Guess	-13.1424
▁Nurse	-13.1424
▁harvest	-13.1424
▁Share	-13.1432
▁Choo	-13.1441
▁trusty	-13.1442
▁zips	-13.1442
▁invites	-13.1449
▁Too	-13.1456
llowing	-13.1459
Ho	-13.1464
▁Chickie	-13.147
▁thunderstorm	-13.147
▁pounced	-13.1471
▁stepping	-13.1471
▁sweaters	-13.1479
▁spears	-13.148
▁beetles	-13.1483
▁Of	-13.1502
▁riverbank	-13.1515
▁lookout	-13.1516
▁boiling	-13.1517
ger	-13.152
▁clip	-13.152
Jimmy	-13.1525
▁Bea	-13.1528
▁interest	-13.1557
▁Albert	-13.1561
▁Sunshine	-13.1561
▁THE	-13.1561
▁airplanes	-13.1569
woo	-13.157
œHow	-13.157
▁mindful	-13.1571
▁styles	-13.1573
▁Ash	-13.1584
▁Moo	-13.1595
ya	-13.1597
▁Maisie	-13.1607
Moo	-13.1612
▁meaning	-13.1613
▁whine	-13.1629
▁tickles	-13.1634
▁Colin	-13.1653
▁frustration	-13.1653
▁lumberjack	-13.1653
▁pepperoni	-13.1653
▁goggles	-13.1653
▁courageous	-13.1653
▁teamwork	-13.1653
▁spi	-13.1655
▁strolled	-13.1655
▁levers	-13.1669
▁fr	-13.1676
usty	-13.1681
▁Mine	-13.1686
au	-13.1694
▁Gwen	-13.1699
▁globe	-13.1699
▁raking	-13.1699
▁aroma	-13.1699
▁dashed	-13.1699
▁brains	-13.1703
oy	-13.1704
▁cutter	-13.1709
Tweet	-13.171
▁squeezes	-13.1716
▁Day	-13.1725
▁Sky	-13.1744
Abracadabra	-13.1745
▁Oscar	-13.1745
▁luckiest	-13.1746
▁Alan	-13.1746
▁Other	-13.1747
▁Beep	-13.176
▁sweetly	-13.1773
iv	-13.1774
▁differently	-13.1776
ary	-13.1783
▁tick	-13.1789
▁bolt	-13.1792
▁cuddling	-13.1792
▁recess	-13.1792
▁unwrapped	-13.1792
▁doggie	-13.1792
▁popping	-13.1792
▁snapping	-13.1793
▁mold	-13.1793
▁alongside	-13.1794
▁seasons	-13.1805
▁disappearing	-13.1816
▁blades	-13.1817
ari	-13.1825
▁cracker	-13.1825
▁circled	-13.183
▁nicest	-13.1835
▁Greg	-13.1839
▁pouch	-13.1839
▁Chuck	-13.1839
▁groom	-13.1839
▁lo	-13.185
▁Chirp	-13.185
Which	-13.1851
▁kneeling	-13.1852
▁shyly	-13.1865
▁Skip	-13.1867
ged	-13.1876
▁Th	-13.1884
▁Brad	-13.1885
ainbow	-13.1886
▁lullaby	-13.1886
▁lush	-13.1886
▁magically	-13.1894
▁Ice	-13.1903
▁warmed	-13.1908
▁writer	-13.1911
▁Dee	-13.1914
aven	-13.1926
▁thrill	-13.1932
red	-13.1933
▁admit	-13.1934
▁Muffin	-13.1934
▁Doctor	-13.1938
▁hollow	-13.1981
▁preschool	-13.1981
▁Stanley	-13.1981
▁loyalty	-13.1981
▁scrape	-13.1987
▁claw	-13.2009
▁playhouse	-13.201
opped	-13.2029
▁rubbish	-13.2029
▁softened	-13.2031
▁embarrassing	-13.2032
▁scares	-13.2033
▁Stan	-13.2035
▁hundreds	-13.2036
ran	-13.2059
▁digs	-13.2072
▁daily	-13.2077
▁cherished	-13.208
▁cousins	-13.2084
▁crafts	-13.2094
▁banging	-13.2094
▁Mu	-13.21
▁leans	-13.2112
▁improving	-13.2126
▁wheelbarrow	-13.2126
▁allowance	-13.2126
▁appearance	-13.2126
ied	-13.2142
ise	-13.2143
▁servant	-13.2154
▁Carefully	-13.2174
▁cheetah	-13.2174
▁coconut	-13.2174
▁tantrum	-13.2174
▁dozed	-13.2174
▁swapped	-13.2174
▁pecks	-13.2185
ix	-13.2201
▁habit	-13.2223
▁Girl	-13.2223
▁Wilbur	-13.2223
▁astonished	-13.2223
▁medals	-13.2223
▁whipped	-13.2223
▁coughing	-13.2232
▁Ms	-13.2247
▁''	-13.2268
▁bushy	-13.2269
▁allergic	-13.2272
▁traps	-13.2272
▁Woof	-13.2276
▁computers	-13.2296
▁bulbs	-13.2309
▁cops	-13.2318
▁Minnie	-13.2321
▁Pinchy	-13.2321
▁blur	-13.2321
▁Hopper	-13.2322
▁Mumma	-13.2324
▁melons	-13.2326
Sp	-13.2331
ite	-13.2343
▁tale	-13.2352
▁drying	-13.2363
▁reversing	-13.2371
▁disagreement	-13.2371
▁Candy	-13.2371
▁bowing	-13.2372
▁dolly	-13.2376
▁shoots	-13.2379
▁Tomorrow	-13.2381
rr	-13.2382
œThanks	-13.2384
▁rowing	-13.2385
ned	-13.2394
▁skate	-13.2402
▁hooves	-13.242
▁lifeguard	-13.242
▁narrow	-13.242
▁robe	-13.242
▁poisonous	-13.2421
▁fond	-13.2421
▁repeats	-13.243
Try	-13.2435
▁rails	-13.2444
bi	-13.2453
▁cooled	-13.2463
▁ballerina	-13.247
▁continuing	-13.247
▁rebuild	-13.247
▁soothing	-13.247
▁concerned	-13.2471
▁lunchtime	-13.2472
▁hatched	-13.2475
▁soda	-13.2483
▁pokes	-13.2484
▁thumbs	-13.2498
▁fishy	-13.2505
▁loudest	-13.2518
▁drip	-13.2521
▁Freya	-13.2521
▁launch	-13.2521
▁caution	-13.2521
▁headache	-13.2521
▁mayor	-13.2524
▁larger	-13.2536
▁kangaroos	-13.2553
▁townspeople	-13.2571
Flower	-13.2571
▁Josie	-13.2572
▁deeply	-13.2581
that	-13.2587
▁lever	-13.2604
▁wrapper	-13.2605
▁Hurry	-13.2613
Does	-13.262
▁huddle	-13.2621
▁Buggy	-13.2622
▁Summer	-13.2622
▁hamster	-13.2622
▁nibbling	-13.2622
▁sobbing	-13.2622
▁ankle	-13.2622
▁property	-13.2622
▁scoops	-13.2626
▁Jam	-13.2633
this	-13.2639
▁caw	-13.2671
▁Mick	-13.2672
▁Greta	-13.2673
▁lava	-13.2673
▁process	-13.2673
▁waking	-13.2673
▁flashes	-13.2674
▁Nicky	-13.2676
▁Orange	-13.2678
Benny	-13.269
▁quarreled	-13.2695
▁spoiling	-13.2695
▁pounds	-13.2698
▁structures	-13.2701
Shoo	-13.2701
▁sculpture	-13.2707
▁hissing	-13.2729
▁Win	-13.2739
ok	-13.2741
▁whales	-13.2748
▁strokes	-13.2749
Move	-13.2764
▁honks	-13.2773
▁snort	-13.2774
▁centre	-13.2776
▁harmony	-13.2776
▁incredibly	-13.2776
▁floppy	-13.2776
œWelcome	-13.2781
Isn	-13.2787
▁minding	-13.2815
ang	-13.2815
▁reflect	-13.2828
▁savor	-13.2828
▁sensation	-13.2828
▁bellies	-13.283
▁mooed	-13.2831
▁purring	-13.2832
▁shoelaces	-13.2846
▁trusts	-13.2867
▁alley	-13.287
▁flow	-13.2873
▁Jodie	-13.288
▁Prune	-13.288
▁blessing	-13.2881
▁trailer	-13.2888
▁Turn	-13.2892
▁sleds	-13.2928
▁angrier	-13.2932
▁bait	-13.2932
▁defend	-13.2932
▁otherwise	-13.2932
▁absolutely	-13.2932
▁whiskers	-13.2932
▁copied	-13.2932
▁bats	-13.2936
▁motorcycles	-13.2943
▁facts	-13.2945
arl	-13.2946
▁weaker	-13.2947
▁messages	-13.2949
▁cutest	-13.2961
▁repairing	-13.2963
▁sooner	-13.2973
▁fluff	-13.2984
▁Bruce	-13.2985
▁facing	-13.2985
▁rack	-13.2985
▁undone	-13.2985
▁guardian	-13.2985
▁pilots	-13.2989
▁crumb	-13.2989
▁speaks	-13.2994
uit	-13.2998
œThere	-13.3002
▁Smoke	-13.3037
▁prick	-13.3037
▁realise	-13.3037
▁quest	-13.3038
▁snoring	-13.3038
▁costs	-13.3043
Jump	-13.3055
▁oldest	-13.3078
▁impress	-13.3089
▁aloud	-13.3091
▁persistence	-13.3091
▁cooed	-13.3091
▁Joanne	-13.3091
Apple	-13.3091
▁challenges	-13.3112
bble	-13.3119
hy	-13.312
▁lasted	-13.3123
▁ingredient	-13.3129
▁mend	-13.313
▁movement	-13.3136
▁invitations	-13.314
▁attempts	-13.3143
▁mesmerised	-13.3144
house	-13.3155
▁kayaking	-13.3172
where	-13.3184
▁cr	-13.3195
▁disobey	-13.3196
▁desperate	-13.3197
▁Mighty	-13.3198
▁hovering	-13.3198
▁spiky	-13.3198
▁wig	-13.3198
▁slam	-13.3198
▁squirted	-13.3199
▁Peanut	-13.3201
Teddy	-13.3216
war	-13.3229
▁stains	-13.324
ush	-13.3249
▁Things	-13.3252
▁heavily	-13.3252
▁fries	-13.3252
▁Piggy	-13.3252
▁fooled	-13.3253
▁stroller	-13.3253
▁scrunched	-13.3253
▁roamed	-13.3254
▁carton	-13.3255
▁lasers	-13.3263
▁distract	-13.3264
▁flooded	-13.3267
▁faith	-13.3268
▁Lucas	-13.3269
Only	-13.3271
œAre	-13.3276
▁flavour	-13.3292
▁din	-13.3292
▁passenger	-13.3292
▁laces	-13.3293
▁skirts	-13.3298
▁accomplish	-13.3304
▁smash	-13.3304
ened	-13.3305
▁disaster	-13.3306
▁juiciest	-13.3306
▁trading	-13.3306
▁vinegar	-13.3306
▁woodcutter	-13.3306
▁jogger	-13.3307
obin	-13.3307
▁neigh	-13.331
▁steered	-13.3311
▁--	-13.3319
▁seriously	-13.3321
Daisy	-13.3325
back	-13.3326
ley	-13.3334
▁piled	-13.3337
▁warmest	-13.3338
way	-13.3348
▁calming	-13.3351
▁performers	-13.3351
▁glistening	-13.3361
▁realizing	-13.3361
▁disobeyed	-13.3363
▁ticking	-13.3364
zy	-13.3364
▁charged	-13.3364
▁nations	-13.3376
▁builder	-13.3384
▁nearer	-13.3387
rk	-13.3401
▁Ned	-13.3422
Grandpa	-13.3436
▁Mac	-13.344
▁lizards	-13.3455
▁pose	-13.3458
ching	-13.3463
▁introduc	-13.3467
▁echo	-13.3469
▁cigarette	-13.3471
▁fuss	-13.3471
▁lilies	-13.3471
▁wrench	-13.3471
▁rotted	-13.3472
▁host	-13.3472
▁Jimbo	-13.3473
œWould	-13.3476
for	-13.3477
▁gratefully	-13.3479
Ooh	-13.3483
▁guards	-13.3488
▁fl	-13.3489
Nothing	-13.3491
▁racer	-13.3496
▁Ed	-13.3499
▁smoothly	-13.3502
▁rocky	-13.3514
▁character	-13.3514
▁Paw	-13.3514
▁Audrey	-13.3527
▁Carrie	-13.3527
▁Otherwise	-13.3527
▁confusion	-13.3527
▁possibilities	-13.3527
▁till	-13.3527
▁tiring	-13.3527
▁braid	-13.3527
ippy	-13.3535
eading	-13.3543
ale	-13.3558
▁learner	-13.3576
▁tri	-13.3581
▁blossom	-13.3583
▁coop	-13.3583
▁indoors	-13.3583
▁rinsed	-13.3585
▁pecking	-13.3587
▁Play	-13.3595
▁crickets	-13.3634
▁Wolf	-13.3639
▁snip	-13.3639
▁desperately	-13.364
▁imaginations	-13.3668
▁untangle	-13.3694
▁Panda	-13.3695
▁Years	-13.3695
▁compromise	-13.3695
▁drill	-13.3695
▁glared	-13.3695
▁magnificent	-13.3695
▁necessary	-13.3695
▁restoring	-13.3695
▁throne	-13.3695
▁yummiest	-13.3695
▁mashed	-13.3696
▁shh	-13.3701
▁Books	-13.3704
▁signal	-13.3715
ino	-13.3717
▁kissing	-13.3732
▁beeping	-13.3737
▁army	-13.3744
▁sinking	-13.3748
bu	-13.375
▁chili	-13.3752
▁depths	-13.3752
▁tempting	-13.3752
▁shinier	-13.3752
▁theatre	-13.3753
▁blamed	-13.3753
▁Off	-13.3754
Bless	-13.376
▁winners	-13.377
▁Fly	-13.3778
▁attract	-13.3779
▁zookeepers	-13.3784
▁bathed	-13.3788
▁Which	-13.3795
ize	-13.3796
▁knobs	-13.3806
▁compass	-13.3809
▁foggy	-13.3809
▁footprints	-13.3809
▁sleigh	-13.3809
▁earrings	-13.3809
▁kinder	-13.3817
ase	-13.3828
▁quacks	-13.383
▁hatch	-13.384
▁riches	-13.3841
▁stacking	-13.3848
▁instincts	-13.3867
▁hips	-13.3867
▁silently	-13.3869
▁ladybird	-13.387
▁rattle	-13.3877
▁challenged	-13.3878
haw	-13.3882
▁stings	-13.3883
▁aprons	-13.3883
Playing	-13.389
▁Tell	-13.3892
▁elders	-13.3903
▁greatest	-13.3908
ooh	-13.3916
▁complet	-13.3917
▁pre	-13.3918
▁squish	-13.3922
q	-13.3923
▁champion	-13.3925
▁exhibit	-13.3925
▁grandkids	-13.3925
▁scrubbing	-13.3925
▁code	-13.3925
▁fashionable	-13.3925
fully	-13.3936
▁dusted	-13.3957
▁rider	-13.396
▁ordering	-13.3971
▁capture	-13.3981
▁Flutter	-13.3983
▁babysitter	-13.3983
▁macaroni	-13.3983
▁Marley	-13.3983
▁sniffled	-13.3983
▁boiled	-13.3985
▁volcanoes	-13.3986
▁hooks	-13.3995
▁regularly	-13.3998
erry	-13.4032
▁blooms	-13.4035
▁Jennifer	-13.4041
▁purchase	-13.4041
▁sparrow	-13.4041
▁shortcut	-13.4041
▁gulped	-13.4042
dog	-13.4069
▁stirs	-13.4075
▁carnival	-13.41
▁keen	-13.41
▁birdseed	-13.41
▁Clean	-13.411
▁comets	-13.4125
▁softness	-13.4126
▁designer	-13.4127
▁peels	-13.4129
athy	-13.4133
▁presence	-13.4159
Shark	-13.4159
▁uncovered	-13.416
▁Justin	-13.416
▁risky	-13.4161
▁peacefulness	-13.4166
▁sneaks	-13.4172
▁gladly	-13.4177
▁differences	-13.4185
▁unlocking	-13.4194
▁Fran	-13.4197
▁occasions	-13.4203
day	-13.4206
▁respond	-13.4217
▁plumber	-13.4219
▁route	-13.4219
▁snore	-13.4219
▁dripped	-13.4219
▁confidently	-13.4223
don	-13.424
Ta	-13.4251
Baa	-13.4257
▁widely	-13.426
▁praise	-13.4268
▁dumb	-13.4279
▁security	-13.4279
▁Joseph	-13.4279
▁Puppy	-13.4279
▁galloped	-13.428
▁booth	-13.4282
▁hunger	-13.4289
ough	-13.4289
▁Wisdom	-13.4291
▁soul	-13.4307
▁hundred	-13.4331
▁unload	-13.4337
▁flick	-13.4338
Congratulations	-13.4339
▁Duke	-13.4339
▁enclosure	-13.4339
▁information	-13.4339
▁snuggling	-13.4339
▁state	-13.4339
▁Janice	-13.4339
▁halfway	-13.4339
▁bold	-13.434
lar	-13.4341
espect	-13.4346
▁floaty	-13.4348
▁pads	-13.4355
▁gooey	-13.4372
▁explode	-13.4398
▁scuttl	-13.4399
▁Libby	-13.4399
▁niece	-13.4399
▁ribbit	-13.4399
▁science	-13.4399
▁shaky	-13.4399
▁pace	-13.44
▁scar	-13.4403
▁mustn	-13.4439
▁horrible	-13.446
▁retrieve	-13.446
Fun	-13.4461
▁Cow	-13.4461
▁rightful	-13.4478
look	-13.4484
why	-13.4486
▁Bambi	-13.4522
▁Biggie	-13.4522
▁Buster	-13.4522
▁Dylan	-13.4522
▁carousel	-13.4522
▁gorgeous	-13.4522
▁limit	-13.4522
▁Chess	-13.4522
▁wax	-13.4522
Hooray	-13.4522
▁Sean	-13.4522
œMummy	-13.4525
▁Snow	-13.4533
▁builders	-13.4544
▁softest	-13.4551
▁Cars	-13.4559
▁progress	-13.4583
▁Nature	-13.4584
▁Old	-13.4584
▁reaction	-13.4584
▁slot	-13.4584
▁Spark	-13.4591
▁Yoga	-13.4592
▁mo	-13.4594
▁painful	-13.4605
▁automobiles	-13.4641
▁croak	-13.4641
▁sweat	-13.4642
▁whe	-13.4642
▁Nut	-13.4646
▁hovered	-13.4646
▁Though	-13.4646
▁blessed	-13.4647
▁carefree	-13.4647
œGo	-13.4649
▁guesses	-13.465
cha	-13.465
▁Down	-13.4651
▁Friend	-13.4654
▁lantern	-13.4655
▁musicians	-13.4693
ather	-13.4705
Climb	-13.4708
▁Matthew	-13.4708
▁atmosphere	-13.4708
▁deciding	-13.4708
▁lunchbox	-13.4709
▁Dragon	-13.4714
▁panting	-13.4716
▁scratchy	-13.4717
▁Want	-13.4726
▁whines	-13.4739
▁pearls	-13.4749
▁actors	-13.475
olly	-13.475
Hop	-13.4758
▁snowflake	-13.4766
▁Jelly	-13.4768
▁suck	-13.477
▁squawk	-13.477
▁Melody	-13.4771
▁Thumper	-13.4771
▁Turtle	-13.4771
▁gradually	-13.4771
▁halves	-13.4771
▁mushy	-13.4771
▁urging	-13.4771
▁valleys	-13.4771
▁twitched	-13.4772
œWill	-13.4776
ddy	-13.4784
ship	-13.4788
ind	-13.48
▁swoop	-13.4832
ph	-13.4833
▁Bernie	-13.4834
▁community	-13.4834
▁department	-13.4834
▁royal	-13.4834
▁striking	-13.4834
▁damp	-13.4838
▁Squeak	-13.484
▁proved	-13.484
▁lightly	-13.4858
sha	-13.4859
▁mats	-13.4865
cre	-13.4885
▁Open	-13.4888
▁laws	-13.4888
▁juggle	-13.4896
▁blush	-13.4897
▁Johnnie	-13.4898
▁Monster	-13.4898
▁pollen	-13.4898
▁twelve	-13.4898
▁Catty	-13.4898
▁untangled	-13.49
▁Lightning	-13.4903
▁Carly	-13.4906
▁loser	-13.4907
▁freshly	-13.4915
print	-13.4926
▁feathered	-13.4944
▁springing	-13.4946
▁surfer	-13.4951
▁sleeve	-13.4958
▁roam	-13.496
▁Pearl	-13.4962
▁slurp	-13.4962
▁tutu	-13.4962
▁wanna	-13.4962
▁Chicky	-13.4962
▁Grumpy	-13.4963
▁spice	-13.4964
▁swirling	-13.4967
▁ages	-13.4974
king	-13.4982
eal	-13.5019
▁screech	-13.5025
▁addition	-13.5027
▁invisible	-13.5027
▁Copper	-13.5027
▁borrowing	-13.5027
▁frightening	-13.5027
▁squirmed	-13.5028
▁tongues	-13.5041
▁fiercely	-13.5046
▁projects	-13.5052
Sleep	-13.5056
▁layer	-13.5058
▁displaying	-13.5059
▁yuck	-13.5091
▁Faith	-13.5092
▁Heidi	-13.5092
▁Wilma	-13.5092
▁dandelion	-13.5092
▁funniest	-13.5092
▁length	-13.5092
▁mound	-13.5092
▁Father	-13.5092
▁bounded	-13.5092
▁Noah	-13.5093
▁Ellen	-13.5093
▁tingle	-13.5094
▁ashes	-13.5096
▁brightened	-13.5097
▁suggests	-13.5101
▁flush	-13.5105
▁smoother	-13.5118
▁freely	-13.5135
▁Miles	-13.5157
▁campsite	-13.5157
▁enchanted	-13.5157
▁platform	-13.5157
▁pounding	-13.5158
▁leaped	-13.516
▁Toys	-13.5172
▁stretchy	-13.5175
▁Boy	-13.518
ipper	-13.5186
▁biscuit	-13.522
▁tilt	-13.5221
her	-13.5222
▁furious	-13.5223
▁Bree	-13.5223
▁hamburger	-13.5223
▁organised	-13.5223
▁crispy	-13.5223
▁crushed	-13.5223
▁chattered	-13.5224
▁Alexa	-13.5233
▁swat	-13.5237
▁sweetness	-13.5246
clock	-13.5253
▁armor	-13.5256
coo	-13.5279
▁whir	-13.5289
▁affect	-13.5289
▁Shadow	-13.5289
▁dedication	-13.5289
▁polka	-13.5289
▁Otto	-13.5289
▁Caroline	-13.5289
▁boarded	-13.5291
▁Stretch	-13.5294
▁contained	-13.5304
▁lighting	-13.5312
rain	-13.5328
Ten	-13.5331
▁brakes	-13.5334
▁solutions	-13.5338
▁Wiggly	-13.5356
▁cruel	-13.5356
▁gliding	-13.5356
▁majestic	-13.5356
▁tumbling	-13.5356
▁mate	-13.5358
▁tightened	-13.5358
▁shooed	-13.5359
▁dumped	-13.5359
▁Billie	-13.5361
▁Spider	-13.5367
Four	-13.5383
▁Ostrich	-13.5387
Bird	-13.5387
▁deserves	-13.5395
▁arch	-13.5414
▁heights	-13.5416
fived	-13.5418
Cat	-13.5419
▁whisk	-13.5423
▁Faye	-13.5423
▁Instantly	-13.5423
▁totally	-13.5426
▁stained	-13.5428
▁delightful	-13.5429
▁Cheese	-13.544
shed	-13.544
▁petal	-13.5442
▁obediently	-13.5443
fish	-13.5452
▁attaching	-13.5454
sorry	-13.5455
Bu	-13.5458
▁bare	-13.5484
▁possession	-13.549
▁listener	-13.549
▁antlers	-13.549
▁cinema	-13.549
▁invention	-13.549
▁reality	-13.5493
▁Willie	-13.5494
▁cu	-13.5496
▁disagreeing	-13.5503
▁winks	-13.5503
▁hideout	-13.5505
▁Missy	-13.5505
Mmmm	-13.5509
Everyone	-13.5523
▁Jump	-13.5535
▁detective	-13.5558
▁farthest	-13.5558
▁handlebars	-13.5558
▁service	-13.5558
▁woodpecker	-13.5558
▁Jemma	-13.5558
▁gruff	-13.5558
▁poop	-13.5558
▁plow	-13.5558
▁cl	-13.5559
▁Gogo	-13.5562
œWait	-13.5567
Ma	-13.5574
place	-13.5589
heard	-13.5591
œMe	-13.5611
ana	-13.5616
œJohn	-13.5618
▁reappear	-13.5625
▁blame	-13.5625
▁exercising	-13.5627
▁pudding	-13.5627
▁rooster	-13.5627
▁suspicious	-13.5627
▁strum	-13.563
▁Park	-13.564
believe	-13.5661
▁brighten	-13.5664
▁Find	-13.5668
ign	-13.5675
corn	-13.5688
aitlyn	-13.5696
▁Stephanie	-13.5696
▁Yellow	-13.5696
▁horror	-13.5696
▁jaws	-13.5696
▁rink	-13.5696
▁saxophone	-13.5696
▁stinky	-13.5696
▁Louie	-13.5696
▁scowled	-13.5697
▁beg	-13.5719
▁Isla	-13.5723
ence	-13.5724
Mary	-13.573
okay	-13.573
umble	-13.5737
enthusiastically	-13.5744
air	-13.5763
▁Scott	-13.5765
▁brag	-13.5765
▁priest	-13.5765
▁Jade	-13.5765
▁Nia	-13.5765
▁shimmered	-13.5767
▁attempt	-13.5767
▁tripping	-13.5768
▁saddle	-13.5768
▁winking	-13.5778
Enjoy	-13.5799
ound	-13.5832
Jen	-13.5834
▁correct	-13.5834
▁Confused	-13.5835
▁Pingu	-13.5835
▁competing	-13.5835
▁mischief	-13.5835
▁thousand	-13.5835
▁dodging	-13.5835
▁Gail	-13.5835
▁rumbled	-13.5843
▁Far	-13.5844
▁avoided	-13.5845
▁Paws	-13.5851
▁online	-13.588
Dog	-13.5885
Friends	-13.59
▁Blink	-13.5905
▁Crab	-13.5905
Believe	-13.5906
▁Elizabeth	-13.5906
▁tastiest	-13.5906
▁hoof	-13.5906
▁considerate	-13.5906
▁darted	-13.5907
▁swirled	-13.591
nnie	-13.5911
keeper	-13.5935
▁glimmer	-13.5972
▁Marc	-13.5973
▁tiptoe	-13.5975
▁Cuddles	-13.5976
▁Puddles	-13.5976
▁calf	-13.5976
▁dustpan	-13.5976
▁supermarket	-13.5976
▁ogre	-13.5977
▁Wise	-13.5977
io	-13.5987
▁sickness	-13.5989
▁musical	-13.5999
Match	-13.6
tock	-13.6003
▁howl	-13.601
power	-13.6012
Jenny	-13.6012
Make	-13.6012
▁dips	-13.6037
▁hammering	-13.6042
▁erupt	-13.6046
▁Mindy	-13.6048
▁Marcus	-13.6048
▁Nellie	-13.6048
▁nightstand	-13.605
▁Mara	-13.6062
▁entering	-13.6079
▁ripples	-13.6084
▁stormy	-13.6109
Shrink	-13.612
▁Lacey	-13.612
▁thirty	-13.612
▁pineapple	-13.612
▁backward	-13.6124
▁ostriches	-13.6124
▁plank	-13.6128
▁wrecked	-13.6139
nce	-13.6141
▁pe	-13.6146
▁Close	-13.6154
Ice	-13.6159
.'"	-13.6162
ries	-13.6163
kin	-13.6172
▁curves	-13.6174
▁hare	-13.6174
board	-13.6188
▁rustle	-13.6191
Children	-13.6192
Snake	-13.6192
▁Flash	-13.6192
▁Simba	-13.6192
▁commotion	-13.6192
▁energized	-13.6192
▁porridge	-13.6192
▁managing	-13.6192
▁batch	-13.6193
Working	-13.6194
▁pancake	-13.6197
▁Thunder	-13.6201
▁hind	-13.6206
▁tales	-13.622
▁sneaking	-13.6234
▁snowing	-13.6237
▁homeless	-13.6257
▁venture	-13.6264
▁Nei	-13.6265
▁Aaron	-13.6265
▁honeycomb	-13.6265
▁Clare	-13.6265
▁threatened	-13.6265
Catch	-13.6284
win	-13.6286
▁raked	-13.6291
off	-13.6306
▁loosen	-13.6307
▁streaming	-13.6329
▁plum	-13.633
▁device	-13.6339
▁innocent	-13.6339
▁loneliness	-13.6339
▁stiff	-13.6339
▁Singing	-13.6339
▁Friendship	-13.6339
▁settling	-13.6339
▁solid	-13.6339
▁neighed	-13.6341
▁Brother	-13.6345
ka	-13.6356
▁Boom	-13.6361
▁supplying	-13.6368
▁pals	-13.638
▁seeking	-13.6385
▁flyer	-13.6385
▁clothing	-13.6393
▁wobbles	-13.64
rd	-13.64
ized	-13.6405
▁plea	-13.6408
▁fail	-13.6411
▁grumble	-13.6411
▁Ernie	-13.6413
▁Jules	-13.6413
▁Susy	-13.6413
▁injuries	-13.6413
▁reckless	-13.6413
▁report	-13.6413
▁studio	-13.6413
▁Ivy	-13.6413
▁toppings	-13.6413
▁Toni	-13.6414
Free	-13.6414
▁Fishy	-13.6414
Push	-13.6428
▁respecting	-13.6431
▁hurtful	-13.6433
Emma	-13.6452
La	-13.6453
▁crumble	-13.646
▁scrap	-13.6475
▁squirt	-13.6486
▁fright	-13.6487
▁Angie	-13.6488
▁choke	-13.6488
▁lurking	-13.6488
▁potty	-13.6488
▁passion	-13.649
▁suitcases	-13.65
Woo	-13.6501
œHere	-13.651
Grab	-13.6514
Should	-13.6527
Something	-13.6527
From	-13.6527
▁resisting	-13.6532
▁Anytime	-13.6555
Chocolate	-13.6563
▁Alfie	-13.6563
▁Lydia	-13.6563
▁Mild	-13.6563
upert	-13.6563
▁Hippy	-13.6563
▁workshop	-13.6563
▁double	-13.6563
▁reel	-13.6563
▁lumpy	-13.6564
▁squawked	-13.6565
▁joyous	-13.6567
▁succeeding	-13.6592
▁smoothie	-13.6601
uch	-13.6602
Close	-13.6603
Mittens	-13.6603
nd	-13.6627
▁Spanish	-13.6638
▁Taylor	-13.6638
▁reassuring	-13.6638
▁vacuum	-13.6638
▁wicked	-13.6638
▁Think	-13.6639
▁disgusted	-13.6639
▁Dina	-13.6639
▁witches	-13.6645
▁ruled	-13.6648
▁clu	-13.666
gh	-13.6677
anna	-13.6702
▁squeal	-13.6711
▁embrace	-13.6713
Surrender	-13.6715
▁ruffled	-13.6715
▁oink	-13.6715
▁deck	-13.6716
▁Pup	-13.6718
▁chewy	-13.6739
Everything	-13.6756
▁More	-13.6768
Phew	-13.6792
▁Crusty	-13.6792
▁Timothy	-13.6792
▁blob	-13.6792
▁critter	-13.6792
▁escaping	-13.6792
▁practising	-13.6792
▁unkind	-13.6792
Beware	-13.6792
▁clover	-13.6792
▁Marcy	-13.6793
▁Wink	-13.6805
aring	-13.6808
▁speedy	-13.6812
▁racers	-13.6814
▁Goose	-13.6815
▁wrappers	-13.6819
Eat	-13.6834
▁invent	-13.6869
▁Alison	-13.6869
▁abandoned	-13.6869
▁adopt	-13.6869
▁anybody	-13.6869
▁devastated	-13.6869
▁magpie	-13.6869
▁pinecone	-13.6869
Freeze	-13.6869
▁clam	-13.6869
▁Dizzy	-13.6869
▁begun	-13.6869
▁vast	-13.6869
▁snarled	-13.687
▁begs	-13.6873
▁Matty	-13.6875
▁stitched	-13.6886
▁stretcher	-13.689
▁ducklings	-13.6897
Whoa	-13.6917
▁perch	-13.6946
▁feat	-13.6947
▁honor	-13.6947
▁nephew	-13.6947
▁nuggets	-13.6947
▁grinning	-13.6948
▁pedalled	-13.6948
▁surprisingly	-13.6949
▁owning	-13.6961
Pass	-13.6998
ook	-13.7013
▁bun	-13.7013
▁pounce	-13.7024
▁Madeline	-13.7026
▁shame	-13.7026
▁desire	-13.7026
▁Pingo	-13.7026
▁connection	-13.7026
▁Bean	-13.703
▁misty	-13.7041
▁Imagine	-13.7045
▁servants	-13.7059
▁clips	-13.7065
Leo	-13.707
▁handy	-13.7091
▁targets	-13.7098
▁slightly	-13.7105
▁dries	-13.7106
▁undo	-13.7106
▁knitting	-13.7106
▁dodge	-13.7115
▁protector	-13.7116
ddle	-13.7128
▁gloom	-13.7185
▁ceremony	-13.7185
▁frisbee	-13.7185
▁skating	-13.7185
▁partner	-13.7185
▁interrupted	-13.7187
▁oars	-13.7187
▁unloaded	-13.7188
▁scolding	-13.719
▁site	-13.7198
▁somehow	-13.7199
▁fixer	-13.7206
New	-13.7206
Cook	-13.7212
door	-13.723
Two	-13.723
Sharing	-13.723
▁scribble	-13.7265
▁Club	-13.7266
▁Percy	-13.7266
▁buddies	-13.7266
▁scaly	-13.7266
▁tingling	-13.7266
▁role	-13.7266
▁Jet	-13.7266
▁sentence	-13.7266
▁stomping	-13.7271
▁leaping	-13.7271
▁lovingly	-13.7272
▁litter	-13.7275
rrr	-13.7285
▁Dora	-13.7289
More	-13.7312
▁flicker	-13.7346
▁Africa	-13.7347
▁Debbie	-13.7347
▁autumn	-13.7347
▁granny	-13.7347
▁independence	-13.7347
▁soggy	-13.7347
▁fifty	-13.7347
Cool	-13.7348
▁hoot	-13.7348
▁possessions	-13.7348
▁contentment	-13.7349
▁spoken	-13.7361
hearted	-13.7365
▁wetter	-13.7367
▁striped	-13.7367
ouch	-13.7369
ane	-13.7381
Silly	-13.7394
smelling	-13.7394
ui	-13.7421
wee	-13.7428
Spicy	-13.7429
▁position	-13.7429
▁refusing	-13.7429
▁separating	-13.7429
▁toothpaste	-13.7429
▁attendant	-13.7429
▁Stripey	-13.7429
epeat	-13.743
▁quarrelling	-13.7431
▁nursery	-13.7432
▁mow	-13.7436
▁Juice	-13.7438
▁scientists	-13.7467
▁Cookies	-13.7471
▁su	-13.7477
made	-13.7482
line	-13.7511
Butterfly	-13.7512
aylee	-13.7512
▁glistened	-13.7512
▁juggling	-13.7512
▁lens	-13.7512
▁proceed	-13.7512
▁Jumpy	-13.7513
▁Willow	-13.7514
▁dim	-13.7515
▁kindest	-13.7516
▁surrounding	-13.7527
▁Ama	-13.7528
ide	-13.753
▁Bop	-13.7538
▁plus	-13.7542
Trust	-13.756
oxy	-13.7568
talkie	-13.7595
▁Dawn	-13.7595
▁Paige	-13.7595
▁studies	-13.7595
▁tiara	-13.7595
▁Cloud	-13.7595
▁Gerry	-13.7595
▁harmful	-13.7596
▁Gia	-13.7596
▁Oak	-13.7597
▁strolling	-13.7601
▁adventurers	-13.7604
▁Tip	-13.7605
▁mixes	-13.7606
izz	-13.7623
▁tucks	-13.7623
friend	-13.7644
filled	-13.7644
well	-13.7653
▁sunk	-13.766
▁mast	-13.7677
▁arrange	-13.7678
▁timid	-13.7679
▁unwrap	-13.7679
▁moderation	-13.7679
▁pavement	-13.7679
▁quizzes	-13.7679
▁voyage	-13.7679
▁unlike	-13.768
▁payoff	-13.768
▁grade	-13.768
▁runny	-13.7698
▁reader	-13.7713
▁va	-13.7724
▁Maxine	-13.7728
eyed	-13.773
▁Hu	-13.7744
▁Chip	-13.7746
▁Hug	-13.7757
▁approval	-13.7764
▁barbecue	-13.7764
▁boast	-13.7764
▁chant	-13.7764
▁grandchildren	-13.7764
▁Hanna	-13.7764
▁waitress	-13.7764
▁carved	-13.7764
▁pail	-13.7764
▁arrested	-13.7766
era	-13.7769
▁puffed	-13.777
▁Eve	-13.7771
▁pitcher	-13.7774
▁outcome	-13.7779
iving	-13.7781
▁sly	-13.7783
▁scooping	-13.7784
Mix	-13.7786
utter	-13.7788
▁jumper	-13.7797
▁thoughtfully	-13.7803
▁Mars	-13.7805
▁roller	-13.7806
Wake	-13.7814
good	-13.7814
▁obstacles	-13.7823
▁grains	-13.783
▁Stand	-13.7849
▁Black	-13.7849
igzag	-13.785
▁Truck	-13.785
▁White	-13.785
▁culture	-13.785
▁jeans	-13.785
▁thinner	-13.785
▁trudge	-13.785
▁Anya	-13.785
▁Gilly	-13.785
▁equally	-13.785
▁Most	-13.7851
▁rustled	-13.7852
▁flowed	-13.7853
▁mid	-13.7853
œMama	-13.7855
▁pastor	-13.7855
œBecause	-13.7859
▁hurrying	-13.7912
ira	-13.7923
▁Barb	-13.7936
Careful	-13.7936
▁command	-13.7936
▁Nibbles	-13.7936
▁Walter	-13.7936
▁peculiar	-13.7936
▁wriggling	-13.7936
▁admitted	-13.7936
▁bullet	-13.7936
▁Cake	-13.7936
▁Angela	-13.7937
▁supportive	-13.7937
▁concentrated	-13.7937
▁skinny	-13.7938
▁captured	-13.7938
▁squashes	-13.7942
▁Tia	-13.7944
▁praises	-13.7948
▁Anything	-13.7951
▁conversations	-13.7965
▁performer	-13.7967
▁mailing	-13.7967
▁Wake	-13.7972
▁goo	-13.7981
some	-13.7983
just	-13.7987
Mark	-13.7987
port	-13.7989
iding	-13.8003
▁Mint	-13.8022
▁Barky	-13.8023
▁Chewy	-13.8023
▁Frustrated	-13.8023
▁Gradually	-13.8023
▁complicated	-13.8023
▁grumbling	-13.8023
▁lobby	-13.8023
▁Yet	-13.8023
▁bled	-13.8023
▁pathway	-13.8024
▁quicker	-13.8035
▁Snap	-13.8036
Gas	-13.8046
▁accepting	-13.8066
▁spa	-13.8067
Five	-13.8073
▁spelling	-13.8074
ica	-13.8101
▁extreme	-13.811
nderneath	-13.8111
▁Charles	-13.8111
▁Erin	-13.8111
▁Mousy	-13.8111
▁Spirit	-13.8111
▁pendant	-13.8111
▁wrinkly	-13.8111
▁hint	-13.8111
May	-13.8111
▁due	-13.8111
▁Layla	-13.8111
▁None	-13.8114
▁hopeless	-13.8116
▁Purple	-13.8119
▁golfer	-13.8119
▁Moe	-13.8121
▁pickles	-13.8123
▁yelp	-13.8128
▁Afterward	-13.813
▁grain	-13.813
▁sculptures	-13.814
een	-13.8143
▁Three	-13.8146
ocks	-13.8149
hop	-13.8155
▁instant	-13.8198
▁speck	-13.8199
▁Harriet	-13.8199
▁Hippo	-13.8199
▁bobbed	-13.8199
▁collage	-13.8199
▁outsmart	-13.8199
▁strict	-13.8199
▁banner	-13.8199
▁droplets	-13.8199
▁Manny	-13.8199
▁panicking	-13.8199
▁clucked	-13.8201
▁storybook	-13.8202
▁numbered	-13.8209
ppy	-13.821
▁Pizza	-13.8223
▁surrendering	-13.8235
Three	-13.8252
Alice	-13.8253
▁combing	-13.826
▁importantly	-13.8274
▁concentrate	-13.8287
▁abilities	-13.8288
▁rhyme	-13.8288
▁cartwheel	-13.8288
▁chunk	-13.8288
▁rectangle	-13.8288
▁Crystal	-13.8288
▁snipped	-13.8288
▁Jolly	-13.8288
▁tickly	-13.829
▁Tippy	-13.829
▁piglet	-13.8292
▁product	-13.8294
▁vitamins	-13.8301
▁Nell	-13.8302
▁richer	-13.8313
▁Peek	-13.8323
▁Wiggle	-13.8378
▁carriage	-13.8378
▁confusing	-13.8378
▁foreshadowed	-13.8378
▁kernel	-13.8378
▁resumed	-13.8378
▁begging	-13.8378
▁Cherry	-13.8378
▁discussion	-13.8379
▁unfolded	-13.8379
▁Ada	-13.838
▁journeyed	-13.8382
œMum	-13.8383
▁sweeping	-13.8385
Fin	-13.8389
▁Peace	-13.839
▁useless	-13.8397
Aw	-13.8413
stop	-13.8424
▁lace	-13.8424
▁pucker	-13.8428
ax	-13.8439
▁cluck	-13.8465
▁conquer	-13.8467
▁stump	-13.8469
▁Barney	-13.8469
▁Benjamin	-13.8469
▁Burt	-13.8469
▁Juan	-13.8469
▁liar	-13.8469
▁smudge	-13.8469
▁strummed	-13.8469
▁trousers	-13.8469
▁villain	-13.8469
▁stray	-13.8469
▁cock	-13.8469
▁Land	-13.847
Cut	-13.8471
▁slithering	-13.8471
▁biscuits	-13.8473
▁ferr	-13.8495
coming	-13.85
▁crust	-13.8501
obot	-13.8503
▁delaying	-13.8503
free	-13.8524
Jim	-13.8527
▁sealed	-13.8527
▁setup	-13.8528
lop	-13.853
▁cracking	-13.8531
▁Stu	-13.8551
▁marvel	-13.8557
▁Nathan	-13.8561
▁sunburn	-13.8561
▁Olly	-13.8561
▁Skelly	-13.8561
▁Step	-13.8561
▁bobbing	-13.8561
▁explanation	-13.8561
▁firewood	-13.8561
▁sizzle	-13.8561
▁somersault	-13.8561
▁Hour	-13.8561
œyou	-13.8566
▁securely	-13.8566
▁subjects	-13.858
▁curve	-13.8583
ala	-13.8591
Lisa	-13.8618
▁climber	-13.8634
▁slither	-13.8649
▁chatter	-13.865
▁gallop	-13.8652
▁emergencies	-13.8654
Oxygen	-13.8654
▁Bethany	-13.8654
▁Brave	-13.8654
▁Furry	-13.8654
▁Grandad	-13.8654
▁Lynn	-13.8654
▁Marty	-13.8654
▁Silver	-13.8654
▁fishermen	-13.8654
▁glimpse	-13.8654
▁shuffle	-13.8654
▁smoky	-13.8654
▁snuggly	-13.8654
Money	-13.8654
▁props	-13.8654
▁Flappy	-13.8654
▁Surprised	-13.8654
▁Bailey	-13.8654
▁packet	-13.8654
▁fully	-13.8654
Eww	-13.8654
▁cursed	-13.8655
▁Nelly	-13.8655
▁inspected	-13.8655
▁Mole	-13.8657
▁Eli	-13.8658
▁Piper	-13.8659
▁sleeves	-13.866
▁crosses	-13.8663
▁Mister	-13.8668
▁forty	-13.8669
▁flavours	-13.8678
▁Bubble	-13.8679
▁skates	-13.8688
▁Should	-13.8698
love	-13.8718
book	-13.8718
▁hammered	-13.8728
▁Nan	-13.8736
▁caf	-13.8745
▁Fuzz	-13.8746
▁guilt	-13.8746
▁Carrot	-13.8747
▁appetite	-13.8747
▁challenging	-13.8747
▁guidance	-13.8747
▁nightfall	-13.8747
▁promising	-13.8747
▁witness	-13.8747
▁heaviest	-13.8747
▁behold	-13.8747
▁Near	-13.8747
▁Hugo	-13.8747
▁curved	-13.8749
▁scribbled	-13.8749
▁sneakers	-13.8749
▁lifetime	-13.875
▁pinches	-13.8751
Sh	-13.8752
▁Music	-13.8755
▁Jose	-13.8758
▁Drop	-13.8762
▁Pig	-13.8764
ebra	-13.8764
osy	-13.8769
œHelp	-13.8775
▁fixes	-13.8784
▁Joel	-13.8801
stick	-13.8821
Car	-13.8822
▁Sal	-13.8828
▁gulp	-13.8839
▁pee	-13.8841
Yield	-13.8841
elsey	-13.8841
▁excellent	-13.8841
▁godmother	-13.8841
▁strand	-13.8841
▁stunned	-13.8841
▁terribly	-13.8841
▁wondrous	-13.8841
▁replacing	-13.8841
▁North	-13.8841
▁France	-13.8841
eggie	-13.8842
▁squatt	-13.8842
▁accidently	-13.8852
▁Dinner	-13.8859
œStop	-13.8877
▁Silly	-13.8883
▁cucumbers	-13.8892
ath	-13.89
œS	-13.89
welcome	-13.8901
▁guarded	-13.8908
▁stalks	-13.8908
tending	-13.8923
Work	-13.8934
▁vow	-13.8935
▁arrest	-13.8935
▁Fluff	-13.8936
▁Winnie	-13.8937
▁cheesy	-13.8937
▁disobedient	-13.8937
▁orchard	-13.8937
▁sprung	-13.8937
▁contentedly	-13.8937
▁Lexi	-13.8937
▁mower	-13.8937
Cheer	-13.8938
▁Mei	-13.8938
▁Micky	-13.8939
▁angle	-13.8939
▁Promise	-13.8954
▁bending	-13.8954
rious	-13.8956
Mind	-13.8957
now	-13.8997
Johnny	-13.9014
▁fi	-13.9016
▁dodges	-13.9019
▁playfully	-13.9019
▁thirst	-13.9032
▁Alfred	-13.9033
▁Surprisingly	-13.9033
▁farewell	-13.9033
▁releasing	-13.9033
▁wobbling	-13.9033
placing	-13.9033
▁Peach	-13.9033
▁plunge	-13.9033
▁Marco	-13.9033
▁marveling	-13.9035
œJack	-13.9037
even	-13.9039
▁sung	-13.9041
▁Faster	-13.9043
▁clearer	-13.9058
▁railing	-13.9073
!'"	-13.9079
Winter	-13.9082
Fly	-13.9098
▁inspect	-13.9114
▁glide	-13.9128
head	-13.9129
▁Gertie	-13.913
▁Samuel	-13.913
▁Amen	-13.913
▁cornfield	-13.913
▁jay	-13.913
indness	-13.913
▁tippy	-13.9131
▁creepy	-13.9131
▁gumball	-13.9131
▁antennae	-13.9131
▁fulfilled	-13.9131
Stir	-13.9145
▁Emi	-13.9149
▁stalk	-13.9159
▁gr	-13.917
▁grownups	-13.9191
Magic	-13.9192
▁shimmer	-13.9224
Blech	-13.9228
▁Beatrice	-13.9228
▁Diana	-13.9228
▁charity	-13.9228
▁fading	-13.9228
▁slime	-13.9228
▁staircase	-13.9228
▁daddies	-13.9228
▁recovered	-13.9229
▁mac	-13.923
▁fourth	-13.9232
▁classes	-13.9235
▁remov	-13.9242
bee	-13.9244
▁boomed	-13.9244
▁Slow	-13.9247
NO	-13.9253
how	-13.9253
▁stripe	-13.9255
▁obstacle	-13.9258
▁options	-13.9271
box	-13.9287
▁yelps	-13.9305
pon	-13.9306
▁figur	-13.9323
▁silk	-13.9326
▁destruction	-13.9327
▁swift	-13.9327
▁taco	-13.9327
▁Buttons	-13.9327
▁traveler	-13.9327
▁perked	-13.9328
▁apartment	-13.9328
▁overflowing	-13.9329
▁bullies	-13.9329
▁switches	-13.9333
▁splitting	-13.9337
▁Jed	-13.934
▁anxiously	-13.9351
▁spine	-13.9351
▁bruise	-13.9357
▁brake	-13.9359
▁rarely	-13.9363
▁Salt	-13.9367
▁ironing	-13.9379
▁howled	-13.9388
▁jacks	-13.939
Emily	-13.9391
yum	-13.9397
▁howling	-13.9405
▁Dove	-13.941
▁Cream	-13.9427
▁Gloria	-13.9427
▁Michelle	-13.9427
▁awaited	-13.9427
▁balcony	-13.9427
▁bumblebee	-13.9427
▁copies	-13.9429
▁sleepover	-13.9438
▁selfishness	-13.9439
▁yielding	-13.9463
▁shaker	-13.9464
▁March	-13.9471
▁steaming	-13.9474
▁Jenn	-13.9476
▁gra	-13.9492
Whenever	-13.9502
night	-13.9517
▁lately	-13.952
▁tighten	-13.9523
▁droop	-13.9527
▁exact	-13.9527
▁trot	-13.9528
▁boulder	-13.9528
▁combined	-13.9528
▁scooted	-13.9528
▁zig	-13.9528
▁Fanny	-13.9528
Brrr	-13.9529
▁Owen	-13.9529
▁Bobbi	-13.9535
come	-13.9556
▁gaining	-13.9562
▁coolness	-13.9569
▁hooked	-13.959
coloured	-13.9594
Blue	-13.9594
With	-13.9594
▁ski	-13.9624
▁shove	-13.9626
▁drown	-13.9628
▁scowl	-13.9628
▁Puff	-13.9629
▁Agnes	-13.963
▁Biscuit	-13.963
▁cities	-13.963
▁envy	-13.963
▁potential	-13.963
▁ungrateful	-13.963
▁whining	-13.963
▁dragging	-13.963
▁Animals	-13.963
▁swell	-13.963
▁crate	-13.9631
▁timidly	-13.9631
▁silky	-13.9631
elax	-13.9631
œJust	-13.9635
▁Flop	-13.9635
▁creaked	-13.9635
▁crunching	-13.9635
▁fizz	-13.9642
Sweet	-13.9697
▁kill	-13.9731
▁Abbi	-13.9732
Butterflies	-13.9733
▁Goldie	-13.9733
▁background	-13.9733
▁captivated	-13.9733
▁eleven	-13.9733
▁moist	-13.9733
▁murky	-13.9733
▁victorious	-13.9733
▁rent	-13.9733
▁construction	-13.9733
▁blurry	-13.9733
▁sandals	-13.9733
▁Flip	-13.9733
▁clothesline	-13.9735
▁glimmered	-13.9736
Found	-13.9738
▁Merry	-13.9748
▁gobble	-13.9776
▁actor	-13.9777
▁Ding	-13.9777
▁Helping	-13.9781
▁Lea	-13.9792
▁adjust	-13.9835
pped	-13.9836
▁Ethan	-13.9837
▁Jasper	-13.9837
▁Margaret	-13.9837
▁Sebastian	-13.9837
▁Tracy	-13.9837
▁dribble	-13.9837
▁flippers	-13.9837
▁hardworking	-13.9837
▁haystack	-13.9837
▁stylish	-13.9837
▁rash	-13.9837
▁clink	-13.9837
▁whirled	-13.9837
Swing	-13.9838
▁doubt	-13.9838
▁mini	-13.9839
▁embraced	-13.984
▁pest	-13.9845
Grow	-13.9855
Tea	-13.9877
▁driven	-13.9877
▁tiredness	-13.9886
▁sicker	-13.9897
hand	-13.9904
▁wasteful	-13.9905
stand	-13.9908
Spin	-13.9908
Bla	-13.9925
▁squirm	-13.9941
▁scrunch	-13.9941
▁wriggle	-13.9941
whee	-13.9941
niversity	-13.9943
▁crooked	-13.9943
▁diaper	-13.9943
▁trophies	-13.9943
▁bask	-13.9943
▁padlock	-13.9943
▁bale	-13.9943
▁War	-13.9943
▁sweating	-13.9946
▁dirtier	-13.9947
▁crashes	-13.9947
▁Dancing	-13.995
▁forming	-13.9952
▁Twist	-13.9954
▁acrobats	-13.9957
History	-13.9958
▁leftover	-13.9961
▁deepest	-13.9973
▁feared	-14.0011
Sammy	-14.0014
▁disc	-14.0019
▁Bon	-14.0038
▁electric	-14.0049
▁excuse	-14.0049
▁postcard	-14.0049
▁Lady	-14.0049
▁adored	-14.0049
▁nanny	-14.0049
▁salsa	-14.0049
▁streak	-14.0049
▁unlucky	-14.0049
▁hobby	-14.0049
▁Bones	-14.0049
▁raw	-14.0049
▁shoreline	-14.005
▁hurriedly	-14.0059
▁crackle	-14.007
▁impatiently	-14.0073
▁colouring	-14.0086
▁catcher	-14.0093
flower	-14.0116
▁faithful	-14.0124
▁miner	-14.014
▁Mitch	-14.0156
▁stunning	-14.0156
▁Arthur	-14.0156
▁Edward	-14.0156
▁chaos	-14.0156
▁comment	-14.0156
▁ecstatic	-14.0156
▁quality	-14.0156
▁embarrassment	-14.0157
▁Stripes	-14.0157
▁obliged	-14.0157
▁involved	-14.0157
▁nuzzles	-14.0177
anger	-14.0184
▁carelessly	-14.0185
▁heated	-14.0194
▁fitting	-14.0195
▁elder	-14.0196
▁jack	-14.0196
▁bubbled	-14.0209
wow	-14.023
▁Sea	-14.0241
Ahh	-14.0241
▁Mika	-14.0245
cla	-14.0247
▁favor	-14.0265
Crazy	-14.0265
Throw	-14.0265
▁Becca	-14.0265
▁Lauren	-14.0265
▁Mason	-14.0265
▁Phillip	-14.0265
▁cinnamon	-14.0265
▁emptied	-14.0265
▁hungrier	-14.0265
▁receiving	-14.0265
▁tightrope	-14.0265
▁unnecessary	-14.0265
▁Seth	-14.0265
▁broomstick	-14.0265
▁donut	-14.0266
▁descended	-14.0266
▁Sad	-14.0266
Jellyfish	-14.027
▁Cluck	-14.0275
▁Milk	-14.0277
▁remaining	-14.0309
▁Petey	-14.0318
Bear	-14.0333
Duck	-14.034
▁glint	-14.0373
▁troll	-14.0375
Patience	-14.0375
▁Sabrina	-14.0375
▁School	-14.0375
▁Swan	-14.0375
▁afloat	-14.0375
▁imaginative	-14.0375
▁infection	-14.0375
▁raisins	-14.0375
▁rejoiced	-14.0375
▁pry	-14.0375
itten	-14.0376
▁forgetful	-14.0384
▁messier	-14.0385
ggle	-14.0403
▁flopp	-14.0416
Higher	-14.0443
who	-14.0448
▁handled	-14.0469
zzz	-14.0472
▁fool	-14.0484
▁groan	-14.0484
▁Steal	-14.0486
▁Bloom	-14.0486
▁Intrigued	-14.0486
▁Plus	-14.0486
▁Sugar	-14.0486
▁Tabby	-14.0486
▁chugged	-14.0486
▁emotion	-14.0486
▁frantically	-14.0486
▁goblin	-14.0486
▁soothe	-14.0486
▁sundae	-14.0486
▁existed	-14.0487
▁halo	-14.0488
▁prisoner	-14.0488
iko	-14.0494
▁mastered	-14.0497
▁regretful	-14.0502
pitched	-14.0502
▁cleverness	-14.0503
▁lunged	-14.0504
On	-14.0505
▁Drink	-14.052
Teacher	-14.0529
▁vi	-14.053
▁pointer	-14.0531
ami	-14.0533
Caw	-14.0535
Sun	-14.056
▁strap	-14.0592
rge	-14.0594
▁Grump	-14.0598
▁Bright	-14.0598
▁blind	-14.0598
▁relationship	-14.0598
Coffee	-14.0598
▁Alicia	-14.0598
▁Bibi	-14.0598
▁Cody	-14.0598
▁Gizmo	-14.0598
▁accessories	-14.0598
▁breadcrumbs	-14.0598
▁outstretched	-14.0598
▁tablecloth	-14.0598
▁Nearby	-14.0599
▁main	-14.0599
▁Jackson	-14.0599
▁gleaming	-14.06
▁glinting	-14.0601
▁erupted	-14.0602
▁squawking	-14.0603
Jo	-14.0604
▁hiked	-14.0605
▁Number	-14.0611
▁Beary	-14.0638
▁grandparent	-14.0644
▁blond	-14.0652
▁cure	-14.0652
ella	-14.0683
Say	-14.0685
ade	-14.0693
izzy	-14.07
▁rung	-14.0708
▁wilt	-14.071
▁dart	-14.0711
▁crisp	-14.0711
Tell	-14.0712
▁Connie	-14.0712
▁Felicity	-14.0712
▁Grandmother	-14.0712
▁House	-14.0712
▁Small	-14.0712
▁assistant	-14.0712
▁fanciest	-14.0712
▁rosy	-14.0712
▁trimmed	-14.0712
▁Sheila	-14.0712
▁disturbance	-14.0713
▁Lillie	-14.0713
▁flitt	-14.0715
▁Bessy	-14.0715
▁tossing	-14.0716
▁risen	-14.0724
▁Count	-14.0728
▁bandaged	-14.0776
▁diver	-14.0777
Every	-14.0791
handed	-14.0794
inner	-14.0808
▁channel	-14.0827
▁principal	-14.0827
▁Pumpkin	-14.0827
▁ponytail	-14.0827
▁stumbling	-14.0827
▁scanne	-14.0827
▁Ginny	-14.0827
inkling	-14.0828
ictory	-14.0828
▁summertime	-14.0828
▁playmate	-14.0828
▁whizzed	-14.0829
▁fondly	-14.0829
▁creaking	-14.0834
▁bedside	-14.084
▁Sid	-14.0852
▁detail	-14.0875
Six	-14.089
freeze	-14.0908
Twinkle	-14.0908
piece	-14.0908
maker	-14.0908
▁daydream	-14.0941
▁Monica	-14.0943
▁Petal	-14.0943
▁Sister	-14.0943
▁Thanksgiving	-14.0943
▁Wanda	-14.0943
▁chugging	-14.0943
▁dazzling	-14.0943
▁eyeshadow	-14.0943
▁flakes	-14.0943
▁foreshadowing	-14.0943
▁glory	-14.0943
▁impact	-14.0943
▁sprinkling	-14.0943
▁talons	-14.0943
▁tastier	-14.0943
▁unison	-14.0943
▁Bull	-14.0944
▁wilted	-14.0945
immy	-14.0947
▁drifting	-14.0953
▁spotless	-14.0954
▁Everytime	-14.0959
▁fairly	-14.1022
▁wrinkle	-14.1059
▁equal	-14.106
ictor	-14.1061
▁similar	-14.1061
▁Hazel	-14.1061
▁Piggie	-14.1061
▁Smiling	-14.1061
▁cacti	-14.1061
▁dishonest	-14.1061
▁quiver	-14.1061
▁reins	-14.1061
▁sprinted	-14.1061
Writing	-14.1061
▁Lula	-14.1062
▁bruised	-14.1063
▁sucked	-14.1065
▁croaking	-14.1065
œDaddy	-14.1068
▁fastened	-14.107
▁weave	-14.1075
▁plump	-14.1076
Her	-14.1085
onny	-14.1104
lapping	-14.1114
▁looped	-14.1118
True	-14.1144
▁flu	-14.1173
▁Lyla	-14.118
▁Stacy	-14.118
▁cranky	-14.118
▁injury	-14.118
▁paramedic	-14.118
▁parcel	-14.118
▁savour	-14.118
▁spiral	-14.118
▁tradition	-14.118
▁announcement	-14.118
▁unzip	-14.118
▁sixty	-14.118
lderly	-14.118
▁Henny	-14.118
▁Cora	-14.1181
▁yanked	-14.1181
▁Deer	-14.1181
▁Sale	-14.1182
▁runway	-14.119
▁Lemon	-14.119
▁pang	-14.1194
▁endless	-14.1224
water	-14.1263
Drink	-14.1265
Even	-14.1265
three	-14.1265
bang	-14.1266
drop	-14.1267
▁disappoint	-14.1299
▁collapse	-14.1299
▁surge	-14.13
▁Genie	-14.1301
▁Officer	-14.1301
▁achieving	-14.1301
▁album	-14.1301
▁fingertips	-14.1301
▁stroking	-14.1301
Lunch	-14.1301
▁triumphant	-14.1301
▁grazing	-14.1301
▁stubb	-14.1301
▁sniffling	-14.1301
▁cancel	-14.1302
▁crackling	-14.1303
▁starry	-14.1312
▁boost	-14.1321
▁marshmallow	-14.1354
Miss	-14.1387
▁dam	-14.1416
▁jingle	-14.1421
▁repa	-14.1422
▁Isabel	-14.1422
▁react	-14.1422
▁Flap	-14.1422
Learn	-14.1422
Plane	-14.1422
Broccoli	-14.1422
uriosity	-14.1422
▁Mustache	-14.1422
▁doorknob	-14.1422
▁luxurious	-14.1422
▁motorbike	-14.1422
▁persuade	-14.1422
▁replies	-14.1422
▁revenge	-14.1422
▁sunbeam	-14.1422
▁unstuck	-14.1422
▁preferred	-14.1422
▁Purr	-14.1422
▁comfortably	-14.1423
▁Miller	-14.1423
▁Hot	-14.1423
▁Emmie	-14.1423
▁sipping	-14.1424
▁mended	-14.1427
▁Pen	-14.1437
œBye	-14.1444
▁booming	-14.1446
▁total	-14.1451
equ	-14.1495
▁pea	-14.1497
Mail	-14.151
Poor	-14.151
down	-14.151
Bunny	-14.151
Jake	-14.151
zoom	-14.1512
▁pal	-14.1512
▁scurry	-14.1544
▁uncover	-14.1544
▁ruff	-14.1546
Shrimp	-14.1546
▁arriving	-14.1546
▁claim	-14.1546
▁coiled	-14.1546
▁fossil	-14.1546
▁private	-14.1546
▁territory	-14.1546
▁twinkly	-14.1546
▁shiniest	-14.1546
▁whirring	-14.1546
▁Light	-14.1546
▁coaster	-14.1547
▁Joyce	-14.1547
nowing	-14.1549
▁protective	-14.155
▁mustard	-14.1552
▁greeting	-14.1555
▁Tap	-14.1555
▁Him	-14.1578
▁normally	-14.1588
wed	-14.1614
pilot	-14.1635
bie	-14.1646
Adventure	-14.1671
Different	-14.1671
Print	-14.1671
alue	-14.1671
▁Opal	-14.1671
▁Sissy	-14.1671
▁Stephen	-14.1671
▁effect	-14.1671
▁pruning	-14.1671
▁sorrow	-14.1671
▁teddies	-14.1671
▁tackle	-14.1671
▁ninety	-14.1671
▁sledding	-14.1671
▁Smokey	-14.1673
▁ouchy	-14.1674
▁suggesting	-14.168
œThey	-14.17
▁Skipp	-14.1732
yo	-14.1738
▁grownup	-14.1747
two	-14.1761
boat	-14.1762
worm	-14.1762
Ella	-14.1762
Peter	-14.1762
▁consider	-14.1795
▁produce	-14.1796
▁Lego	-14.1798
▁childhood	-14.1798
▁cloak	-14.1798
▁fortunate	-14.1798
▁lolly	-14.1798
▁pranced	-14.1798
▁resources	-14.1798
▁tangy	-14.1798
▁Blake	-14.1798
▁described	-14.1799
▁pedalling	-14.1799
▁sharpened	-14.18
▁Wonder	-14.1803
▁survived	-14.1805
▁overnight	-14.1807
œHe	-14.1843
Tonight	-14.1861
Susie	-14.189
lphin	-14.1915
▁Celia	-14.1926
▁Crocodile	-14.1926
▁Junior	-14.1926
▁Muffy	-14.1926
▁assured	-14.1926
▁distress	-14.1926
▁opportunities	-14.1926
▁register	-14.1926
▁tadpole	-14.1926
▁tulip	-14.1926
▁unravel	-14.1926
▁satisfy	-14.1926
▁Carlos	-14.1926
▁brew	-14.1926
▁graze	-14.1926
▁drummer	-14.1926
▁flipping	-14.1926
▁goldfish	-14.1926
▁cawed	-14.1931
▁calmness	-14.1942
▁everytime	-14.1946
▁shaken	-14.1955
▁surfed	-14.1961
ik	-14.1977
▁cucumber	-14.1987
▁Lin	-14.2009
Pizza	-14.202
Want	-14.202
▁bless	-14.2052
Dream	-14.2055
▁Casey	-14.2056
▁Caterpillar	-14.2056
▁Grape	-14.2056
▁Pasta	-14.2056
▁Scruffy	-14.2056
▁advantage	-14.2056
▁horrified	-14.2056
▁knead	-14.2056
▁spectacular	-14.2056
▁storing	-14.2056
▁uniting	-14.2056
▁Otter	-14.2056
▁death	-14.2056
▁dice	-14.2056
▁grave	-14.2057
ollie	-14.2058
▁farmhouse	-14.2058
▁juggled	-14.2059
▁sprinkler	-14.2061
▁stubbornness	-14.2065
▁dec	-14.2072
▁heater	-14.2075
long	-14.2132
iya	-14.216
ddled	-14.217
▁overflow	-14.2185
▁pluck	-14.2185
▁curse	-14.2186
▁antenna	-14.2186
▁Annabel	-14.2187
▁belief	-14.2187
▁crumpled	-14.2187
▁generation	-14.2187
▁shaving	-14.2187
▁supper	-14.2187
▁uneasy	-14.2187
▁unzipped	-14.2187
▁moan	-14.2187
▁blended	-14.2189
▁Spotty	-14.2189
▁capable	-14.2189
▁prey	-14.2189
▁Brady	-14.219
▁spitting	-14.2192
Dance	-14.2194
▁hopefully	-14.2194
▁thoughtfulness	-14.2196
Pay	-14.2203
new	-14.2211
▁Donna	-14.2213
▁sighing	-14.222
▁tougher	-14.222
mazingly	-14.2249
covered	-14.2285
Love	-14.2285
nine	-14.2289
▁dismay	-14.232
Greetings	-14.232
Sweetheart	-14.232
▁Guard	-14.232
▁Pigeon	-14.232
▁basil	-14.232
▁clambered	-14.232
▁errand	-14.232
▁session	-14.232
▁subtract	-14.232
▁threatening	-14.232
▁zone	-14.232
▁Napp	-14.2321
▁clang	-14.2321
▁resolved	-14.2321
▁Chad	-14.2321
▁droopy	-14.2322
▁Moley	-14.2322
▁Jana	-14.2323
▁screeched	-14.2325
▁trace	-14.24
oss	-14.2435
▁huff	-14.2454
▁coast	-14.2455
▁creep	-14.2455
▁Fast	-14.2455
Poison	-14.2456
Almost	-14.2456
▁Caleb	-14.2456
▁Trevor	-14.2456
▁amusement	-14.2456
▁muttered	-14.2456
▁scoring	-14.2456
▁shriek	-14.2456
▁volunteer	-14.2456
▁waddling	-14.2456
▁drape	-14.2456
▁sideways	-14.2456
▁oohed	-14.2456
▁outrun	-14.2456
▁seventy	-14.2456
▁unwell	-14.2456
▁zigzagging	-14.2456
▁grasped	-14.2457
▁suitable	-14.2458
▁toughest	-14.2467
toed	-14.2467
▁Cookie	-14.2524
▁ripple	-14.2524
▁Julian	-14.2553
Chirp	-14.2557
reverse	-14.2557
œWhen	-14.2586
▁swish	-14.2591
▁squint	-14.2591
▁tumble	-14.2591
▁combination	-14.2593
▁hairstyle	-14.2593
▁preparation	-14.2593
Delicious	-14.2593
▁Sharon	-14.2593
▁fifteen	-14.2593
▁grizzly	-14.2593
▁grumpiness	-14.2593
▁heartbeat	-14.2593
▁seahorse	-14.2593
▁stash	-14.2593
▁Paddy	-14.2593
▁gleefully	-14.2593
adish	-14.2593
▁Biggy	-14.2593
▁Lastly	-14.2593
▁tender	-14.2594
▁Blinky	-14.2594
▁pod	-14.2596
▁fetches	-14.2597
▁engineer	-14.2602
▁eighty	-14.2606
▁nook	-14.2613
▁dearly	-14.2616
▁Mya	-14.2616
Fair	-14.2625
▁gri	-14.2632
Choose	-14.2665
Wheeee	-14.2695
Mimi	-14.2696
▁grunt	-14.273
▁interrupt	-14.273
▁whil	-14.273
▁greed	-14.2731
▁Gently	-14.2732
▁Trina	-14.2732
▁curry	-14.2732
▁headphones	-14.2732
▁loaf	-14.2732
▁tiles	-14.2732
▁visible	-14.2732
▁volume	-14.2732
▁Elisa	-14.2732
▁Isabella	-14.2732
Aww	-14.2732
▁insistent	-14.2732
▁luckier	-14.2733
▁nightlight	-14.2743
▁Around	-14.2747
▁Best	-14.2748
▁squeaking	-14.2749
▁Tad	-14.2774
▁pound	-14.2799
ude	-14.2809
Soup	-14.2814
clo	-14.2834
Play	-14.2834
meow	-14.2836
Cheese	-14.2837
match	-14.2837
œAh	-14.2852
lock	-14.287
Yippee	-14.2872
▁Claw	-14.2872
▁Cleo	-14.2872
▁Melinda	-14.2872
▁flamingo	-14.2872
▁handkerchief	-14.2872
▁persisted	-14.2872
▁swerve	-14.2872
▁swipe	-14.2872
▁Marla	-14.2873
Fruit	-14.2873
▁directly	-14.2873
Sir	-14.2873
▁pasture	-14.2874
▁bob	-14.2875
▁beaten	-14.2876
▁squealing	-14.2877
▁mailboxes	-14.2883
▁quitting	-14.2884
Wheee	-14.2887
Hoo	-14.2932
Frog	-14.2979
Buddy	-14.298
▁cob	-14.298
Toby	-14.298
Lion	-14.298
four	-14.2984
▁blend	-14.3013
▁whizz	-14.3013
▁chuckle	-14.3014
▁waddle	-14.3014
Success	-14.3015
▁Belinda	-14.3015
▁Cassie	-14.3015
▁alphabet	-14.3015
▁gigantic	-14.3015
▁teammates	-14.3015
▁unforgettable	-14.3015
▁yummier	-14.3015
▁Franny	-14.3015
▁longingly	-14.3015
▁sniffles	-14.3016
▁chalkboard	-14.3016
▁jiggled	-14.3016
▁paintbrushes	-14.3017
▁Mack	-14.3017
▁limped	-14.3017
▁tv	-14.3017
▁lighthouse	-14.302
▁quickest	-14.3022
▁minty	-14.3042
▁qu	-14.3059
Lying	-14.3071
Ann	-14.3119
berries	-14.3121
goodbye	-14.3125
Bobo	-14.3126
eight	-14.3126
rrrrrrrrrrrrrrrr	-14.3155
Shut	-14.3155
▁punch	-14.3158
▁recover	-14.3158
▁squi	-14.316
▁Lilli	-14.316
▁Bossy	-14.316
▁Cole	-14.316
▁Lottie	-14.316
▁Misty	-14.316
▁Pixie	-14.316
▁SNAP	-14.316
▁Sylvia	-14.316
▁bacon	-14.316
▁dangling	-14.316
▁despair	-14.316
▁explosion	-14.316
▁liking	-14.316
▁privacy	-14.316
▁sheepishly	-14.316
▁tidier	-14.316
▁uncertain	-14.316
▁wailed	-14.316
Bravo	-14.316
▁latch	-14.316
▁torch	-14.316
▁grandad	-14.3161
▁matchbox	-14.3161
▁pressure	-14.3161
▁bay	-14.3161
▁buzzes	-14.3161
▁considered	-14.3162
▁Greeny	-14.3165
▁erased	-14.3167
œhello	-14.3168
everse	-14.3176
Marry	-14.318
Arr	-14.3181
zip	-14.3194
▁sibling	-14.3239
Imagine	-14.3271
▁saucer	-14.3281
▁encounter	-14.3305
▁Arnold	-14.3307
▁BEEP	-14.3307
▁cents	-14.3307
▁frolic	-14.3307
▁guiding	-14.3307
▁icicle	-14.3307
▁ridden	-14.3307
▁slippers	-14.3307
▁snooze	-14.3307
▁striv	-14.3307
▁therapist	-14.3307
▁rattling	-14.3307
▁skateboard	-14.3307
▁tingly	-14.3307
▁dying	-14.3308
▁Sari	-14.3308
▁divided	-14.3308
▁replacement	-14.3308
▁swingset	-14.3309
▁twitching	-14.3309
▁pounded	-14.3309
▁huffed	-14.3309
▁partied	-14.3309
▁beekeeper	-14.331
▁chattering	-14.3311
▁splinter	-14.3314
▁attacking	-14.3319
▁Dodo	-14.3321
give	-14.3334
tended	-14.3369
▁mar	-14.3418
Hide	-14.3418
People	-14.3421
Ellie	-14.3421
Lola	-14.3421
▁Dani	-14.344
▁bound	-14.3455
Balloon	-14.3456
▁Derek	-14.3456
▁Disappointed	-14.3456
▁Gaby	-14.3456
▁Giant	-14.3456
▁Harold	-14.3456
▁Phoebe	-14.3456
▁Swimming	-14.3456
▁Sydney	-14.3456
▁decrease	-14.3456
▁dizziness	-14.3456
▁ladies	-14.3456
▁strutted	-14.3456
▁variety	-14.3456
▁washcloth	-14.3456
▁froggy	-14.3456
▁shifted	-14.3456
▁cork	-14.3457
▁mash	-14.3457
▁Luis	-14.3457
elease	-14.3457
▁improvement	-14.3458
▁wonderland	-14.3458
▁keyboard	-14.3458
▁fearless	-14.3459
▁bid	-14.347
▁High	-14.3515
Fear	-14.3521
ocket	-14.3531
▁Bit	-14.3532
check	-14.3572
press	-14.3572
Snowy	-14.3573
▁frost	-14.3606
▁Pirate	-14.3608
▁blacksmith	-14.3608
▁flagpole	-14.3608
▁obedience	-14.3608
▁ointment	-14.3608
▁parlor	-14.3608
▁recital	-14.3608
▁violet	-14.3608
▁Jeffrey	-14.3608
▁Learning	-14.3608
azor	-14.3608
▁burp	-14.3608
▁bustling	-14.3608
▁Glen	-14.3608
▁recognised	-14.3609
▁Pole	-14.3609
▁bleated	-14.3609
▁loss	-14.361
▁Dara	-14.361
▁mooing	-14.3619
▁bendy	-14.3619
▁Mal	-14.3653
hole	-14.3677
James	-14.3726
Bobby	-14.3727
▁peep	-14.3732
Honk	-14.3762
▁Clarissa	-14.3762
▁Dennis	-14.3762
▁Glass	-14.3762
▁Naomi	-14.3762
▁Trix	-14.3762
▁Trudy	-14.3762
▁gnome	-14.3762
▁lavender	-14.3762
▁sensible	-14.3762
▁underwear	-14.3762
▁wavy	-14.3762
▁whinnied	-14.3762
▁protest	-14.3762
Glad	-14.3762
▁surgery	-14.3762
ichard	-14.3762
▁fo	-14.3763
▁snarling	-14.3763
▁floaties	-14.3764
▁hooted	-14.3766
▁Cocoa	-14.3769
eating	-14.3789
Friend	-14.3816
▁option	-14.3849
Turn	-14.3882
minded	-14.3882
Bella	-14.3883
▁limp	-14.3914
▁Wool	-14.3916
Banana	-14.3918
▁cash	-14.3918
▁Bunbun	-14.3918
▁Crane	-14.3918
▁Dark	-14.3918
▁Diane	-14.3918
▁Gorilla	-14.3918
▁Monday	-14.3918
▁Shiny	-14.3918
▁arrival	-14.3918
▁beanstalk	-14.3918
▁confront	-14.3918
▁disbelief	-14.3918
▁firetruck	-14.3918
▁majesty	-14.3918
▁personality	-14.3918
▁require	-14.3918
▁steadily	-14.3918
▁silliest	-14.3918
Smile	-14.3918
▁lioness	-14.3919
Spray	-14.3919
▁Woolly	-14.3919
▁Boots	-14.3919
▁simplest	-14.3923
▁Addy	-14.3925
▁mattresses	-14.3925
▁policemen	-14.3935
▁crop	-14.4036
Toys	-14.4041
Nobody	-14.4041
grow	-14.4041
Pink	-14.4041
Pick	-14.4042
▁Hav	-14.4047
emo	-14.4058
▁valu	-14.4072
serted	-14.4073
▁concern	-14.4075
▁exist	-14.4075
Bounc	-14.4076
▁direct	-14.4076
eith	-14.4076
▁Strip	-14.4077
Giraffe	-14.4077
Penguin	-14.4077
Slide	-14.4077
eluctantly	-14.4077
▁Melanie	-14.4077
▁apologizing	-14.4077
▁applied	-14.4077
▁gemstone	-14.4077
▁glorious	-14.4077
▁propeller	-14.4077
▁stressed	-14.4077
▁tournament	-14.4077
▁trespass	-14.4077
▁unsafe	-14.4077
occo	-14.4077
▁link	-14.4077
▁spinner	-14.4077
▁award	-14.4077
▁diligently	-14.4077
▁habitat	-14.4077
▁zigzagged	-14.4077
▁Tooth	-14.4077
▁limping	-14.4079
▁puffy	-14.4082
uacky	-14.4088
treating	-14.4157
Lost	-14.4176
Baby	-14.4202
ola	-14.4223
▁whimper	-14.4234
▁hesitate	-14.4236
Animal	-14.4238
▁select	-14.4238
ING	-14.4238
Parrot	-14.4238
Potato	-14.4238
▁Gabe	-14.4238
▁Jada	-14.4238
▁Month	-14.4238
▁client	-14.4238
▁fortune	-14.4238
▁phrase	-14.4238
▁silverware	-14.4238
▁terror	-14.4238
▁ticklish	-14.4238
▁untidy	-14.4238
▁Marta	-14.4238
▁Climbing	-14.4238
▁Mollie	-14.4238
▁Margo	-14.4238
▁boldly	-14.424
▁grunted	-14.424
œAlright	-14.4242
▁clucking	-14.4242
▁Skye	-14.4243
▁sis	-14.4243
▁sobs	-14.4252
Order	-14.4254
Pow	-14.4277
anish	-14.4315
play	-14.4366
Aunt	-14.4369
Deaf	-14.4402
Stupid	-14.4402
▁Alyssa	-14.4402
▁Anchor	-14.4402
▁Biff	-14.4402
▁Georgie	-14.4402
▁Laila	-14.4402
▁Miraculously	-14.4402
▁chemical	-14.4402
▁clinic	-14.4402
▁dragonflies	-14.4402
▁intention	-14.4402
▁origami	-14.4402
▁persevere	-14.4402
▁spout	-14.4402
▁cannon	-14.4402
▁savannah	-14.4402
▁pure	-14.4402
▁China	-14.4402
▁Lizard	-14.4403
▁punched	-14.4404
▁swished	-14.4404
▁Bub	-14.4405
▁Macy	-14.4405
▁flickered	-14.4406
œyes	-14.4407
œSometimes	-14.4409
Salad	-14.4419
▁blu	-14.4455
▁Ear	-14.4495
Fred	-14.4528
Mandy	-14.4533
Show	-14.4556
▁fulfill	-14.4567
▁Especially	-14.4569
▁Miranda	-14.4569
▁Stacey	-14.4569
▁barnyard	-14.4569
▁boundaries	-14.4569
▁giddy	-14.4569
▁inspiration	-14.4569
▁internet	-14.4569
▁official	-14.4569
▁recently	-14.4569
▁remarkable	-14.4569
▁splattered	-14.4569
▁underestimate	-14.4569
▁Boris	-14.4569
▁Cell	-14.4569
▁chime	-14.4569
▁patrol	-14.4569
▁unplugged	-14.4569
▁cooing	-14.4569
▁whirred	-14.4569
▁Corn	-14.4569
Swim	-14.4569
▁Night	-14.4569
Need	-14.4569
▁Lara	-14.457
▁tagged	-14.457
▁Minty	-14.457
▁produced	-14.4571
▁Mattie	-14.4572
▁adjusted	-14.4572
▁posed	-14.4574
▁leashes	-14.458
Pretty	-14.4702
Coco	-14.4703
Buzz	-14.4724
▁transform	-14.4736
▁unfold	-14.4736
▁involve	-14.4737
Blood	-14.4738
▁Dorothy	-14.4738
▁Leila	-14.4738
▁Sprinkles	-14.4738
▁Titi	-14.4738
▁Trunk	-14.4738
▁disease	-14.4738
▁hobbies	-14.4738
▁merrily	-14.4738
▁obvious	-14.4738
▁perspective	-14.4738
▁poof	-14.4738
▁sheriff	-14.4738
▁spatula	-14.4738
▁storyteller	-14.4738
▁swarm	-14.4738
abracadabra	-14.4738
▁devour	-14.4738
▁ditch	-14.4738
Cheap	-14.4738
▁ashore	-14.4738
▁sidelines	-14.4738
▁cozie	-14.4738
▁foil	-14.4738
▁Last	-14.4739
▁Hard	-14.4739
▁unscrewed	-14.4739
Feed	-14.4741
▁daydreaming	-14.4741
▁cactuses	-14.4748
▁manner	-14.4842
▁Fan	-14.486
happy	-14.4875
▁Pin	-14.4877
inny	-14.4899
▁grasp	-14.4909
Left	-14.4911
Spaghetti	-14.4911
▁Brooke	-14.4911
▁Fritz	-14.4911
▁Gerald	-14.4911
▁Happiness	-14.4911
▁Hilda	-14.4911
▁Jemima	-14.4911
▁Loyal	-14.4911
▁Painting	-14.4911
▁Pedro	-14.4911
▁cycle	-14.4911
▁harbour	-14.4911
▁mumbled	-14.4911
▁perseverance	-14.4911
▁professional	-14.4911
▁quench	-14.4911
▁recite	-14.4911
▁transport	-14.4911
▁unharmed	-14.4911
▁breathtaking	-14.4911
▁clipboard	-14.4911
▁illness	-14.4911
▁Socky	-14.4913
▁whimpering	-14.4913
▁Donny	-14.4916
lapped	-14.4922
▁straighten	-14.4929
▁arc	-14.5006
Art	-14.5038
Slow	-14.505
Wisdom	-14.505
Tomorrow	-14.505
Polly	-14.5051
▁shin	-14.506
▁frighten	-14.5082
awr	-14.5085
▁Gill	-14.5085
▁Brandy	-14.5086
▁Coal	-14.5086
▁July	-14.5086
▁Marvin	-14.5086
▁Miguel	-14.5086
▁Shirley	-14.5086
▁arranging	-14.5086
▁benefit	-14.5086
▁cockpit	-14.5086
▁galaxies	-14.5086
▁incident	-14.5086
▁massive	-14.5086
▁pigtails	-14.5086
▁policy	-14.5086
▁professor	-14.5086
▁recycling	-14.5086
▁trustworthy	-14.5086
▁Glow	-14.5086
▁Sonia	-14.5086
▁Story	-14.5086
▁Worry	-14.5086
▁speckled	-14.5086
▁drumming	-14.5086
▁rowboat	-14.5086
▁Marge	-14.5086
▁Bumble	-14.5086
▁Jem	-14.5086
zag	-14.5086
▁pew	-14.5086
▁wildlife	-14.5086
▁eng	-14.5087
▁dew	-14.5087
▁swordfish	-14.5087
▁Seal	-14.5087
▁Puffy	-14.5088
▁weaved	-14.5088
▁passage	-14.5089
▁Pine	-14.5089
▁former	-14.509
oooo	-14.5103
baa	-14.5106
Save	-14.5153
aja	-14.5174
▁Pee	-14.5193
▁attend	-14.5244
▁stru	-14.5256
Perhaps	-14.5265
shift	-14.5265
▁Georgia	-14.5265
▁Jesus	-14.5265
▁Smiley	-14.5265
▁Statue	-14.5265
▁bristles	-14.5265
▁carpenter	-14.5265
▁confetti	-14.5265
▁eternity	-14.5265
▁fascination	-14.5265
▁guacamole	-14.5265
▁hungrily	-14.5265
▁kettle	-14.5265
▁medium	-14.5265
▁observant	-14.5265
▁pyjamas	-14.5265
▁referee	-14.5265
▁clasp	-14.5265
▁nick	-14.5265
▁peddled	-14.5265
▁Bridget	-14.5265
▁coax	-14.5265
▁Moira	-14.5265
▁exception	-14.5265
▁blender	-14.5265
ecord	-14.5265
Warning	-14.5266
▁tame	-14.5266
▁photographer	-14.5266
Pull	-14.5266
▁jingled	-14.5267
eliable	-14.5269
Wish	-14.5357
▁Lil	-14.5361
hhh	-14.5365
Park	-14.5411
Life	-14.5411
Big	-14.5411
repeat	-14.5412
Snow	-14.5421
ava	-14.5431
▁prefer	-14.5446
alfway	-14.5446
▁Bumpy	-14.5446
▁Clover	-14.5446
▁Easter	-14.5446
▁Friday	-14.5446
▁Tuffy	-14.5446
▁cradl	-14.5446
▁entertained	-14.5446
▁quarter	-14.5446
▁responsibly	-14.5446
▁technique	-14.5446
▁smirk	-14.5446
▁Maggy	-14.5446
▁speechless	-14.5446
▁transformation	-14.5446
▁Laser	-14.5446
Space	-14.5447
▁Beaky	-14.5447
▁Clucky	-14.5448
▁Hana	-14.5478
rump	-14.5482
▁Mario	-14.5562
rise	-14.5577
Splash	-14.5596
Grace	-14.5596
Mike	-14.5596
because	-14.5596
maybe	-14.5596
▁describe	-14.563
Gotcha	-14.5632
▁Bozo	-14.5632
▁Driver	-14.5632
▁Elmo	-14.5632
▁Slimy	-14.5632
▁cabbage	-14.5632
▁cooperative	-14.5632
▁craziest	-14.5632
▁dawn	-14.5632
▁imitate	-14.5632
▁oval	-14.5632
▁program	-14.5632
▁pyramid	-14.5632
▁syringe	-14.5632
▁temper	-14.5632
▁title	-14.5632
Squawk	-14.5632
▁lure	-14.5632
▁Lazy	-14.5632
▁carrier	-14.5632
▁daycare	-14.5632
▁treetops	-14.5632
▁Berry	-14.5632
▁Lana	-14.5632
▁Pippy	-14.5633
▁sulked	-14.5633
▁Cop	-14.5633
▁woodland	-14.5634
▁payment	-14.5637
▁Add	-14.5641
Sit	-14.5664
Join	-14.5671
Shake	-14.5686
oops	-14.5728
open	-14.5773
Ahhh	-14.5781
▁rust	-14.5819
▁practise	-14.5819
Marriage	-14.582
Perfect	-14.582
Woah	-14.582
▁Foreshadowing	-14.582
▁Oyster	-14.582
▁Sidney	-14.582
▁Word	-14.582
▁appointment	-14.582
▁aquarium	-14.582
▁barbershop	-14.582
▁brim	-14.582
▁console	-14.582
▁hammock	-14.582
▁honour	-14.582
▁melodies	-14.582
▁revv	-14.582
▁unroll	-14.582
▁loung	-14.582
▁racket	-14.582
Food	-14.582
▁failure	-14.582
▁Lacy	-14.582
▁ladle	-14.582
▁scarier	-14.582
▁unfreeze	-14.582
▁Barbara	-14.582
▁meaningful	-14.5821
▁Louisa	-14.5821
▁Blackie	-14.5821
▁demonstrated	-14.5821
oice	-14.5821
▁imp	-14.5901
▁shoelace	-14.5944
▁chore	-14.5944
Promise	-14.5977
Star	-14.5977
▁congratulat	-14.601
hinoceros	-14.6013
olcano	-14.6013
▁Aria	-14.6013
▁Blaze	-14.6013
▁Blocks	-14.6013
▁Buffy	-14.6013
▁Elliot	-14.6013
▁Flick	-14.6013
▁Frisky	-14.6013
▁Square	-14.6013
▁Worms	-14.6013
▁anniversary	-14.6013
▁eerie	-14.6013
▁headband	-14.6013
▁milkshake	-14.6013
▁raspberry	-14.6013
▁roundabout	-14.6013
▁rummage	-14.6013
▁typing	-14.6013
▁unpleasant	-14.6013
▁Dare	-14.6013
▁poet	-14.6013
▁traveller	-14.6013
idden	-14.6013
▁Shawn	-14.6013
▁handyman	-14.6013
▁vain	-14.6013
▁Duckie	-14.6014
Neigh	-14.6014
harp	-14.6032
ivi	-14.6088
▁noodle	-14.614
▁fla	-14.6149
field	-14.6173
Dinner	-14.6173
Math	-14.6173
▁gleam	-14.6206
▁Nat	-14.6208
Deliver	-14.6209
▁Scamp	-14.6209
▁medic	-14.6209
▁menacing	-14.6209
Dinosaur	-14.6209
Taste	-14.6209
▁Benji	-14.6209
▁Dean	-14.6209
▁Graham	-14.6209
▁Mallory	-14.6209
▁Novel	-14.6209
▁appreciating	-14.6209
▁basics	-14.6209
▁bubblegum	-14.6209
▁chief	-14.6209
▁downstream	-14.6209
▁elves	-14.6209
▁extinguisher	-14.6209
▁farmyard	-14.6209
▁predator	-14.6209
▁shepherd	-14.6209
▁spool	-14.6209
▁Hood	-14.6209
▁lightening	-14.6209
▁Sunflower	-14.6209
▁uneven	-14.6209
▁lane	-14.6209
▁shoebox	-14.6209
▁Maia	-14.6209
▁Pia	-14.621
ably	-14.6211
▁afterward	-14.634
▁swatte	-14.6364
Share	-14.6373
Poppy	-14.6373
Enough	-14.6409
Mosquito	-14.6409
STOP	-14.6409
Strike	-14.6409
angaroo	-14.6409
▁Above	-14.6409
▁Connor	-14.6409
▁Cottontail	-14.6409
▁Feather	-14.6409
▁Fierce	-14.6409
▁Nikki	-14.6409
▁Police	-14.6409
▁Spud	-14.6409
▁assemble	-14.6409
▁drenched	-14.6409
▁eldest	-14.6409
▁glossy	-14.6409
▁immense	-14.6409
▁townsfolk	-14.6409
Exit	-14.6409
▁Dotty	-14.6409
▁Mixy	-14.6409
▁waggy	-14.6409
Crash	-14.6409
▁funnier	-14.6409
Child	-14.6409
▁Power	-14.6409
Dead	-14.6409
▁Toast	-14.6409
▁Wolfie	-14.6409
▁moss	-14.641
▁beady	-14.6412
came	-14.6416
Water	-14.6577
Danny	-14.6577
Spring	-14.6577
turn	-14.6579
pop	-14.6583
▁crush	-14.6611
▁Louis	-14.6612
▁numb	-14.6612
ASH	-14.6613
▁Abbey	-14.6613
▁Alligator	-14.6613
▁Brush	-14.6613
▁Frightened	-14.6613
▁Gavin	-14.6613
▁Harper	-14.6613
▁Snowflake	-14.6613
▁convincing	-14.6613
▁document	-14.6613
▁inquisitive	-14.6613
▁lightbulb	-14.6613
▁system	-14.6613
zagged	-14.6613
▁flowerbed	-14.6613
▁Snappy	-14.6613
▁Lord	-14.6613
▁Luka	-14.6613
▁Chippy	-14.6613
▁stock	-14.6613
▁Jumper	-14.6614
▁fro	-14.6667
Seven	-14.6694
▁Liv	-14.6758
Anything	-14.6785
Spider	-14.6785
Clean	-14.6785
Paul	-14.6785
Before	-14.6785
▁gut	-14.6791
▁filth	-14.682
Jogging	-14.6821
Octopus	-14.6821
▁Angus	-14.6821
▁Celeste	-14.6821
▁English	-14.6821
▁Morty	-14.6821
▁Witch	-14.6821
▁chorus	-14.6821
▁constantly	-14.6821
▁employee	-14.6821
▁furthest	-14.6821
▁grumpier	-14.6821
▁jigsaw	-14.6821
▁lazily	-14.6821
▁misbehave	-14.6821
▁public	-14.6821
▁rosemary	-14.6821
▁shaping	-14.6821
▁tragedy	-14.6821
▁tusks	-14.6821
Click	-14.6821
▁fairytale	-14.6821
▁radiat	-14.6821
▁reddest	-14.6821
▁reeds	-14.6821
Bike	-14.6821
▁Jacklyn	-14.6821
▁antics	-14.6821
▁Lolly	-14.6821
Yep	-14.6821
▁Bananas	-14.6821
▁limeade	-14.6821
Sounds	-14.6822
▁chessboard	-14.6822
▁Part	-14.6822
▁Bao	-14.6823
Sell	-14.6832
▁Pinch	-14.6896
Henry	-14.6998
help	-14.6998
Fish	-14.6998
Tina	-14.6999
▁photograph	-14.7032
Safe	-14.7034
hythm	-14.7034
▁Ariel	-14.7034
▁Cecil	-14.7034
▁Davy	-14.7034
▁Harvey	-14.7034
▁Lancelot	-14.7034
▁Mushroom	-14.7034
▁Pepe	-14.7034
▁Street	-14.7034
▁betrayed	-14.7034
▁duty	-14.7034
▁education	-14.7034
▁fabulous	-14.7034
▁fragrant	-14.7034
▁hilarious	-14.7034
▁memorable	-14.7034
▁renewed	-14.7034
▁research	-14.7034
▁salesperson	-14.7034
▁spicies	-14.7034
▁stooped	-14.7034
▁virtue	-14.7034
▁virus	-14.7034
▁Puzzle	-14.7034
▁Dreams	-14.7034
▁huh	-14.7035
▁fiddle	-14.7071
Luna	-14.7216
▁snarl	-14.7247
▁divide	-14.725
Squeeze	-14.7251
Treasure	-14.7251
mores	-14.7251
ndeterred	-14.7251
▁Cautiously	-14.7251
▁Chester	-14.7251
▁Ferris	-14.7251
▁Jeannie	-14.7251
▁Pastel	-14.7251
▁advised	-14.7251
▁flesh	-14.7251
▁frilly	-14.7251
▁haunted	-14.7251
▁hydrant	-14.7251
▁perhaps	-14.7251
▁receipt	-14.7251
▁recycle	-14.7251
▁snout	-14.7251
▁thirteen	-14.7251
Cricket	-14.7251
▁email	-14.7251
▁fragrance	-14.7251
▁relative	-14.7251
▁multipl	-14.7251
▁Amaya	-14.7251
Easy	-14.7251
▁marvelous	-14.7251
Spell	-14.7251
▁eel	-14.7251
▁hired	-14.7252
▁Bud	-14.7252
cut	-14.731
▁Teach	-14.7388
▁Luca	-14.7405
▁rea	-14.7439
mom	-14.7439
▁prison	-14.7469
▁possibl	-14.7472
▁brow	-14.7473
▁Archie	-14.7473
▁Clyde	-14.7473
▁Daughter	-14.7473
▁Delighted	-14.7473
▁Saturn	-14.7473
▁Scared	-14.7473
▁Steam	-14.7473
▁Strong	-14.7473
▁crevice	-14.7473
▁garlic	-14.7473
▁junkyard	-14.7473
▁laziness	-14.7473
▁skeptical	-14.7473
▁infected	-14.7473
▁slope	-14.7473
Amazing	-14.7474
▁Croco	-14.7474
▁Grant	-14.7474
Press	-14.7474
rench	-14.7494
▁fee	-14.7656
Snap	-14.7665
Books	-14.7665
Tree	-14.7665
George	-14.7665
Lilly	-14.7665
Millie	-14.7665
through	-14.7665
block	-14.7665
Flour	-14.7672
Boat	-14.7679
Excellent	-14.7701
Plant	-14.7701
Spread	-14.7701
nknown	-14.7701
responsibilities	-14.7701
▁Aiden	-14.7701
▁Brett	-14.7701
▁Buttercup	-14.7701
▁Ghost	-14.7701
▁Horsy	-14.7701
▁Murphy	-14.7701
▁Peppy	-14.7701
▁bonfire	-14.7701
▁cavity	-14.7701
▁clumsily	-14.7701
▁courtyard	-14.7701
▁daffodil	-14.7701
▁nerves	-14.7701
▁pausing	-14.7701
▁pegs	-14.7701
▁pulse	-14.7701
▁snoozing	-14.7701
▁strained	-14.7701
▁trinket	-14.7701
▁unattended	-14.7701
▁unhealthy	-14.7701
▁windmill	-14.7701
Fuel	-14.7701
▁Drawing	-14.7701
▁operator	-14.7701
▁marvelled	-14.7701
▁mould	-14.7701
▁Lamb	-14.7701
▁lack	-14.7701
ylie	-14.7704
œbu	-14.775
▁classmate	-14.7865
▁fli	-14.7892
Drop	-14.7897
Again	-14.7898
Jazz	-14.7898
▁announce	-14.7932
▁apologise	-14.7932
Triangle	-14.7933
▁Bathing	-14.7933
▁Flea	-14.7933
▁Walking	-14.7933
▁adventuring	-14.7933
▁cowgirls	-14.7933
▁drawbridge	-14.7933
▁elated	-14.7933
▁fame	-14.7933
▁fourteen	-14.7933
▁gluing	-14.7933
▁hydrated	-14.7933
▁jewellery	-14.7933
▁messenger	-14.7933
▁occurred	-14.7933
▁paradise	-14.7933
▁qualities	-14.7933
▁slingshot	-14.7933
▁stunt	-14.7933
Behave	-14.7933
Leopard	-14.7933
▁trolley	-14.7933
▁Shade	-14.7933
▁Nicole	-14.7933
▁tiniest	-14.7933
▁Hailey	-14.7934
▁Paper	-14.7934
▁Scissor	-14.7961
▁germ	-14.8104
Mister	-14.8136
lantern	-14.8136
behaved	-14.8136
Sophie	-14.8136
grandpa	-14.8136
shrink	-14.8136
▁twitch	-14.8167
▁bleat	-14.8169
▁Emmi	-14.817
▁speech	-14.8171
▁avail	-14.8171
BANG	-14.8171
▁Brenda	-14.8171
▁Fireworks	-14.8171
▁Modest	-14.8171
▁Priscilla	-14.8171
▁Teresa	-14.8171
▁accessory	-14.8171
▁blaring	-14.8171
▁caretaker	-14.8171
▁choking	-14.8171
▁clogged	-14.8171
▁colony	-14.8171
▁coyote	-14.8171
▁drunk	-14.8171
▁flexibility	-14.8171
▁intense	-14.8171
▁mercy	-14.8171
▁porcupine	-14.8171
▁represent	-14.8171
▁salute	-14.8171
▁slumped	-14.8171
▁squiggly	-14.8171
▁triceratops	-14.8171
▁yeah	-14.8171
▁jolt	-14.8171
▁waft	-14.8171
ascal	-14.8171
▁boredom	-14.8171
Crack	-14.8171
▁alleyway	-14.8171
▁Farah	-14.8171
▁Nanny	-14.8172
Agent	-14.8172
▁hiking	-14.8172
▁Shine	-14.8172
▁Nation	-14.8172
▁Set	-14.8175
Opera	-14.82
walk	-14.8378
fast	-14.8379
March	-14.8379
Maggie	-14.838
sometimes	-14.838
special	-14.838
▁squa	-14.8409
▁vibration	-14.8415
Circle	-14.8415
Practice	-14.8415
Squash	-14.8415
osemary	-14.8415
▁Bald	-14.8415
▁Blossom	-14.8415
▁Craig	-14.8415
▁Further	-14.8415
▁Judge	-14.8415
▁Mackenzie	-14.8415
▁Majesty	-14.8415
▁Sylvester	-14.8415
▁Tubby	-14.8415
▁Windy	-14.8415
▁Woody	-14.8415
▁assistance	-14.8415
▁briefcase	-14.8415
▁fidget	-14.8415
▁hairbrush	-14.8415
▁intricate	-14.8415
▁kilos	-14.8415
▁kindergarten	-14.8415
▁kiwi	-14.8415
▁koala	-14.8415
▁location	-14.8415
▁passerby	-14.8415
▁plaster	-14.8415
▁resourceful	-14.8415
▁sample	-14.8415
▁storeowner	-14.8415
▁tattered	-14.8415
▁unpredictable	-14.8415
▁vivid	-14.8415
▁wheelchair	-14.8415
Change	-14.8415
▁strumming	-14.8415
▁playdough	-14.8415
nives	-14.8415
▁Perry	-14.8416
ssssssssssssssss	-14.8416
▁Tama	-14.8418
▁granddad	-14.8418
Write	-14.8421
▁grate	-14.8521
patter	-14.8543
▁styl	-14.8577
Yoga	-14.8629
Doggy	-14.863
leaf	-14.863
organize	-14.863
Merry	-14.863
snap	-14.863
▁dash	-14.8663
▁swor	-14.8664
▁Blu	-14.8664
▁Croc	-14.8665
▁Anthony	-14.8665
▁Chubby	-14.8665
▁Cynthia	-14.8665
▁Diamond	-14.8665
▁Evelyn	-14.8665
▁Flame	-14.8665
▁Maurice	-14.8665
▁Smudge	-14.8665
▁Swimmy	-14.8665
▁cafeteria	-14.8665
▁chart	-14.8665
▁cooperation	-14.8665
▁eachother	-14.8665
▁fancier	-14.8665
▁grouchy	-14.8665
▁jingling	-14.8665
▁parachute	-14.8665
▁pretzel	-14.8665
▁vigorously	-14.8665
▁wove	-14.8665
▁cruis	-14.8665
▁tennis	-14.8665
▁tinker	-14.8665
▁mummies	-14.8665
▁mmm	-14.8665
Yawn	-14.8665
▁perk	-14.8665
▁French	-14.8665
▁Lonel	-14.8666
Winning	-14.8695
▁Forgiv	-14.8739
irsty	-14.8746
proving	-14.8757
▁trac	-14.877
Count	-14.8886
aaa	-14.8918
▁competitor	-14.8922
Lawyer	-14.8922
Polish	-14.8922
Wheat	-14.8922
nknowingly	-14.8922
▁Harley	-14.8922
▁Jewel	-14.8922
▁Petunia	-14.8922
▁Spinning	-14.8922
▁Tinker	-14.8922
▁corridor	-14.8922
▁croc	-14.8922
▁engulf	-14.8922
▁frills	-14.8922
▁miraculous	-14.8922
▁pixie	-14.8922
▁preferences	-14.8922
▁sixteen	-14.8922
▁summit	-14.8922
▁untouched	-14.8922
Whoosh	-14.8922
▁passageway	-14.8922
▁Greed	-14.8922
▁grime	-14.8922
▁Stick	-14.8944
Break	-14.902
althiest	-14.9037
tasting	-14.9149
yield	-14.9149
Alex	-14.9149
cross	-14.918
▁reluctant	-14.9184
Compassion	-14.9185
▁Smarty	-14.9185
▁accurate	-14.9185
▁uglie	-14.9185
Aaaah	-14.9185
Ladies	-14.9185
Whistling	-14.9185
▁Amelie	-14.9185
▁Callie	-14.9185
▁Canada	-14.9185
▁Cave	-14.9185
▁Charley	-14.9185
▁Gilbert	-14.9185
▁Gordon	-14.9185
▁Happily	-14.9185
▁Safety	-14.9185
▁Scratch	-14.9185
▁Squigg	-14.9185
▁Sully	-14.9185
▁awkward	-14.9185
▁backseat	-14.9185
▁bellowed	-14.9185
▁chord	-14.9185
▁compartment	-14.9185
▁curb	-14.9185
▁dread	-14.9185
▁fifth	-14.9185
▁gracious	-14.9185
▁handiwork	-14.9185
▁ignorance	-14.9185
▁jersey	-14.9185
▁misbehaving	-14.9185
▁receptionist	-14.9185
▁scepter	-14.9185
▁supervision	-14.9185
▁swoosh	-14.9185
▁unbuckle	-14.9185
▁clunk	-14.9185
▁author	-14.9185
▁Balanc	-14.9185
▁urgent	-14.9185
Woohoo	-14.9185
▁selection	-14.9185
Talk	-14.9211
▁embark	-14.9307
Spark	-14.9419
whoosh	-14.9419
splash	-14.9419
trapped	-14.9433
▁oblige	-14.9454
Original	-14.9455
Strawberry	-14.9455
egular	-14.9455
obyn	-14.9455
▁Allowed	-14.9455
▁Cross	-14.9455
▁Gabriel	-14.9455
▁altogether	-14.9455
▁asteroid	-14.9455
▁biking	-14.9455
▁clumsiness	-14.9455
▁controller	-14.9455
▁croissant	-14.9455
▁erasing	-14.9455
▁essential	-14.9455
▁humbly	-14.9455
▁initial	-14.9455
▁lawnmower	-14.9455
▁pelican	-14.9455
▁rainstorm	-14.9455
▁ringmaster	-14.9455
▁sizzling	-14.9455
▁tambourine	-14.9455
▁tentatively	-14.9455
▁pursu	-14.9455
Coming	-14.9455
▁Short	-14.9455
▁Bryan	-14.9455
▁clump	-14.9455
▁Twig	-14.9616
Peace	-14.9697
Ollie	-14.9697
ubber	-14.972
▁tangle	-14.9731
Circus	-14.9733
▁Australia	-14.9733
▁Doodle	-14.9733
▁Floofy	-14.9733
▁Hunter	-14.9733
▁Stevie	-14.9733
▁Tricia	-14.9733
▁absorb	-14.9733
▁advertisement	-14.9733
▁ahhed	-14.9733
▁clench	-14.9733
▁cranny	-14.9733
▁elegant	-14.9733
▁galaxy	-14.9733
▁handcuffs	-14.9733
▁instructed	-14.9733
